<pad>	0
<unk>	0
<s>	0
</s>	0
我们	-0
▁这	-1
一个	-2
▁我	-3
他们	-4
▁我们	-5
可以	-6
▁但	-7
这个	-8
▁在	-9
▁你	-10
就是	-11
什么	-12
这些	-13
因为	-14
如果	-15
▁而	-16
▁所	-17
没有	-18
现在	-19
▁他们	-20
▁它	-21
▁那	-22
知道	-23
▁所以	-24
问题	-25
▁这是	-26
的人	-27
不是	-28
▁因为	-29
非常	-30
世界	-31
▁但是	-32
自己	-33
▁当	-34
这样	-35
一些	-36
开始	-37
▁他	-38
的时	-39
▁如果	-40
看到	-41
--	-42
需要	-43
我的	-44
▁是	-45
然后	-46
可能	-47
你们	-48
的是	-49
▁"	-50
▁有	-51
东西	-52
一种	-53
人们	-54
▁不	-55
已经	-56
很多	-57
我们的	-58
工作	-59
。"	-60
▁然后	-61
的事	-62
的时候	-63
它们	-64
认为	-65
00	-66
▁并	-67
所有	-68
▁现在	-69
发现	-70
▁就	-71
▁这些	-72
那些	-73
或者	-74
发生	-75
▁也	-76
研究	-77
孩子	-78
——	-79
▁这个	-80
大的	-81
一样	-82
大家	-83
不同	-84
国家	-85
到了	-86
的一	-87
其他	-88
生活	-89
地方	-90
重要	-91
这是	-92
如何	-93
还有	-94
▁和	-95
起来	-96
你的	-97
▁一	-98
都是	-99
好的	-100
美国	-101
设计	-102
这种	-103
通过	-104
告诉	-105
部分	-106
这里	-107
▁对	-108
方式	-109
任何	-110
改变	-111
▁以	-112
使用	-113
▁她	-114
中的	-115
能够	-116
人的	-117
▁从	-118
关于	-119
为什么	-120
怎么	-121
故事	-122
系统	-123
人类	-124
只是	-125
▁来	-126
不会	-127
▁一个	-128
时间	-129
▁让	-130
应该	-131
因此	-132
事实	-133
一下	-134
技术	-135
进行	-136
实际	-137
,"	-138
▁而且	-139
希望	-140
的东西	-141
是一个	-142
▁最	-143
上的	-144
必须	-145
一起	-146
来的	-147
觉得	-148
来说	-149
他们的	-150
个人	-151
科学	-152
这一	-153
正在	-154
不能	-155
数据	-156
成为	-157
社会	-158
的事情	-159
这样的	-160
▁它们	-161
▁因此	-162
▁我想	-163
信息	-164
:"	-165
我想	-166
▁如果你	-167
还是	-168
自己的	-169
方法	-170
真的	-171
今天	-172
一次	-173
喜欢	-174
生物	-175
创造	-176
到的	-177
样的	-178
做的	-179
发展	-180
▁每	-181
生命	-182
▁并且	-183
同时	-184
公司	-185
完全	-186
▁或者	-187
?"	-188
▁这就是	-189
实际上	-190
▁那么	-191
新的	-192
这么	-193
存在	-194
▁就是	-195
了一	-196
了一个	-197
▁其	-198
大脑	-199
事实上	-200
▁比	-201
更多	-202
影响	-203
真正	-204
那个	-205
之后	-206
经济	-207
20	-208
▁--	-209
他的	-210
简单	-211
实验	-212
谢谢	-213
▁我的	-214
▁第	-215
看看	-216
情况	-217
了解	-218
的地方	-219
有一个	-220
甚至	-221
机器	-222
结果	-223
作为	-224
得到	-225
帮助	-226
的问题	-227
决定	-228
解决	-229
也是	-230
细胞	-231
那里	-232
19	-233
是在	-234
..	-235
不同的	-236
为了	-237
想法	-238
▁大	-239
如此	-240
两个	-241
事情	-242
组织	-243
过去	-244
整个	-245
▁都	-246
时候	-247
许多	-248
▁你们	-249
▁还有	-250
有一	-251
照片	-252
仅仅	-253
城市	-254
一直	-255
相信	-256
动物	-257
产生	-258
感觉	-259
艺术	-260
环境	-261
之前	-262
变得	-263
的话	-264
过程	-265
项目	-266
选择	-267
于是	-268
出来	-269
地球	-270
就会	-271
方面	-272
10	-273
下来	-274
▁你可以	-275
年前	-276
不知道	-277
原因	-278
来自	-279
▁以及	-280
意识	-281
政府	-282
例子	-283
自然	-284
想象	-285
性的	-286
拥有	-287
我在	-288
▁的	-289
展示	-290
建筑	-291
之间	-292
er	-293
想要	-294
只有	-295
之一	-296
那么	-297
非洲	-298
计算	-299
全球	-300
理解	-301
▁好	-302
教育	-303
▁于是	-304
它的	-305
学习	-306
网络	-307
是个	-308
里的	-309
音乐	-310
变成	-311
200	-312
一点	-313
美元	-314
无法	-315
找到	-316
是什么	-317
提供	-318
an	-319
对于	-320
朋友	-321
基本	-322
▁人们	-323
▁当然	-324
学生	-325
能力	-326
▁用	-327
▁或	-328
意思	-329
▁把	-330
▁可以	-331
如果你	-332
▁(	-333
▁去	-334
▁谢谢	-335
电脑	-336
印度	-337
关系	-338
并不	-339
变化	-340
基因	-341
行为	-342
的方式	-343
将会	-344
成功	-345
学校	-346
游戏	-347
▁事实上	-348
学家	-349
是一	-350
▁要	-351
科技	-352
思考	-353
▁这样	-354
有趣	-355
▁这种	-356
空间	-357
怎样	-358
运动	-359
▁比如	-360
以及	-361
出现	-362
50	-363
演讲	-364
历史	-365
利用	-366
让我	-367
的一个	-368
意义	-369
控制	-370
声音	-371
▁这里	-372
所有的	-373
身体	-374
就像	-375
▁没有	-376
最后	-377
各种	-378
复杂	-379
制造	-380
▁我们的	-381
令人	-382
其实	-383
我们可以	-384
▁就像	-385
▁那些	-386
把它	-387
的时间	-388
另一个	-389
件事	-390
你可以	-391
特别	-392
▁很	-393
中国	-394
其中	-395
世纪	-396
意味	-397
所以	-398
食物	-399
▁我认为	-400
宇宙	-401
文化	-402
做了	-403
未来	-404
安全	-405
建立	-406
有些	-407
确实	-408
在一起	-409
经历	-410
健康	-411
完成	-412
说的	-413
多少	-414
机会	-415
▁会	-416
是否	-417
▁所有	-418
▁接	-419
尝试	-420
当时	-421
让我们	-422
神经	-423
重要的	-424
▁所以我	-425
年的	-426
多数	-427
语言	-428
进入	-429
市场	-430
▁不过	-431
另外	-432
计划	-433
小时	-434
中心	-435
▁我们可以	-436
模式	-437
ar	-438
意味着	-439
继续	-440
地区	-441
另一	-442
医生	-443
▁与	-444
▁正	-445
我要	-446
但是	-447
几个	-448
我们在	-449
感到	-450
▁这是一个	-451
活动	-452
解释	-453
也许	-454
作用	-455
联系	-456
ED	-457
叫做	-458
注意	-459
电影	-460
▁同时	-461
治疗	-462
▁即	-463
▁只	-464
小的	-465
第一	-466
in	-467
才能	-468
主义	-469
参与	-470
"。	-471
合作	-472
价值	-473
生产	-474
世界上	-475
疾病	-476
▁通过	-477
获得	-478
工具	-479
on	-480
000	-481
量的	-482
作品	-483
政治	-484
▁将	-485
十分	-486
有人	-487
▁我在	-488
保护	-489
看起来	-490
意识到	-491
大学	-492
里面	-493
孩子们	-494
看到的	-495
TED	-496
同样	-497
更加	-498
回到	-499
死亡	-500
三个	-501
重新	-502
领域	-503
就能	-504
▁为什么	-505
几乎	-506
首先	-507
有点	-508
是我们	-509
▁如果我们	-510
年代	-511
处理	-512
机器人	-513
▁到	-514
▁再	-515
目标	-516
汽车	-517
▁非常	-518
曾经	-519
就可以	-520
答案	-521
分钟	-522
相当	-523
观察	-524
数字	-525
30	-526
反应	-527
关注	-528
产品	-529
结构	-530
▁但我	-531
一定	-532
女性	-533
病毒	-534
出了	-535
太阳	-536
在这里	-537
兴趣	-538
家庭	-539
▁实际上	-540
▁所以我们	-541
包括	-542
有了	-543
讨论	-544
然而	-545
过的	-546
更多的	-547
人都	-548
显示	-549
自由	-550
▁最后	-551
▁而是	-552
接受	-553
并不是	-554
感谢	-555
▁对于	-556
准备	-557
百万	-558
某种	-559
发明	-560
努力	-561
力量	-562
在这	-563
制作	-564
年轻	-565
当然	-566
的大	-567
▁可	-568
分享	-569
▁你会	-570
代表	-571
持续	-572
精神	-573
程度	-574
▁当你	-575
容易	-576
成的	-577
类似	-578
▁然而	-579
实现	-580
总是	-581
▁也许	-582
比较	-583
不可	-584
都有	-585
她的	-586
认识	-587
15	-588
根本	-589
色的	-590
带来	-591
那样	-592
观众	-593
资源	-594
▁当我	-595
理论	-596
明白	-597
能源	-598
分子	-599
主要	-600
出的	-601
百分	-602
区域	-603
巨大的	-604
的故事	-605
▁看	-606
越来	-607
▁还	-608
服务	-609
自我	-610
▁更	-611
概念	-612
第二	-613
不到	-614
上面	-615
知识	-616
越来越	-617
去了	-618
我说	-619
挑战	-620
模型	-621
病人	-622
这个问题	-623
唯一	-624
直到	-625
支持	-626
的方法	-627
每个	-628
▁被	-629
现实	-630
以前	-631
海洋	-632
基础	-633
并且	-634
都会	-635
发生了	-636
工程	-637
计算机	-638
多的	-639
成了	-640
纽约	-641
",	-642
▁为	-643
▁甚至	-644
的人们	-645
化的	-646
虽然	-647
▁能	-648
是因为	-649
▁也就是	-650
行动	-651
增长	-652
观点	-653
▁那就是	-654
是我	-655
考虑	-656
▁无	-657
▁让我们	-658
▁像	-659
▁我们在	-660
视频	-661
每个人	-662
材料	-663
不断	-664
女孩	-665
身上	-666
通常	-667
▁使	-668
大概	-669
物质	-670
可能会	-671
真实	-672
战争	-673
有个	-674
母亲	-675
▁其实	-676
科学家	-677
第一个	-678
的小	-679
就在	-680
有很多	-681
结束	-682
超过	-683
哪里	-684
力的	-685
办法	-686
英国	-687
清楚	-688
目前	-689
都在	-690
在一个	-691
寻找	-692
社区	-693
▁关于	-694
机构	-695
▁说	-696
听到	-697
有关	-698
同样的	-699
▁他说	-700
▁其中	-701
仅仅是	-702
做到	-703
记录	-704
你会	-705
电话	-706
的工作	-707
这就是	-708
应用	-709
最终	-710
你知道	-711
en	-712
也不	-713
大约	-714
角度	-715
离开	-716
尽管	-717
别人	-718
▁我们需要	-719
测试	-720
▁S	-721
速度	-722
愿意	-723
设备	-724
飞行	-725
传统	-726
▁大家	-727
▁由	-728
当你	-729
图片	-730
看见	-731
名字	-732
等等	-733
错误	-734
一个人	-735
投资	-736
在这个	-737
电子	-738
电视	-739
实验室	-740
有的	-741
做出	-742
充满	-743
记得	-744
一位	-745
一切	-746
▁给	-747
仍然	-748
连接	-749
我认为	-750
而且	-751
媒体	-752
得不	-753
民主	-754
用的	-755
谈论	-756
NA	-757
人口	-758
▁今天	-759
简单的	-760
儿童	-761
内容	-762
世界的	-763
移动	-764
做什么	-765
数学	-766
相关	-767
我们所	-768
受到	-769
100	-770
关键	-771
▁我说	-772
一样的	-773
一天	-774
放在	-775
第一次	-776
医疗	-777
后来	-778
定的	-779
手术	-780
证明	-781
大多数	-782
▁B	-783
我不	-784
癌症	-785
至少	-786
想到	-787
能量	-788
试图	-789
▁如	-790
正确	-791
每天	-792
石油	-793
百分之	-794
▁不是	-795
她们	-796
很好	-797
▁当我们	-798
物种	-799
增加	-800
足够	-801
有效	-802
面对	-803
鼓掌	-804
导致	-805
18	-806
不可能	-807
基本上	-808
的世界	-809
它是	-810
的一部分	-811
方向	-812
回答	-813
我是	-814
飞机	-815
保持	-816
减少	-817
进化	-818
▁我要	-819
网站	-820
老师	-821
子的	-822
我就	-823
时代	-824
真正的	-825
下的	-826
是很	-827
给你们	-828
40	-829
用来	-830
并没有	-831
到底	-832
让人	-833
上去	-834
交流	-835
例如	-836
我会	-837
形式	-838
父亲	-839
现象	-840
直接	-841
▁C	-842
▁作为	-843
也会	-844
宗教	-845
le	-846
本身	-847
斯坦	-848
探索	-849
or	-850
下面	-851
也有	-852
功能	-853
快乐	-854
▁它是	-855
具有	-856
其它	-857
范围	-858
▁为了	-859
体的	-860
物理	-861
达到	-862
了这个	-863
▁你知道	-864
给我	-865
了我	-866
而言	-867
▁第二	-868
植物	-869
一张	-870
共同	-871
刚刚	-872
▁我不	-873
上帝	-874
周围	-875
明显	-876
突然	-877
告诉你	-878
的情况	-879
▁A	-880
管理	-881
12	-882
▁很多	-883
在我	-884
▁我是	-885
父母	-886
道德	-887
看着	-888
▁因为我们	-889
随着	-890
最大的	-891
...	-892
创新	-893
建造	-894
开发	-895
表现	-896
以后	-897
女人	-898
60	-899
手机	-900
领导	-901
坐在	-902
有什么	-903
▁-	-904
数量	-905
来看	-906
十年	-907
一步	-908
企业	-909
更好	-910
▁首先	-911
互联	-912
ic	-913
给你	-914
at	-915
▁当时	-916
消息	-917
过来	-918
之间的	-919
最好的	-920
不要	-921
地图	-922
▁我觉得	-923
某些	-924
相同	-925
位置	-926
其他的	-927
事物	-928
规模	-929
的原因	-930
利亚	-931
公共	-932
▁一些	-933
▁M	-934
永远	-935
传播	-936
尼亚	-937
▁因为我	-938
商业	-939
药物	-940
程序	-941
眼睛	-942
▁让我	-943
个月	-944
很有	-945
是如何	-946
互联网	-947
告诉我	-948
▁而不是	-949
型的	-950
气候	-951
根据	-952
▁即使	-953
的孩子	-954
如果我们	-955
分析	-956
心理	-957
拍摄	-958
让你	-959
来到	-960
DNA	-961
▁有些	-962
▁想	-963
不再	-964
经常	-965
状态	-966
▁虽然	-967
▁除	-968
▁尽管	-969
收入	-970
▁我会	-971
也可以	-972
▁请	-973
你能	-974
很难	-975
▁已经	-976
感兴趣	-977
似乎	-978
这一点	-979
一年	-980
化学	-981
幸福	-982
欧洲	-983
现代	-984
▁接着	-985
人类的	-986
我来说	-987
▁—	-988
只能	-989
难以	-990
人员	-991
ll	-992
各位	-993
困难	-994
样子	-995
危险	-996
正常	-997
11	-998
好像	-999
担心	-1000
系列	-1001
▁那是	-1002
问题是	-1003
有着	-1004
阶段	-1005
思想	-1006
长的	-1007
发生的	-1008
体验	-1009
最近	-1010
从来	-1011
比如	-1012
相互	-1013
经过	-1014
表达	-1015
试着	-1016
团队	-1017
地的	-1018
男人	-1019
▁在我	-1020
行的	-1021
多么	-1022
我们需要	-1023
加入	-1024
在于	-1025
更好的	-1026
在那	-1027
试验	-1028
出来的	-1029
不过	-1030
当我	-1031
要求	-1032
妈妈	-1033
形成	-1034
称为	-1035
软件	-1036
▁结果	-1037
本书	-1038
者的	-1039
我们有	-1040
▁假	-1041
子里	-1042
肯定	-1043
▁他们的	-1044
▁你的	-1045
is	-1046
严重	-1047
预测	-1048
聪明	-1049
任务	-1050
平均	-1051
目的	-1052
房间	-1053
提高	-1054
大部分	-1055
it	-1056
会有	-1057
医院	-1058
参加	-1059
很快	-1060
▁美国	-1061
生活在	-1062
25	-1063
你在	-1064
生存	-1065
发现了	-1066
妇女	-1067
确定	-1068
▁直到	-1069
每一个	-1070
一段	-1071
它们的	-1072
一条	-1073
英尺	-1074
调查	-1075
▁可能	-1076
发生在	-1077
我所	-1078
效果	-1079
▁例如	-1080
过去的	-1081
生态	-1082
革命	-1083
▁能够	-1084
国际	-1085
值得	-1086
奇怪	-1087
是一种	-1088
▁我希望	-1089
信号	-1090
定义	-1091
方案	-1092
我们要	-1093
这是一个	-1094
视觉	-1095
其他人	-1096
生的	-1097
新闻	-1098
是有	-1099
那种	-1100
面临	-1101
面的	-1102
▁都是	-1103
▁在这个	-1104
带着	-1105
标准	-1106
训练	-1107
这张	-1108
了很多	-1109
得到了	-1110
过程中	-1111
兴奋	-1112
记忆	-1113
说过	-1114
事件	-1115
不需要	-1116
了我们	-1117
回来	-1118
尤其	-1119
用于	-1120
艾滋	-1121
国家的	-1122
▁一种	-1123
吸引	-1124
的研究	-1125
▁但我们	-1126
和我	-1127
完美	-1128
开放	-1129
▁我知道	-1130
好了	-1131
水平	-1132
表演	-1133
▁做	-1134
后的	-1135
意思是	-1136
oo	-1137
全部	-1138
我们就	-1139
▁却	-1140
绝对	-1141
说明	-1142
描述	-1143
我们能	-1144
法律	-1145
告诉我们	-1146
会议	-1147
图像	-1148
恐惧	-1149
星期	-1150
普通	-1151
看到了	-1152
不错	-1153
住在	-1154
心脏	-1155
英里	-1156
下去	-1157
不用	-1158
▁R	-1159
以为	-1160
允许	-1161
自身	-1162
不起	-1163
▁又	-1164
创作	-1165
80	-1166
es	-1167
失败	-1168
空气	-1169
艺术家	-1170
打开	-1171
需求	-1172
▁只有	-1173
全世界	-1174
重要的是	-1175
一只	-1176
两种	-1177
去做	-1178
收集	-1179
▁但这	-1180
▁这就	-1181
专家	-1182
梦想	-1183
消失	-1184
90	-1185
介绍	-1186
因素	-1187
是怎么	-1188
感染	-1189
消费	-1190
糟糕	-1191
问题的	-1192
星球	-1193
经验	-1194
运作	-1195
▁还是	-1196
显然	-1197
美丽	-1198
▁看看	-1199
给我们	-1200
▁P	-1201
▁人	-1202
会说	-1203
上了	-1204
感受	-1205
行星	-1206
▁我可以	-1207
的最	-1208
动作	-1209
我可以	-1210
是非常	-1211
心的	-1212
▁只是	-1213
复杂的	-1214
体系	-1215
是的	-1216
高的	-1217
很好的	-1218
一般	-1219
形状	-1220
▁我也	-1221
给大家	-1222
结合	-1223
西方	-1224
在那里	-1225
工业	-1226
有一些	-1227
细菌	-1228
▁他的	-1229
以来	-1230
句话	-1231
土地	-1232
运用	-1233
▁另外	-1234
▁它的	-1235
▁无论	-1236
或许	-1237
伟大的	-1238
很重要	-1239
的数据	-1240
▁这是个	-1241
不多	-1242
表面	-1243
▁不管	-1244
▁正如	-1245
当我们	-1246
到达	-1247
危机	-1248
正是	-1249
没有人	-1250
这么做	-1251
中间	-1252
一件	-1253
不仅	-1254
神奇	-1255
都不	-1256
▁那个	-1257
让他们	-1258
▁但是我	-1259
▁我们现在	-1260
am	-1261
的一切	-1262
之中	-1263
政策	-1264
▁只要	-1265
花费	-1266
动的	-1267
真是	-1268
边的	-1269
把它们	-1270
都知道	-1271
先生	-1272
办公	-1273
恐怖	-1274
智慧	-1275
这样做	-1276
....	-1277
▁J	-1278
交通	-1279
婴儿	-1280
成本	-1281
表明	-1282
接触	-1283
暴力	-1284
某个	-1285
▁19	-1286
▁我们要	-1287
或是	-1288
这项	-1289
把这些	-1290
▁我们有	-1291
一名	-1292
设计的	-1293
内部	-1294
类的	-1295
距离	-1296
▁D	-1297
条件	-1298
几年	-1299
规则	-1300
▁她们	-1301
▁开始	-1302
高兴	-1303
▁如何	-1304
▁我们必须	-1305
联合	-1306
风险	-1307
这一切	-1308
压力	-1309
男孩	-1310
装置	-1311
▁你能	-1312
可能是	-1313
学的	-1314
投入	-1315
提出	-1316
工作的	-1317
生命的	-1318
的生活	-1319
有多	-1320
特殊	-1321
称之	-1322
责任	-1323
al	-1324
四个	-1325
幸运	-1326
那时	-1327
基于	-1328
降低	-1329
ac	-1330
学会	-1331
▁这是我	-1332
▁但是我们	-1333
70	-1334
el	-1335
不得不	-1336
还没有	-1337
▁因为他们	-1338
处于	-1339
建议	-1340
转变	-1341
些什么	-1342
大量的	-1343
的信息	-1344
的照片	-1345
▁G	-1346
你所	-1347
称之为	-1348
▁我们也	-1349
取得	-1350
▁人类	-1351
我也	-1352
蛋白	-1353
未来的	-1354
!"	-1355
那是	-1356
很多人	-1357
这些人	-1358
你要	-1359
出去	-1360
相似	-1361
表示	-1362
还在	-1363
进步	-1364
了一些	-1365
独立	-1366
▁非常感谢	-1367
你就	-1368
都能	-1369
在我们	-1370
很大的	-1371
家伙	-1372
积极	-1373
塑料	-1374
绿色	-1375
▁在这	-1376
▁那时	-1377
ou	-1378
医学	-1379
▁最终	-1380
其中的	-1381
博物	-1382
告诉你们	-1383
▁自	-1384
世界各	-1385
小孩	-1386
每年	-1387
相反	-1388
颜色	-1389
的想法	-1390
专业	-1391
使得	-1392
冲突	-1393
讲述	-1394
还要	-1395
什么是	-1396
博物馆	-1397
▁我们能	-1398
▁没	-1399
二十	-1400
彼此	-1401
银行	-1402
出生	-1403
晚上	-1404
状况	-1405
见的	-1406
女士	-1407
很大	-1408
▁或是	-1409
我觉得	-1410
屏幕	-1411
痛苦	-1412
站在	-1413
改变了	-1414
动力	-1415
权利	-1416
停止	-1417
的主	-1418
▁之后	-1419
▁来自	-1420
的例子	-1421
神经元	-1422
艾滋病	-1423
杂志	-1424
不想	-1425
刚才	-1426
对此	-1427
质量	-1428
▁后来	-1429
地球上	-1430
的影响	-1431
▁然后我	-1432
广告	-1433
房子	-1434
放到	-1435
文章	-1436
组成	-1437
▁我就	-1438
互相	-1439
对吧	-1440
时期	-1441
的那	-1442
别的	-1443
只要	-1444
当地	-1445
所在	-1446
操作	-1447
测量	-1448
情况下	-1449
是不	-1450
里斯	-1451
阅读	-1452
▁我们会	-1453
一直在	-1454
▁然后我们	-1455
as	-1456
▁K	-1457
总统	-1458
是最	-1459
爆炸	-1460
他们在	-1461
可以看到	-1462
下降	-1463
他人	-1464
快速	-1465
集中	-1466
▁好吧	-1467
的能力	-1468
他说	-1469
和平	-1470
分之一	-1471
......	-1472
et	-1473
度的	-1474
情绪	-1475
模拟	-1476
武器	-1477
的确	-1478
角色	-1479
资金	-1480
有趣的	-1481
名的	-1482
将要	-1483
价格	-1484
我能	-1485
背景	-1486
▁包括	-1487
下来的	-1488
也没有	-1489
设计师	-1490
▁现在我们	-1491
▁T	-1492
了这	-1493
▁接下来	-1494
情感	-1495
演奏	-1496
差不多	-1497
得到的	-1498
当中	-1499
▁这一	-1500
下一个	-1501
的国家	-1502
给他们	-1503
我们现在	-1504
知的	-1505
花了	-1506
造成	-1507
ed	-1508
之外	-1509
关心	-1510
引起	-1511
爱的	-1512
竞争	-1513
统计	-1514
▁想象	-1515
是不是	-1516
回家	-1517
文明	-1518
看来	-1519
课程	-1520
▁我很	-1521
▁或许	-1522
的结果	-1523
▁跟	-1524
从未	-1525
保证	-1526
同情	-1527
威胁	-1528
毫无	-1529
氧化	-1530
火星	-1531
▁每个	-1532
怎么样	-1533
属于	-1534
星系	-1535
漂亮	-1536
负责	-1537
你们的	-1538
▁1	-1539
失去	-1540
很棒	-1541
理由	-1542
而不是	-1543
▁这是一	-1544
早期	-1545
办公室	-1546
变成了	-1547
程度上	-1548
信仰	-1549
实在	-1550
日本	-1551
时的	-1552
▁任何	-1553
▁我们就	-1554
互动	-1555
发表	-1556
基金	-1557
英语	-1558
适应	-1559
▁而这	-1560
▁我们已经	-1561
森林	-1562
漫画	-1563
有可能	-1564
大量	-1565
太多	-1566
害怕	-1567
本质	-1568
行业	-1569
阿拉	-1570
▁第一	-1571
找到了	-1572
的事物	-1573
美国人	-1574
都可以	-1575
这样一个	-1576
可怕	-1577
巨大	-1578
疯狂	-1579
而是	-1580
我们会	-1581
接近	-1582
过了	-1583
避免	-1584
马上	-1585
▁有人	-1586
原始	-1587
太空	-1588
常常	-1589
教授	-1590
生活中	-1591
这件事	-1592
不在	-1593
千万	-1594
同事	-1595
的新	-1596
破坏	-1597
证据	-1598
所有人	-1599
都没有	-1600
om	-1601
依赖	-1602
思维	-1603
用了	-1604
设施	-1605
▁上	-1606
即使	-1607
逐渐	-1608
食品	-1609
产生的	-1610
▁这样的	-1611
是由	-1612
▁从而	-1613
有多少	-1614
▁两	-1615
▁总	-1616
利益	-1617
年里	-1618
▁L	-1619
假设	-1620
对话	-1621
是从	-1622
生长	-1623
结论	-1624
带来的	-1625
年轻人	-1626
所做的	-1627
建设	-1628
患者	-1629
燃料	-1630
的成	-1631
谈谈	-1632
▁我们将	-1633
部门	-1634
▁大约	-1635
▁尤其	-1636
▁需要	-1637
亿美元	-1638
的声音	-1639
做的事情	-1640
垃圾	-1641
所谓	-1642
来了	-1643
鼓励	-1644
之处	-1645
年龄	-1646
文字	-1647
温度	-1648
▁多	-1649
农业	-1650
平衡	-1651
才是	-1652
报道	-1653
哪些	-1654
恢复	-1655
比亚	-1656
也就是	-1657
成功的	-1658
▁此	-1659
儿子	-1660
包含	-1661
并非	-1662
可以在	-1663
注意到	-1664
▁比如说	-1665
仔细	-1666
元素	-1667
想想	-1668
职业	-1669
肿瘤	-1670
限制	-1671
▁特别	-1672
做的是	-1673
我知道	-1674
这些东西	-1675
打算	-1676
记住	-1677
邀请	-1678
面前	-1679
面包	-1680
▁大概	-1681
我们已经	-1682
▁你可以看到	-1683
扫描	-1684
摄影	-1685
的环境	-1686
▁如果我	-1687
免费	-1688
时刻	-1689
那儿	-1690
▁那里	-1691
把这个	-1692
的力量	-1693
特的	-1694
运行	-1695
对我们	-1696
工程师	-1697
来自于	-1698
各个	-1699
ha	-1700
物体	-1701
人们的	-1702
看上去	-1703
没有任何	-1704
比赛	-1705
消耗	-1706
器官	-1707
左右	-1708
式的	-1709
来源	-1710
相比	-1711
蚂蚁	-1712
▁同样	-1713
▁好的	-1714
▁于是我	-1715
呼吸	-1716
岁的	-1717
差异	-1718
污染	-1719
▁这张	-1720
太阳能	-1721
一场	-1722
不管	-1723
像是	-1724
再次	-1725
改善	-1726
放弃	-1727
旅行	-1728
熟悉	-1729
阻止	-1730
▁我相信	-1731
咖啡	-1732
家里	-1733
老鼠	-1734
的过程	-1735
享受	-1736
女儿	-1737
思议	-1738
理念	-1739
终于	-1740
可能性	-1741
生活的	-1742
▁这不是	-1743
博客	-1744
遇到	-1745
听起来	-1746
16	-1747
学院	-1748
疫苗	-1749
ter	-1750
▁每个人	-1751
▁我们知道	-1752
监狱	-1753
▁假如	-1754
▁我还	-1755
的技术	-1756
下一	-1757
培养	-1758
复制	-1759
富汗	-1760
循环	-1761
惊讶	-1762
拉克	-1763
排放	-1764
重复	-1765
500	-1766
▁正在	-1767
正确的	-1768
阿富汗	-1769
2000	-1770
▁这也是	-1771
上升	-1772
同意	-1773
援助	-1774
电池	-1775
相对	-1776
都很	-1777
▁我们还	-1778
▁几	-1779
好吧	-1780
拯救	-1781
警察	-1782
▁整个	-1783
▁他们会	-1784
▁H	-1785
不了	-1786
交易	-1787
多样	-1788
好处	-1789
承认	-1790
认知	-1791
▁是的	-1792
▁因为它	-1793
▁我不知道	-1794
恐龙	-1795
斯特	-1796
检测	-1797
种族	-1798
群体	-1799
英雄	-1800
这儿	-1801
发展中	-1802
▁向	-1803
人在	-1804
工厂	-1805
看法	-1806
而已	-1807
二氧化	-1808
5%	-1809
he	-1810
习惯	-1811
对我	-1812
年后	-1813
智能	-1814
成长	-1815
昆虫	-1816
▁完全	-1817
你是	-1818
博士	-1819
猩猩	-1820
成为一个	-1821
os	-1822
体内	-1823
见过	-1824
的感觉	-1825
▁第一个	-1826
▁三	-1827
说话	-1828
贫穷	-1829
驾驶	-1830
▁而我	-1831
发生了什么	-1832
ur	-1833
坚持	-1834
必要	-1835
在美国	-1836
存在的	-1837
蛋白质	-1838
▁另一个	-1839
做得	-1840
原子	-1841
的地	-1842
皮肤	-1843
笑声	-1844
自行	-1845
进去	-1846
的设计	-1847
▁他们在	-1848
▁谁	-1849
人生	-1850
社交	-1851
究竟	-1852
约翰	-1853
长大	-1854
▁世界	-1855
我们必须	-1856
▁2	-1857
原则	-1858
发出	-1859
图书	-1860
报告	-1861
观念	-1862
长期	-1863
障碍	-1864
信任	-1865
制度	-1866
卫生	-1867
完整	-1868
秘密	-1869
第三	-1870
我们对	-1871
那样的	-1872
▁我开始	-1873
二氧化碳	-1874
满足	-1875
置信	-1876
诊断	-1877
▁目前	-1878
之所以	-1879
的一些	-1880
克斯	-1881
让它	-1882
辩论	-1883
基因组	-1884
是这样的	-1885
看到的是	-1886
也能	-1887
居住	-1888
进一步	-1889
▁F	-1890
位于	-1891
创建	-1892
卫星	-1893
比例	-1894
至于	-1895
贫困	-1896
采取	-1897
了这些	-1898
▁小	-1899
在一	-1900
家人	-1901
往往	-1902
犯罪	-1903
理想	-1904
部的	-1905
▁加	-1906
无论	-1907
灾难	-1908
追求	-1909
成为了	-1910
▁克	-1911
翻译	-1912
贡献	-1913
▁由于	-1914
喜欢的	-1915
不仅仅是	-1916
原理	-1917
外的	-1918
美好	-1919
一个小	-1920
另一种	-1921
这是个	-1922
▁也就是说	-1923
▁我们发现	-1924
也在	-1925
找出	-1926
搜索	-1927
早上	-1928
沟通	-1929
爸爸	-1930
看待	-1931
蜜蜂	-1932
▁——	-1933
怎么做	-1934
有意思	-1935
相同的	-1936
不可思议	-1937
人民	-1938
伊斯	-1939
分布	-1940
在座	-1941
细节	-1942
说法	-1943
资料	-1944
针对	-1945
▁我将	-1946
▁许多	-1947
▁基本上	-1948
所有这些	-1949
▁这意味着	-1950
▁嗯	-1951
学到	-1952
年来	-1953
攻击	-1954
流行	-1955
网上	-1956
这类	-1957
▁而我们	-1958
上万	-1959
会在	-1960
公民	-1961
寿命	-1962
慢慢	-1963
血管	-1964
迅速	-1965
▁可是	-1966
▁就在	-1967
▁研究	-1968
另外一个	-1969
这个世界	-1970
ch	-1971
妻子	-1972
层面	-1973
很长	-1974
我很	-1975
是对	-1976
美金	-1977
超级	-1978
路上	-1979
▁进行	-1980
什么呢	-1981
▁我现在	-1982
作为一个	-1983
难以置信	-1984
今年	-1985
反对	-1986
墨西	-1987
有所	-1988
的水	-1989
到一个	-1990
墨西哥	-1991
us	-1992
把这	-1993
的高	-1994
重点	-1995
▁一旦	-1996
▁几乎	-1997
得以	-1998
男性	-1999
记者	-2000
谷歌	-2001
选举	-2002
错了	-2003
▁你要	-2004
他们会	-2005
会发生	-2006
使用的	-2007
出现在	-2008
接下来	-2009
的社会	-2010
▁他们说	-2011
▁谢谢大家	-2012
变革	-2013
国的	-2014
机制	-2015
深入	-2016
趋势	-2017
除了	-2018
▁我对	-2019
▁至少	-2020
一部分	-2021
各种各	-2022
足够的	-2023
伦敦	-2024
妙的	-2025
普遍	-2026
来做	-2027
附近	-2028
▁你看	-2029
▁如今	-2030
出现了	-2031
▁是一个	-2032
平台	-2033
播放	-2034
核心	-2035
检查	-2036
▁中国	-2037
▁也是	-2038
▁她说	-2039
伊斯兰	-2040
17	-2041
▁3	-2042
公园	-2043
十亿	-2044
成员	-2045
我对	-2046
我将	-2047
我还	-2048
提到	-2049
由于	-2050
疟疾	-2051
购买	-2052
这次	-2053
▁但在	-2054
真实的	-2055
范围内	-2056
从来没有	-2057
▁这是我们	-2058
成千	-2059
确保	-2060
节目	-2061
获取	-2062
输入	-2063
适合	-2064
了我的	-2065
存在于	-2066
的人口	-2067
阿拉伯	-2068
他在	-2069
区别	-2070
见到	-2071
是这样	-2072
▁200	-2073
帮助我们	-2074
从中	-2075
灭绝	-2076
▁好了	-2077
不够	-2078
幻灯	-2079
彻底	-2080
得多	-2081
掌握	-2082
珊瑚	-2083
脆弱	-2084
资本	-2085
和其他	-2086
很容易	-2087
方面的	-2088
来看看	-2089
▁在我们	-2090
▁所有的	-2091
▁是因为	-2092
14	-2093
▁全	-2094
▁随	-2095
名为	-2096
怀疑	-2097
技能	-2098
最好	-2099
现场	-2100
玻璃	-2101
▁希望	-2102
▁或者是	-2103
re	-2104
探测	-2105
衣服	-2106
财富	-2107
释放	-2108
▁W	-2109
一块	-2110
启发	-2111
平等	-2112
能在	-2113
苹果	-2114
▁你就	-2115
个小时	-2116
公司的	-2117
历史上	-2118
我自己	-2119
生物学	-2120
真的是	-2121
我们应该	-2122
这个项目	-2123
▁我的意思是	-2124
到处	-2125
强烈	-2126
成果	-2127
机械	-2128
罗斯	-2129
走进	-2130
▁什么	-2131
认识到	-2132
▁高	-2133
准确	-2134
后面	-2135
广泛	-2136
接着	-2137
身边	-2138
遗传	-2139
▁不要	-2140
▁有时	-2141
▁通常	-2142
一些人	-2143
做一个	-2144
几个月	-2145
公开	-2146
军队	-2147
报纸	-2148
采用	-2149
现在的	-2150
说的是	-2151
非常重要	-2152
一项	-2153
中有	-2154
我有	-2155
组合	-2156
话题	-2157
我们是	-2158
世界各地	-2159
每个人都	-2160
传递	-2161
利的	-2162
浪费	-2163
玩耍	-2164
看不	-2165
红色	-2166
这条	-2167
▁下面	-2168
▁另一	-2169
▁我有	-2170
孩子的	-2171
▁有一个	-2172
▁换	-2173
按照	-2174
提醒	-2175
海岸	-2176
自动	-2177
途径	-2178
199	-2179
变得更	-2180
大脑的	-2181
感觉到	-2182
我开始	-2183
公众	-2184
发挥	-2185
合适	-2186
团体	-2187
摄像	-2188
日常	-2189
沙漠	-2190
激励	-2191
电力	-2192
给予	-2193
不仅仅	-2194
的发展	-2195
▁E	-2196
▁新	-2197
一家	-2198
便宜	-2199
刺激	-2200
态度	-2201
期望	-2202
流感	-2203
热情	-2204
粒子	-2205
道路	-2206
间的	-2207
▁它会	-2208
▁除了	-2209
伊拉克	-2210
出一个	-2211
可持续	-2212
需要的	-2213
▁在这里	-2214
ot	-2215
ra	-2216
▁阿	-2217
一半	-2218
的书	-2219
给了	-2220
蓝色	-2221
▁我从	-2222
我想要	-2223
你想	-2224
创意	-2225
员工	-2226
案例	-2227
纳米	-2228
舞台	-2229
说是	-2230
▁大多数	-2231
▁我们都	-2232
24	-2233
一旦	-2234
则是	-2235
判断	-2236
穿过	-2237
id	-2238
ol	-2239
▁N	-2240
不好	-2241
兄弟	-2242
展现	-2243
期待	-2244
特征	-2245
缺乏	-2246
▁使用	-2247
把他们	-2248
错误的	-2249
下了	-2250
主意	-2251
伟大	-2252
做过	-2253
技巧	-2254
标志	-2255
第二个	-2256
那就是	-2257
▁我们对	-2258
▁我们所	-2259
乐观	-2260
伤害	-2261
估计	-2262
左边	-2263
感知	-2264
无线	-2265
混合	-2266
用户	-2267
等待	-2268
聚集	-2269
身份	-2270
还能	-2271
邮件	-2272
一系列	-2273
使我们	-2274
相当于	-2275
▁我喜欢	-2276
岁的时候	-2277
成千上万	-2278
."	-2279
前面	-2280
在你	-2281
很少	-2282
进来	-2283
▁他是	-2284
▁就会	-2285
件事情	-2286
做的事	-2287
发展的	-2288
向你们	-2289
基本的	-2290
我希望	-2291
自行车	-2292
il	-2293
不太	-2294
州的	-2295
版本	-2296
▁但它	-2297
▁创造	-2298
也不会	-2299
怎样的	-2300
所谓的	-2301
有些人	-2302
美国的	-2303
联合国	-2304
▁并不是	-2305
气候变化	-2306
▁海	-2307
具体	-2308
安德	-2309
对待	-2310
忘记	-2311
改革	-2312
权力	-2313
欢迎	-2314
每次	-2315
走到	-2316
走向	-2317
▁我和	-2318
强大的	-2319
我们都	-2320
这个词	-2321
一群	-2322
为止	-2323
做法	-2324
出版	-2325
▁不仅	-2326
▁他在	-2327
▁每天	-2328
我们将	-2329
的时代	-2330
13	-2331
去年	-2332
图表	-2333
毕业	-2334
没人	-2335
用它	-2336
维持	-2337
者们	-2338
超越	-2339
▁使得	-2340
▁根据	-2341
▁他们是	-2342
▁有时候	-2343
▁这些是	-2344
▁举	-2345
伊朗	-2346
标记	-2347
法国	-2348
▁20	-2349
的概念	-2350
%。	-2351
主题	-2352
优秀	-2353
内心	-2354
农民	-2355
德里	-2356
曲线	-2357
相机	-2358
金属	-2359
面积	-2360
可能的	-2361
幻灯片	-2362
想知道	-2363
我们不	-2364
我已经	-2365
▁我发现	-2366
某种程度上	-2367
个体	-2368
供应	-2369
古老	-2370
回事	-2371
德国	-2372
成就	-2373
涉及	-2374
简直	-2375
评论	-2376
金融	-2377
顺便	-2378
麻烦	-2379
▁不同	-2380
他们是	-2381
▁我是说	-2382
对我来说	-2383
开心	-2384
慈善	-2385
虚拟	-2386
逻辑	-2387
ing	-2388
只需要	-2389
惊人的	-2390
注意力	-2391
企鹅	-2392
玩具	-2393
舞蹈	-2394
这点	-2395
金钱	-2396
黑暗	-2397
▁第三	-2398
在哪里	-2399
这不是	-2400
呈现	-2401
外面	-2402
就要	-2403
手段	-2404
旅程	-2405
期间	-2406
极其	-2407
渴望	-2408
疑问	-2409
走了	-2410
如果我	-2411
完美的	-2412
的人生	-2413
▁我当时	-2414
▁爱	-2415
倾向	-2416
应对	-2417
物品	-2418
睡眠	-2419
色列	-2420
重大	-2421
不一样	-2422
了不起	-2423
我们也	-2424
没什么	-2425
系统的	-2426
让人们	-2427
▁开	-2428
临床	-2429
你有	-2430
共享	-2431
合理	-2432
启动	-2433
将来	-2434
执行	-2435
旁边	-2436
气体	-2437
▁看到	-2438
▁突然	-2439
主义者	-2440
产生了	-2441
同一个	-2442
的学生	-2443
的时刻	-2444
▁这是一种	-2445
▁天	-2446
从事	-2447
会儿	-2448
依然	-2449
商品	-2450
平方	-2451
得了	-2452
最初	-2453
死去	-2454
演示	-2455
今天的	-2456
有一天	-2457
真的很	-2458
▁在一个	-2459
哪个	-2460
总结	-2461
激动	-2462
看了	-2463
设想	-2464
问我	-2465
▁全球	-2466
发现的	-2467
应该是	-2468
1000	-2469
▁于是我们	-2470
▁放	-2471
丰富	-2472
人工	-2473
取决	-2474
大气	-2475
就有	-2476
恒星	-2477
旋转	-2478
穆斯	-2479
转移	-2480
因斯坦	-2481
ad	-2482
了吗	-2483
交谈	-2484
人和	-2485
传染	-2486
写的	-2487
同一	-2488
愿望	-2489
手指	-2490
着手	-2491
角落	-2492
轨道	-2493
这位	-2494
他们说	-2495
你自己	-2496
干细胞	-2497
穆斯林	-2498
▁马	-2499
两年	-2500
严肃	-2501
前进	-2502
哪儿	-2503
大众	-2504
尊重	-2505
居民	-2506
演员	-2507
画面	-2508
精确	-2509
说服	-2510
调整	-2511
▁将会	-2512
失去了	-2513
一个问题	-2514
▁我们应该	-2515
依靠	-2516
公平	-2517
分裂	-2518
发布	-2519
尼日	-2520
影片	-2521
有时	-2522
死了	-2523
生意	-2524
达尔	-2525
▁印度	-2526
▁而在	-2527
类似的	-2528
这么多	-2529
ri	-2530
▁反	-2531
专利	-2532
会被	-2533
右边	-2534
好奇	-2535
字母	-2536
带到	-2537
稳定	-2538
▁最近	-2539
是关于	-2540
的机会	-2541
美丽的	-2542
自然的	-2543
,000	-2544
我们自己	-2545
▁对我来说	-2546
发展中国家	-2547
如今	-2548
所需	-2549
效应	-2550
效率	-2551
模仿	-2552
每一	-2553
看过	-2554
透明	-2555
万美元	-2556
全新的	-2557
所说的	-2558
的所有	-2559
▁因为这	-2560
世界上最	-2561
▁想象一下	-2562
你可以看到	-2563
eb	-2564
众人	-2565
回去	-2566
投票	-2567
真相	-2568
着的	-2569
象征	-2570
边缘	-2571
▁仅仅	-2572
小小的	-2573
就开始	-2574
的速度	-2575
▁现在我	-2576
的情况下	-2577
不幸	-2578
人士	-2579
名叫	-2580
后果	-2581
在的	-2582
奖励	-2583
强大	-2584
录像	-2585
活跃	-2586
300	-2587
听说过	-2588
有效的	-2589
段时间	-2590
的一种	-2591
▁尤其是	-2592
▁这是在	-2593
▁这就是为什么	-2594
ay	-2595
客户	-2596
富有	-2597
形态	-2598
收到	-2599
极端	-2600
环保	-2601
穿着	-2602
行走	-2603
部落	-2604
▁一直	-2605
▁才能	-2606
取决于	-2607
的部分	-2608
非洲的	-2609
▁我们希望	-2610
人体	-2611
提升	-2612
教师	-2613
任何人	-2614
图书馆	-2615
很有趣	-2616
死亡率	-2617
▁我们把	-2618
▁哦	-2619
不停	-2620
展开	-2621
我和	-2622
把我	-2623
改进	-2624
教堂	-2625
笔记	-2626
街道	-2627
起了	-2628
▁是在	-2629
像这样	-2630
的生物	-2631
知道的	-2632
还可以	-2633
解决方案	-2634
iP	-2635
一份	-2636
保留	-2637
动机	-2638
掌声	-2639
摆脱	-2640
有机	-2641
深刻	-2642
种植	-2643
都要	-2644
充满了	-2645
创造力	-2646
唯一的	-2647
▁你必须	-2648
▁我们从	-2649
▁然后你	-2650
没有什么	-2651
21	-2652
上有	-2653
事业	-2654
伙伴	-2655
展览	-2656
打印	-2657
没法	-2658
瞬间	-2659
葡萄	-2660
远的	-2661
道理	-2662
都被	-2663
▁她的	-2664
▁社会	-2665
基金会	-2666
是我的	-2667
的一点	-2668
的关系	-2669
告诉大家	-2670
这些数据	-2671
▁这些都是	-2672
一生	-2673
万人	-2674
去看	-2675
同性	-2676
它会	-2677
改造	-2678
称作	-2679
覆盖	-2680
▁过去	-2681
▁这也	-2682
传统的	-2683
的事实	-2684
▁你需要	-2685
▁因为在	-2686
ab	-2687
不对	-2688
宣传	-2689
教学	-2690
谈到	-2691
个例子	-2692
很简单	-2693
怎么办	-2694
我现在	-2695
的项目	-2696
▁我们是	-2697
就是这样	-2698
一致	-2699
作家	-2700
发光	-2701
处在	-2702
将其	-2703
尔夫	-2704
拒绝	-2705
送到	-2706
▁我能	-2707
建筑师	-2708
微生物	-2709
的角度	-2710
▁当他们	-2711
中东	-2712
为此	-2713
印象	-2714
合成	-2715
埃及	-2716
来讲	-2717
特定	-2718
猴子	-2719
肌肉	-2720
费用	-2721
更大的	-2722
的第一	-2723
的行为	-2724
非常的	-2725
hr	-2726
im	-2727
▁《	-2728
地说	-2729
开车	-2730
强调	-2731
情形	-2732
正如	-2733
至今	-2734
你必须	-2735
的这个	-2736
▁但是在	-2737
这些问题	-2738
加拿	-2739
存活	-2740
成立	-2741
抓住	-2742
症状	-2743
的前	-2744
纤维	-2745
规划	-2746
企业家	-2747
创造了	-2748
▁我们不	-2749
告诉他们	-2750
基础设施	-2751
免疫	-2752
头脑	-2753
致命	-2754
邻居	-2755
地球的	-2756
相关的	-2757
尼日利亚	-2758
我们能够	-2759
▁年	-2760
不足	-2761
中最	-2762
人物	-2763
仪器	-2764
在了	-2765
巴西	-2766
才会	-2767
潜水	-2768
给他	-2769
识别	-2770
转换	-2771
震惊	-2772
---	-2773
gle	-2774
动物的	-2775
发明了	-2776
在这儿	-2777
的人类	-2778
▁但是他们	-2779
▁我们认为	-2780
▁下	-2781
两者	-2782
便是	-2783
关联	-2784
即将	-2785
围绕	-2786
律师	-2787
拿着	-2788
本来	-2789
视角	-2790
转化	-2791
进了	-2792
▁想想	-2793
▁成为	-2794
研究的	-2795
un	-2796
人群	-2797
你不	-2798
变的	-2799
指出	-2800
村庄	-2801
灵感	-2802
犹太	-2803
祖先	-2804
重建	-2805
预防	-2806
▁发现	-2807
▁帮助	-2808
▁我把	-2809
▁每年	-2810
▁随着	-2811
你需要	-2812
黑猩猩	-2813
▁但他们	-2814
▁让他们	-2815
经济学家	-2816
这个故事	-2817
专注	-2818
充分	-2819
培训	-2820
对称	-2821
少年	-2822
意见	-2823
死于	-2824
氧气	-2825
特性	-2826
符合	-2827
谈话	-2828
采访	-2829
销售	-2830
感受到	-2831
时间的	-2832
组织的	-2833
▁在美国	-2834
▁在那里	-2835
生态系统	-2836
化石	-2837
华盛	-2838
很久	-2839
敏感	-2840
混乱	-2841
清晰	-2842
照顾	-2843
衡量	-2844
ill	-2845
大规模	-2846
已经被	-2847
拥有的	-2848
非常有	-2849
各种各样的	-2850
45	-2851
一百	-2852
前的	-2853
加州	-2854
士兵	-2855
引擎	-2856
志愿	-2857
更有	-2858
矛盾	-2859
紧张	-2860
营养	-2861
讲的	-2862
黑洞	-2863
世纪的	-2864
以色列	-2865
华盛顿	-2866
打电话	-2867
提到的	-2868
是怎样	-2869
被称为	-2870
▁我们正在	-2871
丈夫	-2872
五十	-2873
图案	-2874
处的	-2875
多了	-2876
对方	-2877
层次	-2878
很小	-2879
损失	-2880
文件	-2881
斗争	-2882
移植	-2883
难道	-2884
▁一位	-2885
▁观众	-2886
不只是	-2887
很多的	-2888
这里的	-2889
飞行器	-2890
ir	-2891
三十	-2892
中央	-2893
再生	-2894
寻常	-2895
得很	-2896
惊奇	-2897
是谁	-2898
样本	-2899
海豚	-2900
直觉	-2901
稍微	-2902
阳光	-2903
领袖	-2904
高中	-2905
400	-2906
▁叫做	-2907
让你们	-2908
ub	-2909
之内	-2910
冒险	-2911
制的	-2912
加速	-2913
场的	-2914
天然	-2915
平面	-2916
拿到	-2917
整体	-2918
是你	-2919
火箭	-2920
片段	-2921
级的	-2922
腐败	-2923
袭击	-2924
还会	-2925
做一些	-2926
和我们	-2927
在我的	-2928
在这些	-2929
开始的	-2930
提供了	-2931
是如此	-2932
部电影	-2933
▁我们用	-2934
ia	-2935
▁数	-2936
争论	-2937
分离	-2938
吃惊	-2939
地上	-2940
娱乐	-2941
实践	-2942
将它	-2943
放大	-2944
数的	-2945
望远	-2946
背后	-2947
致力	-2948
赋予	-2949
隐藏	-2950
雕塑	-2951
预算	-2952
饮食	-2953
了解到	-2954
做这个	-2955
带来了	-2956
朋友们	-2957
上学	-2958
发射	-2959
地理	-2960
夏天	-2961
大小	-2962
子上	-2963
对象	-2964
愤怒	-2965
推动	-2966
明确	-2967
血液	-2968
进展	-2969
▁其他	-2970
▁去年	-2971
▁在那	-2972
是为了	-2973
望远镜	-2974
的重要	-2975
看不到	-2976
进行了	-2977
▁它可以	-2978
什么时候	-2979
我们如何	-2980
oogle	-2981
▁I	-2982
一台	-2983
五个	-2984
全国	-2985
决策	-2986
加上	-2987
听说	-2988
承诺	-2989
标签	-2990
现状	-2991
诞生	-2992
说到	-2993
也不是	-2994
特别的	-2995
▁,	-2996
▁亚	-2997
代价	-2998
制定	-2999
感情	-3000
杉矶	-3001
美洲	-3002
蚊子	-3003
听到的	-3004
对我说	-3005
技术的	-3006
洛杉矶	-3007
的变化	-3008
肯尼亚	-3009
▁我记得	-3010
其中一个	-3011
我不知道	-3012
的问题是	-3013
一遍	-3014
上千	-3015
倾听	-3016
南非	-3017
地位	-3018
差别	-3019
引发	-3020
当作	-3021
我去	-3022
昨天	-3023
沿着	-3024
注射	-3025
秒钟	-3026
穿越	-3027
规律	-3028
运输	-3029
and	-3030
▁必须	-3031
▁设计	-3032
不喜欢	-3033
其实是	-3034
那么多	-3035
▁你可能	-3036
▁作为一个	-3037
▁所以他们	-3038
ow	-3039
一无	-3040
个性	-3041
为何	-3042
地点	-3043
好事	-3044
措施	-3045
研发	-3046
▁政府	-3047
▁确实	-3048
▁顺便	-3049
别人的	-3050
宇宙的	-3051
的作品	-3052
社会的	-3053
造成的	-3054
▁大部分	-3055
▁我已经	-3056
▁而这些	-3057
▁这些人	-3058
▁所有这些	-3059
ik	-3060
▁9	-3061
▁才	-3062
产业	-3063
代的	-3064
作出	-3065
保存	-3066
修复	-3067
回应	-3068
如同	-3069
层的	-3070
年了	-3071
意大	-3072
抑郁	-3073
留下	-3074
私人	-3075
这段	-3076
高度	-3077
▁上面	-3078
▁利用	-3079
一件事	-3080
健康的	-3081
年轻的	-3082
▁世界上	-3083
▁每一个	-3084
接下来的	-3085
代码	-3086
出发	-3087
发电	-3088
尔斯	-3089
带有	-3090
应当	-3091
所能	-3092
纪录	-3093
贵的	-3094
▁10	-3095
城市的	-3096
达尔文	-3097
这个人	-3098
▁因为他	-3099
▁我不是	-3100
▁或者说	-3101
大多数人	-3102
我们知道	-3103
给你们看	-3104
解决问题	-3105
▁你会发现	-3106
了个	-3107
对吗	-3108
我从	-3109
手臂	-3110
格兰	-3111
点子	-3112
玩家	-3113
看出	-3114
空中	-3115
起源	-3116
▁拥有	-3117
好消息	-3118
意义的	-3119
特定的	-3120
组成的	-3121
最重要的	-3122
%,	-3123
一片	-3124
优势	-3125
品牌	-3126
地下	-3127
外科	-3128
忽略	-3129
最大	-3130
构建	-3131
算法	-3132
陌生	-3133
▁是否	-3134
▁笑声	-3135
▁经过	-3136
▁除非	-3137
一开始	-3138
价值观	-3139
同性恋	-3140
大家都	-3141
有一种	-3142
消费者	-3143
的演讲	-3144
致力于	-3145
ie	-3146
te	-3147
th	-3148
一边	-3149
公里	-3150
可是	-3151
它在	-3152
得出	-3153
扩大	-3154
流动	-3155
突破	-3156
紧密	-3157
老年	-3158
腺癌	-3159
观看	-3160
马拉	-3161
句话说	-3162
这两个	-3163
一段时间	-3164
ob	-3165
不少	-3166
之下	-3167
五年	-3168
信念	-3169
光线	-3170
北极	-3171
单位	-3172
奇妙	-3173
奇迹	-3174
想像	-3175
指数	-3176
探讨	-3177
民族	-3178
高速	-3179
198	-3180
one	-3181
我没有	-3182
或者是	-3183
有没有	-3184
特殊的	-3185
美好的	-3186
发生的事情	-3187
▁前	-3188
像我	-3189
受害	-3190
场景	-3191
奴隶	-3192
崩溃	-3193
引导	-3194
形的	-3195
形象	-3196
想的	-3197
扮演	-3198
掉了	-3199
沮丧	-3200
着我	-3201
策略	-3202
表情	-3203
链接	-3204
▁改变	-3205
▁正是	-3206
▁真正	-3207
在那儿	-3208
很明显	-3209
心脏病	-3210
意义上	-3211
成一个	-3212
是可以	-3213
有一点	-3214
的位置	-3215
▁因为你	-3216
▁有些人	-3217
在我们的	-3218
这张照片	-3219
非常非常	-3220
一辆	-3221
三维	-3222
争议	-3223
吸收	-3224
大陆	-3225
巴基	-3226
懂得	-3227
指导	-3228
澳大	-3229
激情	-3230
礼物	-3231
立刻	-3232
编辑	-3233
融合	-3234
学生们	-3235
完成的	-3236
我们还	-3237
的观点	-3238
的那些	-3239
▁我们想	-3240
▁特别是	-3241
▁先	-3242
一刻	-3243
保健	-3244
地面	-3245
护士	-3246
肥胖	-3247
艰难	-3248
设置	-3249
多样性	-3250
有两个	-3251
的样子	-3252
▁问题是	-3253
▁等	-3254
不知	-3255
以下	-3256
噪音	-3257
土壤	-3258
头发	-3259
尔的	-3260
得更	-3261
快的	-3262
提取	-3263
神秘	-3264
花粉	-3265
靠近	-3266
频率	-3267
▁就能	-3268
▁每次	-3269
为我们	-3270
可以用	-3271
此同时	-3272
的数量	-3273
澳大利亚	-3274
▁过	-3275
农场	-3276
几天	-3277
变暖	-3278
婚姻	-3279
小说	-3280
屋顶	-3281
岁时	-3282
开展	-3283
构造	-3284
棒了	-3285
贸易	-3286
跟我	-3287
▁到了	-3288
▁自己	-3289
一点点	-3290
奇怪的	-3291
完成了	-3292
著名的	-3293
▁但是这	-3294
▁所以说	-3295
▁看起来	-3296
做些什么	-3297
1.	-3298
久的	-3299
原来	-3300
延伸	-3301
支付	-3302
无限	-3303
步骤	-3304
石头	-3305
认同	-3306
远远	-3307
ook	-3308
▁怎么	-3309
安全的	-3310
开始了	-3311
笔记本	-3312
许多人	-3313
▁他们都	-3314
▁在过去的	-3315
SA	-3316
ve	-3317
▁该	-3318
专门	-3319
传感	-3320
分之	-3321
听众	-3322
国会	-3323
基督	-3324
影像	-3325
携带	-3326
擅长	-3327
教室	-3328
着迷	-3329
街上	-3330
论文	-3331
陷入	-3332
▁两个	-3333
▁显然	-3334
▁真的	-3335
一定要	-3336
原因是	-3337
因为我	-3338
太棒了	-3339
的内容	-3340
▁孩子们	-3341
他们可以	-3342
巴基斯坦	-3343
联系起来	-3344
ip	-3345
▁分	-3346
交换	-3347
单词	-3348
合物	-3349
商店	-3350
回报	-3351
回顾	-3352
学术	-3353
安排	-3354
密度	-3355
推广	-3356
杀死	-3357
盒子	-3358
粮食	-3359
里有	-3360
麦克	-3361
▁大脑	-3362
▁答案	-3363
大学的	-3364
是一名	-3365
看一下	-3366
进行的	-3367
▁在这些	-3368
▁我只是	-3369
原本	-3370
实施	-3371
显著	-3372
精彩	-3373
编码	-3374
芯片	-3375
那天	-3376
高效	-3377
▁事实	-3378
在座的	-3379
的空间	-3380
的食物	-3381
每一个人	-3382
他们自己的	-3383
不像	-3384
也很	-3385
仪式	-3386
动画	-3387
发达	-3388
回收	-3389
外交	-3390
寻求	-3391
更为	-3392
更大	-3393
极了	-3394
潜力	-3395
点击	-3396
班牙	-3397
药品	-3398
▁变成	-3399
▁问题	-3400
严重的	-3401
俄罗斯	-3402
做到的	-3403
的话题	-3404
西班牙	-3405
▁我今天	-3406
▁这里是	-3407
中的一个	-3408
什么样的	-3409
ap	-3410
世上	-3411
感官	-3412
成年	-3413
景象	-3414
浏览	-3415
短信	-3416
祖母	-3417
符号	-3418
练习	-3419
统治	-3420
难题	-3421
ard	-3422
▁我问	-3423
任何一个	-3424
所有人都	-3425
▁他们可以	-3426
去世	-3427
反映	-3428
大楼	-3429
欣赏	-3430
的呢	-3431
繁殖	-3432
镜头	-3433
▁这项	-3434
▁非洲	-3435
个国家	-3436
可怕的	-3437
就像是	-3438
面临的	-3439
▁第二个	-3440
最喜欢的	-3441
op	-3442
体会	-3443
内的	-3444
哈佛	-3445
天文	-3446
小组	-3447
少的	-3448
患有	-3449
意外	-3450
抽象	-3451
探险	-3452
清洁	-3453
满意	-3454
热爱	-3455
综合	-3456
解放	-3457
还没	-3458
首歌	-3459
▁一切	-3460
▁自然	-3461
他们所	-3462
加拿大	-3463
在你的	-3464
已经在	-3465
的工具	-3466
ag	-3467
上来	-3468
为你	-3469
使我	-3470
几百	-3471
安装	-3472
布鲁	-3473
打破	-3474
整合	-3475
染色	-3476
棒的	-3477
椅子	-3478
讨厌	-3479
son	-3480
▁提供	-3481
不断地	-3482
个人的	-3483
几年前	-3484
的就是	-3485
▁它们是	-3486
▁然后他	-3487
保守	-3488
先进	-3489
分开	-3490
却是	-3491
受伤	-3492
哲学	-3493
大型	-3494
定位	-3495
小心	-3496
希腊	-3497
微笑	-3498
性和	-3499
最高	-3500
玩笑	-3501
贫民	-3502
这幅	-3503
追踪	-3504
随机	-3505
集体	-3506
▁但你	-3507
▁学习	-3508
▁应该	-3509
传感器	-3510
意大利	-3511
5000	-3512
▁没有人	-3513
▁因此我们	-3514
▁我们开始	-3515
▁别	-3516
▁及	-3517
住了	-3518
做些	-3519
共和	-3520
庆祝	-3521
贝尔	-3522
辐射	-3523
魔术	-3524
▁建立	-3525
▁这次	-3526
你就会	-3527
停下来	-3528
有时候	-3529
用一个	-3530
病人的	-3531
的那个	-3532
一些东西	-3533
做的就是	-3534
因为我们	-3535
▁四	-3536
一大	-3537
写作	-3538
单一	-3539
取代	-3540
天空	-3541
愚蠢	-3542
所未	-3543
指挥	-3544
气球	-3545
法则	-3546
游泳	-3547
特点	-3548
禁止	-3549
达成	-3550
运转	-3551
防止	-3552
黑人	-3553
▁我只	-3554
▁把它	-3555
不是吗	-3556
宇宙中	-3557
有机会	-3558
▁也可以	-3559
▁你就会	-3560
为什么要	-3561
了我们的	-3562
▁您	-3563
▁艾	-3564
分配	-3565
圣经	-3566
家长	-3567
描绘	-3568
数以	-3569
激发	-3570
界面	-3571
百科	-3572
而来	-3573
诊所	-3574
跟踪	-3575
这只	-3576
▁有趣	-3577
因为它	-3578
我们从	-3579
疾病的	-3580
▁很多人	-3581
▁我一直	-3582
▁所以你	-3583
变得更加	-3584
只是一个	-3585
物理学家	-3586
▁真	-3587
乐趣	-3588
停车	-3589
墙上	-3590
定律	-3591
工人	-3592
强的	-3593
是用	-3594
植入	-3595
温室	-3596
疗法	-3597
观的	-3598
评估	-3599
▁有着	-3600
他们就	-3601
同情心	-3602
我们想	-3603
是一位	-3604
的动物	-3605
能看到	-3606
获得了	-3607
认为是	-3608
高尔夫	-3609
▁有很多	-3610
▁如果他们	-3611
▁它是一个	-3612
▁我们不能	-3613
三角	-3614
体现	-3615
听过	-3616
和你	-3617
广场	-3618
扩展	-3619
无关	-3620
明天	-3621
治愈	-3622
认真	-3623
重视	-3624
饥饿	-3625
驱动	-3626
▁重新	-3627
也许会	-3628
从一个	-3629
做这些	-3630
和一个	-3631
星球上	-3632
有点像	-3633
有能力	-3634
这么说	-3635
▁所以这	-3636
▁其中一个	-3637
od	-3638
史蒂	-3639
员会	-3640
哺乳	-3641
塑造	-3642
宣布	-3643
家的	-3644
忽视	-3645
斯的	-3646
毕竟	-3647
穷人	-3648
结婚	-3649
车的	-3650
▁医生	-3651
典型的	-3652
十年代	-3653
讲故事	-3654
▁同样的	-3655
▁就好像	-3656
不是一个	-3657
还有一个	-3658
Google	-3659
ul	-3660
▁水	-3661
了的	-3662
传达	-3663
促进	-3664
军事	-3665
协调	-3666
反馈	-3667
异常	-3668
承担	-3669
折叠	-3670
推进	-3671
毒品	-3672
舒服	-3673
起的	-3674
都没	-3675
▁主要	-3676
▁但他	-3677
▁用来	-3678
▁这对	-3679
之类的	-3680
地区的	-3681
当他们	-3682
当地的	-3683
漂亮的	-3684
的公司	-3685
站起来	-3686
这本书	-3687
进化的	-3688
的是什么	-3689
▁我们如何	-3690
▁换句话说	-3691
付出	-3692
作业	-3693
厨房	-3694
外星	-3695
差距	-3696
序列	-3697
教会	-3698
旧金	-3699
替代	-3700
活着	-3701
理工	-3702
耳朵	-3703
航空	-3704
资助	-3705
跨越	-3706
闭症	-3707
▁你在	-3708
▁科学	-3709
世界中	-3710
古老的	-3711
展示了	-3712
旧金山	-3713
是多么	-3714
的基础	-3715
着一个	-3716
▁但是你	-3717
我的工作	-3718
▁4	-3719
▁听	-3720
▁因	-3721
▁罗	-3722
一座	-3723
乐队	-3724
动态	-3725
命运	-3726
太平	-3727
少数	-3728
局限	-3729
干净	-3730
当今	-3731
得知	-3732
液体	-3733
灵魂	-3734
精力	-3735
老人	-3736
脑海	-3737
进程	-3738
远离	-3739
风格	-3740
▁假设	-3741
▁这位	-3742
▁这儿	-3743
▁里面	-3744
做到了	-3745
就这样	-3746
是这个	-3747
有许多	-3748
的主题	-3749
非常好	-3750
▁我想要	-3751
生物学家	-3752
▁我们看到	-3753
▁这就是我们	-3754
▁t	-3755
▁斯	-3756
▁理	-3757
众多	-3758
保罗	-3759
信心	-3760
假如	-3761
北部	-3762
就被	-3763
市长	-3764
扩张	-3765
掌控	-3766
既然	-3767
树木	-3768
灯泡	-3769
爆发	-3770
病的	-3771
胜利	-3772
课堂	-3773
连续	-3774
量子	-3775
餐厅	-3776
鸟类	-3777
▁不能	-3778
▁不论	-3779
▁地球	-3780
▁它在	-3781
▁生命	-3782
不断的	-3783
创造出	-3784
创造的	-3785
对这个	-3786
小部分	-3787
志愿者	-3788
消失了	-3789
的不同	-3790
的建筑	-3791
运动的	-3792
▁是我们	-3793
▁带	-3794
亚洲	-3795
众笑	-3796
作者	-3797
使你	-3798
公正	-3799
协议	-3800
南极	-3801
周期	-3802
戏剧	-3803
战斗	-3804
房屋	-3805
承受	-3806
框架	-3807
模糊	-3808
水中	-3809
美妙	-3810
蜘蛛	-3811
让他	-3812
赢得	-3813
▁经济	-3814
▁音乐	-3815
不应该	-3816
主义的	-3817
想要的	-3818
的城市	-3819
的目标	-3820
第三个	-3821
经历了	-3822
▁我需要	-3823
▁所以在	-3824
实际上是	-3825
就是一个	-3826
想象一下	-3827
▁但事实上	-3828
▁如果你想	-3829
▁所以我想	-3830
▁这是我的	-3831
意味着什么	-3832
不去	-3833
不安	-3834
与人	-3835
书籍	-3836
印刷	-3837
大会	-3838
成绩	-3839
方便	-3840
灵活	-3841
瑞典	-3842
疼痛	-3843
种子	-3844
组装	-3845
经营	-3846
罪犯	-3847
自主	-3848
骨头	-3849
ick	-3850
▁令人	-3851
▁我被	-3852
▁相反	-3853
之前的	-3854
克里斯	-3855
印度的	-3856
完整的	-3857
形成的	-3858
想象的	-3859
我喜欢	-3860
我相信	-3861
政府的	-3862
正常的	-3863
类型的	-3864
这是我	-3865
▁他们有	-3866
▁这一切	-3867
伊斯兰教	-3868
我们开始	-3869
变得越来越	-3870
av	-3871
▁中	-3872
▁写	-3873
▁发	-3874
三种	-3875
保险	-3876
合法	-3877
她说	-3878
学者	-3879
将是	-3880
悲剧	-3881
成像	-3882
无聊	-3883
有两	-3884
查看	-3885
火车	-3886
皮层	-3887
编程	-3888
见了	-3889
试试	-3890
赚钱	-3891
采集	-3892
页面	-3893
150	-3894
刚开始	-3895
将这些	-3896
展示的	-3897
找到的	-3898
把自己	-3899
▁我没有	-3900
▁仅	-3901
▁光	-3902
▁出	-3903
▁据	-3904
▁长	-3905
加拉	-3906
帮我	-3907
恰恰	-3908
成分	-3909
放进	-3910
查德	-3911
水的	-3912
网页	-3913
而易	-3914
脂肪	-3915
走出	-3916
600	-3917
You	-3918
▁不会	-3919
▁似乎	-3920
▁这么	-3921
人们在	-3922
比如说	-3923
离开了	-3924
▁就可以	-3925
▁有一天	-3926
一个新的	-3927
这个想法	-3928
PS	-3929
▁[	-3930
一句	-3931
上下	-3932
他是	-3933
做好	-3934
关闭	-3935
午餐	-3936
巴马	-3937
玩意	-3938
用在	-3939
的外	-3940
竟然	-3941
美的	-3942
脊髓	-3943
蚊帐	-3944
预期	-3945
魅力	-3946
▁我曾	-3947
▁认为	-3948
▁超过	-3949
不会有	-3950
众人笑	-3951
美元的	-3952
身体的	-3953
青少年	-3954
aceb	-3955
▁我曾经	-3956
现在我们	-3957
非常感谢	-3958
acebook	-3959
亿人	-3960
体制	-3961
共有	-3962
喜剧	-3963
坚信	-3964
多年	-3965
对比	-3966
心灵	-3967
正好	-3968
点的	-3969
爱情	-3970
现今	-3971
神话	-3972
退休	-3973
黄金	-3974
▁找到	-3975
▁掌声	-3976
▁这时	-3977
▁那就	-3978
出现的	-3979
大自然	-3980
委员会	-3981
尽可能	-3982
屏幕上	-3983
幸的是	-3984
我一直	-3985
我需要	-3986
房间里	-3987
独特的	-3988
环境中	-3989
hris	-3990
▁克里斯	-3991
▁要知道	-3992
三分之一	-3993
不可能的	-3994
任何东西	-3995
做了一个	-3996
我们发现	-3997
我们没有	-3998
▁我们能够	-3999
▁每个人都	-4000
▁这张照片	-4001
)。	-4002
35	-4003
▁二	-4004
▁太	-4005
一部	-4006
万个	-4007
乐器	-4008
交互	-4009
会是	-4010
回忆	-4011
地震	-4012
安静	-4013
敌人	-4014
方的	-4015
更高	-4016
波士	-4017
物的	-4018
类型	-4019
走路	-4020
过滤	-4021
部队	-4022
钢琴	-4023
鲨鱼	-4024
▁女性	-4025
▁它能	-4026
▁知道	-4027
▁都会	-4028
和你们	-4029
太平洋	-4030
干什么	-4031
本质上	-4032
hone	-4033
其他地方	-4034
▁不仅仅是	-4035
不久	-4036
两次	-4037
乔治	-4038
们的	-4039
做个	-4040
分散	-4041
区的	-4042
固定	-4043
多久	-4044
幽默	-4045
忘了	-4046
想过	-4047
成熟	-4048
无人	-4049
时报	-4050
源于	-4051
申请	-4052
的光	-4053
街头	-4054
阿尔	-4055
顺利	-4056
ube	-4057
万年前	-4058
世界里	-4059
事物的	-4060
会怎样	-4061
倾向于	-4062
全球化	-4063
准备好	-4064
出来了	-4065
的系统	-4066
聪明的	-4067
领导者	-4068
▁你不能	-4069
▁因此我	-4070
▁在我的	-4071
▁我必须	-4072
他们自己	-4073
毫无疑问	-4074
▁这是因为	-4075
三年	-4076
伯特	-4077
反复	-4078
变异	-4079
含义	-4080
困境	-4081
圣诞	-4082
天花	-4083
媒介	-4084
对你	-4085
底部	-4086
悲伤	-4087
是被	-4088
显微	-4089
板上	-4090
海报	-4091
生日	-4092
目睹	-4093
眼镜	-4094
统一	-4095
自豪	-4096
蝙蝠	-4097
说了	-4098
遭受	-4099
骨骼	-4100
▁一般	-4101
▁城市	-4102
信息的	-4103
波士顿	-4104
珊瑚礁	-4105
精神病	-4106
▁以至于	-4107
▁它们的	-4108
▁而这个	-4109
我们正在	-4110
▁这就是我	-4111
▁5	-4112
▁O	-4113
▁拿	-4114
事故	-4115
以上	-4116
你看	-4117
具备	-4118
各自	-4119
否则	-4120
四处	-4121
多种	-4122
大了	-4123
威尔	-4124
干预	-4125
开了	-4126
所知	-4127
数码	-4128
日子	-4129
毁灭	-4130
炸弹	-4131
燃烧	-4132
睡觉	-4133
确信	-4134
花在	-4135
跟着	-4136
转向	-4137
降落	-4138
非凡	-4139
飞船	-4140
▁尝试	-4141
▁曾经	-4142
▁此外	-4143
▁都在	-4144
不错的	-4145
中国的	-4146
受害者	-4147
向大家	-4148
和他们	-4149
存在着	-4150
学到了	-4151
影响力	-4152
的朋友	-4153
遇到了	-4154
▁我看到	-4155
▁我非常	-4156
▁是关于	-4157
我们的生活	-4158
0.	-4159
你也	-4160
勇气	-4161
反射	-4162
天气	-4163
学科	-4164
屠杀	-4165
我得	-4166
所说	-4167
批评	-4168
捐赠	-4169
桌子	-4170
深深	-4171
相连	-4172
脑袋	-4173
至关	-4174
莱坞	-4175
负担	-4176
货币	-4177
跳舞	-4178
道的	-4179
▁进入	-4180
摄像机	-4181
数学家	-4182
的人的	-4183
给我的	-4184
运动员	-4185
▁他们也	-4186
越来越多	-4187
▁你们知道	-4188
会发生什么	-4189
ma	-4190
▁五	-4191
▁问	-4192
上一	-4193
两倍	-4194
做成	-4195
写了	-4196
哈拉	-4197
有过	-4198
法案	-4199
的手	-4200
种类	-4201
算是	-4202
线的	-4203
美分	-4204
荷兰	-4205
行了	-4206
规定	-4207
论者	-4208
追溯	-4209
酒店	-4210
▁在座	-4211
▁无法	-4212
▁有点	-4213
它可以	-4214
很可能	-4215
想象力	-4216
我们把	-4217
时代的	-4218
的形式	-4219
让大家	-4220
创造一个	-4221
▁我们没有	-4222
99	-4223
▁奥	-4224
▁女	-4225
▁重	-4226
一本	-4227
利润	-4228
厕所	-4229
可行	-4230
增强	-4231
帝国	-4232
我被	-4233
拉斯	-4234
正义	-4235
满了	-4236
生素	-4237
纪念	-4238
色彩	-4239
讽刺	-4240
面部	-4241
▁并不	-4242
▁感谢	-4243
▁解决	-4244
代表着	-4245
其它的	-4246
制作的	-4247
学到的	-4248
就没有	-4249
的未来	-4250
给了我	-4251
那时候	-4252
▁就这样	-4253
一个非常	-4254
改变世界	-4255
。(	-4256
下午	-4257
代谢	-4258
偶然	-4259
加哥	-4260
十五	-4261
单独	-4262
场所	-4263
天的	-4264
就不	-4265
惊人	-4266
捕捉	-4267
演出	-4268
版权	-4269
的钱	-4270
祈祷	-4271
要去	-4272
边界	-4273
重的	-4274
197	-4275
到一起	-4276
大脑中	-4277
找不到	-4278
指的是	-4279
探测器	-4280
绿色的	-4281
芝加哥	-4282
起来的	-4283
▁这只是	-4284
只有一个	-4285
大家分享	-4286
▁但如果你	-4287
ah	-4288
ck	-4289
▁6	-4290
▁若	-4291
一套	-4292
何时	-4293
保障	-4294
分类	-4295
利福	-4296
剩下	-4297
卡车	-4298
图形	-4299
对的	-4300
度过	-4301
月份	-4302
消除	-4303
糖尿	-4304
繁荣	-4305
绘画	-4306
维基	-4307
群岛	-4308
花园	-4309
苏联	-4310
讲话	-4311
证实	-4312
身处	-4313
车祸	-4314
还不	-4315
错的	-4316
随时	-4317
集团	-4318
顾客	-4319
▁回到	-4320
▁宇宙	-4321
▁故事	-4322
▁有关	-4323
中心的	-4324
你不能	-4325
安德森	-4326
实现的	-4327
把我们	-4328
更好地	-4329
的一面	-4330
的名字	-4331
神奇的	-4332
类似于	-4333
▁而现在	-4334
任何地方	-4335
爱因斯坦	-4336
▁直	-4337
令我	-4338
六个	-4339
团结	-4340
在他	-4341
姐妹	-4342
对了	-4343
对抗	-4344
引用	-4345
意料	-4346
感应	-4347
放入	-4348
本地	-4349
栖息	-4350
激素	-4351
牺牲	-4352
解答	-4353
过于	-4354
通讯	-4355
部位	-4356
▁在此	-4357
▁有个	-4358
年之后	-4359
想一下	-4360
我必须	-4361
染色体	-4362
用这个	-4363
的经济	-4364
的结构	-4365
篇文章	-4366
让自己	-4367
说什么	-4368
▁几年前	-4369
▁有一些	-4370
世界上的	-4371
可以通过	-4372
我们认为	-4373
最后一个	-4374
来到这里	-4375
还有很多	-4376
itter	-4377
▁我意识到	-4378
是什么样的	-4379
▁同	-4380
一千	-4381
一想	-4382
与众	-4383
人数	-4384
代人	-4385
传输	-4386
储存	-4387
写着	-4388
剧院	-4389
即兴	-4390
发送	-4391
天才	-4392
好玩	-4393
完了	-4394
实时	-4395
强迫	-4396
形容	-4397
我又	-4398
打击	-4399
构成	-4400
环绕	-4401
生涯	-4402
等着	-4403
部件	-4404
野生	-4405
韩国	-4406
▁决定	-4407
▁我所	-4408
剩下的	-4409
和他的	-4410
在印度	-4411
心理学	-4412
的历史	-4413
的同时	-4414
的方向	-4415
蓝色的	-4416
这也是	-4417
▁这个是	-4418
因为他们	-4419
我们不能	-4420
永远不会	-4421
科学家们	-4422
▁但是如果	-4423
▁然后他们	-4424
ig	-4425
um	-4426
▁则	-4427
▁叫	-4428
一幅	-4429
以外	-4430
仿佛	-4431
偏见	-4432
克服	-4433
天堂	-4434
它就	-4435
它能	-4436
巧克	-4437
平常	-4438
排列	-4439
概率	-4440
欺骗	-4441
民众	-4442
焦虑	-4443
留在	-4444
的不	-4445
窗户	-4446
罗马	-4447
苍蝇	-4448
访问	-4449
这两	-4450
部长	-4451
重量	-4452
art	-4453
▁在你	-4454
▁导致	-4455
▁得到	-4456
▁看着	-4457
到这里	-4458
可不是	-4459
它们是	-4460
张照片	-4461
最重要	-4462
根本上	-4463
病毒的	-4464
的实验	-4465
科学的	-4466
科技的	-4467
自闭症	-4468
▁但如果	-4469
▁就像是	-4470
▁这里的	-4471
建立一个	-4472
给我们的	-4473
这些事情	-4474
witter	-4475
──	-4476
▁。	-4477
▁噢	-4478
▁已	-4479
一把	-4480
也没	-4481
人性	-4482
休息	-4483
公路	-4484
区分	-4485
去到	-4486
告知	-4487
大象	-4488
失望	-4489
家族	-4490
密码	-4491
康复	-4492
心里	-4493
惩罚	-4494
我才	-4495
摧毁	-4496
收获	-4497
整理	-4498
月球	-4499
的开	-4500
管道	-4501
联邦	-4502
节奏	-4503
荣幸	-4504
要在	-4505
视为	-4506
贷款	-4507
越多	-4508
过度	-4509
这场	-4510
遍布	-4511
▁一起	-4512
▁我来	-4513
▁时间	-4514
▁英国	-4515
▁要么	-4516
▁试图	-4517
▁这在	-4518
▁都有	-4519
他人的	-4520
优秀的	-4521
使用了	-4522
可以被	-4523
可行的	-4524
女士们	-4525
我还是	-4526
物理学	-4527
的大小	-4528
的生命	-4529
糟糕的	-4530
3000	-4531
▁不仅仅	-4532
一种新的	-4533
利福尼亚	-4534
找到一个	-4535
▁相	-4536
体育	-4537
协作	-4538
南部	-4539
好好	-4540
始终	-4541
年中	-4542
折纸	-4543
新鲜	-4544
最佳	-4545
没错	-4546
点是	-4547
烹饪	-4548
玉米	-4549
瑞士	-4550
生理	-4551
的几	-4552
碰到	-4553
结尾	-4554
绝望	-4555
自杀	-4556
舒适	-4557
质疑	-4558
足以	-4559
com	-4560
ian	-4561
▁你将	-4562
▁关键	-4563
▁它将	-4564
▁政治	-4565
▁继续	-4566
减少了	-4567
参与到	-4568
太阳系	-4569
小时的	-4570
已经有	-4571
德里克	-4572
显微镜	-4573
的一天	-4574
的作用	-4575
的使用	-4576
系统中	-4577
▁一个是	-4578
一个例子	-4579
什么东西	-4580
电子游戏	-4581
的过程中	-4582
▁不幸的是	-4583
▁你可能会	-4584
iPhone	-4585
ey	-4586
ff	-4587
▁于	-4588
了它	-4589
代替	-4590
共鸣	-4591
刚果	-4592
口袋	-4593
台上	-4594
喜爱	-4595
土耳	-4596
尺寸	-4597
工资	-4598
干扰	-4599
我来	-4600
折磨	-4601
抱歉	-4602
方块	-4603
机场	-4604
渐渐	-4605
演化	-4606
独特	-4607
立即	-4608
等于	-4609
缺陷	-4610
脱离	-4611
萨斯	-4612
视力	-4613
许可	-4614
详细	-4615
迈克	-4616
鼠标	-4617
▁了解	-4618
▁相信	-4619
中的一	-4620
先生们	-4621
化合物	-4622
土耳其	-4623
实在是	-4624
庞大的	-4625
普通的	-4626
的组织	-4627
研究所	-4628
英里的	-4629
跟你们	-4630
选择的	-4631
▁但是它	-4632
▁我不会	-4633
很有意思	-4634
的人来说	-4635
oh	-4636
ry	-4637
st	-4638
▁7	-4639
▁受	-4640
▁布	-4641
从而	-4642
例外	-4643
做点	-4644
克林	-4645
公寓	-4646
农村	-4647
冰川	-4648
又是	-4649
变为	-4650
可乐	-4651
在此	-4652
家具	-4653
抱怨	-4654
整整	-4655
显得	-4656
有用	-4657
有限	-4658
权威	-4659
枪鱼	-4660
照明	-4661
特网	-4662
营销	-4663
融入	-4664
观测	-4665
首次	-4666
马斯	-4667
黑客	-4668
▁一天	-4669
▁是我	-4670
▁没人	-4671
▁生物	-4672
▁那种	-4673
一定会	-4674
个孩子	-4675
创新的	-4676
学会了	-4677
微小的	-4678
我应该	-4679
拍摄的	-4680
明白了	-4681
的土地	-4682
自身的	-4683
音乐家	-4684
领域的	-4685
▁TED	-4686
▁那时候	-4687
看到这些	-4688
▁有趣的是	-4689
22	-4690
ak	-4691
举手	-4692
之类	-4693
你将	-4694
共振	-4695
劳动	-4696
啤酒	-4697
土星	-4698
失明	-4699
完善	-4700
尾巴	-4701
年级	-4702
幻觉	-4703
抵抗	-4704
接收	-4705
撞击	-4706
放射	-4707
是要	-4708
联盟	-4709
英文	-4710
财政	-4711
跟你	-4712
轮椅	-4713
顶端	-4714
验证	-4715
90%	-4716
▁如此	-4717
▁它也	-4718
▁我去	-4719
▁用于	-4720
▁自从	-4721
主要的	-4722
了所有	-4723
保护区	-4724
形成了	-4725
教育的	-4726
显而易	-4727
的运动	-4728
金枪鱼	-4729
▁在过去	-4730
▁顺便说	-4731
心理学家	-4732
经济增长	-4733
是一个非常	-4734
笔记本电脑	-4735
▁8	-4736
▁且	-4737
▁卡	-4738
乡村	-4739
今晚	-4740
作物	-4741
你得	-4742
分辨	-4743
可见	-4744
巴黎	-4745
帮忙	-4746
应的	-4747
战略	-4748
拿出	-4749
深海	-4750
爱好	-4751
电路	-4752
界的	-4753
监控	-4754
看的	-4755
短期	-4756
线上	-4757
翅膀	-4758
蔬菜	-4759
解读	-4760
诚实	-4761
雇佣	-4762
革新	-4763
黄色	-4764
196	-4765
▁50	-4766
▁今年	-4767
▁带着	-4768
▁想要	-4769
▁网络	-4770
前所未	-4771
多少人	-4772
就是在	-4773
巧克力	-4774
形式的	-4775
我们用	-4776
摄影师	-4777
有意义	-4778
环境的	-4779
的病人	-4780
▁他们把	-4781
▁然后再	-4782
▁而且我	-4783
你们可以	-4784
生活方式	-4785
的是一个	-4786
▁我是一个	-4787
▁那么我们	-4788
▁打	-4789
▁本	-4790
▁特	-4791
一同	-4792
为人	-4793
主动	-4794
公布	-4795
司机	-4796
味道	-4797
实质	-4798
审视	-4799
拥抱	-4800
无数	-4801
果蝇	-4802
牙齿	-4803
真理	-4804
短片	-4805
碎片	-4806
种种	-4807
笑话	-4808
超市	-4809
遵循	-4810
餐馆	-4811
▁18	-4812
▁CA	-4813
▁他会	-4814
▁国家	-4815
▁是由	-4816
▁未来	-4817
▁随后	-4818
学校里	-4819
对他们	-4820
想到的	-4821
我发现	-4822
明显的	-4823
现有的	-4824
的模式	-4825
▁但现在	-4826
▁当时我	-4827
▁甚至是	-4828
你会发现	-4829
化学物质	-4830
很长时间	-4831
我自己的	-4832
有多少人	-4833
没有一个	-4834
▁在我们的	-4835
世界各地的	-4836
▁但是如果你	-4837
为我	-4838
买到	-4839
亲密	-4840
准则	-4841
国内	-4842
地表	-4843
实体	-4844
岩石	-4845
广播	-4846
我都	-4847
抑制	-4848
抛弃	-4849
数目	-4850
是吧	-4851
机遇	-4852
标题	-4853
比喻	-4854
激活	-4855
福利	-4856
螺旋	-4857
设立	-4858
词汇	-4859
谈判	-4860
遗憾	-4861
难民	-4862
麻痹	-4863
ell	-4864
▁也有	-4865
▁在他	-4866
▁技术	-4867
不确定	-4868
免费的	-4869
六个月	-4870
合适的	-4871
用这些	-4872
的地区	-4873
的状态	-4874
的经历	-4875
的能量	-4876
经济学	-4877
陌生人	-4878
▁也不是	-4879
▁所以他	-4880
▁百分之	-4881
▁这里有	-4882
向你们展示	-4883
我们自己的	-4884
某种意义上	-4885
解决这个问题	-4886
化了	-4887
十二	-4888
可靠	-4889
同步	-4890
含量	-4891
宝宝	-4892
室内	-4893
成百	-4894
挣扎	-4895
水下	-4896
河流	-4897
注入	-4898
爵士	-4899
独裁	-4900
生育	-4901
男子	-4902
画的	-4903
的头	-4904
短的	-4905
移民	-4906
老板	-4907
英寸	-4908
著名	-4909
表格	-4910
读者	-4911
这份	-4912
顺序	-4913
ich	-4914
▁你想	-4915
▁制造	-4916
▁十分	-4917
▁怎样	-4918
你们能	-4919
危险的	-4920
史蒂夫	-4921
困难的	-4922
坏消息	-4923
常见的	-4924
强烈的	-4925
文化的	-4926
是一件	-4927
独立的	-4928
的事件	-4929
的资源	-4930
确实是	-4931
良好的	-4932
这些小	-4933
进入了	-4934
长时间	-4935
▁我真的	-4936
▁与此同时	-4937
▁因为这些	-4938
非常重要的	-4939
27	-4940
不通	-4941
乌干	-4942
产物	-4943
但我	-4944
使命	-4945
几千	-4946
出售	-4947
卢旺	-4948
坏了	-4949
居然	-4950
屋子	-4951
座椅	-4952
很不	-4953
情景	-4954
洞穴	-4955
火山	-4956
生成	-4957
的心	-4958
童年	-4959
见证	-4960
那位	-4961
雨林	-4962
man	-4963
▁你得	-4964
▁我又	-4965
▁这条	-4966
乌干达	-4967
他们能	-4968
卢旺达	-4969
和我的	-4970
回到了	-4971
就不会	-4972
必须要	-4973
是完全	-4974
比我们	-4975
的一半	-4976
的人群	-4977
的大脑	-4978
▁然后在	-4979
发生什么	-4980
恐怖主义	-4981
看到这个	-4982
越来越多的	-4983
▁哪	-4984
▁电	-4985
▁起	-4986
不行	-4987
人心	-4988
基地	-4989
多个	-4990
大大	-4991
字典	-4992
尽量	-4993
布朗	-4994
年内	-4995
惊叹	-4996
我把	-4997
损伤	-4998
推特	-4999
提议	-5000
教徒	-5001
核能	-5002
残疾	-5003
海底	-5004
牛奶	-5005
神圣	-5006
聆听	-5007
般的	-5008
诗歌	-5009
这件	-5010
那边	-5011
随之	-5012
80%	-5013
▁原因	-5014
▁建筑	-5015
▁当他	-5016
▁新的	-5017
▁根本	-5018
一百万	-5019
与我们	-5020
专注于	-5021
为他们	-5022
了一点	-5023
了下来	-5024
又一次	-5025
学校的	-5026
对自己	-5027
年前的	-5028
最后的	-5029
样子的	-5030
的中心	-5031
磁共振	-5032
细胞的	-5033
适用于	-5034
领导人	-5035
▁我们得	-5036
▁无论是	-5037
▁而他们	-5038
你们知道	-5039
你就可以	-5040
并不知道	-5041
幸运的是	-5042
这些信息	-5043
不可思议的	-5044
▁外	-5045
》。	-5046
一根	-5047
万年	-5048
下载	-5049
乐意	-5050
人造	-5051
以往	-5052
双手	-5053
只会	-5054
可爱	-5055
吃的	-5056
向我	-5057
哈顿	-5058
困扰	-5059
学位	-5060
山脉	-5061
情境	-5062
最有	-5063
欲望	-5064
歌曲	-5065
沃尔	-5066
灯光	-5067
用到	-5068
的路	-5069
确认	-5070
能让	-5071
走上	-5072
这就	-5073
阻碍	-5074
额外	-5075
▁以便	-5076
▁告诉	-5077
▁工作	-5078
▁并在	-5079
▁由此	-5080
下一代	-5081
乳腺癌	-5082
依赖于	-5083
是对的	-5084
查尔斯	-5085
的意思	-5086
稳定的	-5087
糖尿病	-5088
美妙的	-5089
遇到的	-5090
▁很明显	-5091
你知道吗	-5092
哺乳动物	-5093
实验室里	-5094
的时间里	-5095
▁还有一个	-5096
加利福尼亚	-5097
.5	-5098
26	-5099
▁手	-5100
▁非	-5101
不上	-5102
句子	-5103
向前	-5104
和他	-5105
埃塞	-5106
年间	-5107
微软	-5108
怀孕	-5109
性别	-5110
振奋	-5111
支撑	-5112
无比	-5113
旧的	-5114
极限	-5115
汽油	-5116
深处	-5117
眼前	-5118
祖父	-5119
考试	-5120
聊天	-5121
自信	-5122
街区	-5123
认可	-5124
评价	-5125
请求	-5126
这边	-5127
麻省	-5128
鼓舞	-5129
org	-5130
▁你也	-5131
▁各种	-5132
▁的确	-5133
却没有	-5134
同时也	-5135
成功了	-5136
我决定	-5137
撒哈拉	-5138
曼哈顿	-5139
极大的	-5140
的区域	-5141
的科学	-5142
相似的	-5143
红色的	-5144
纽约市	-5145
结束了	-5146
考虑到	-5147
▁当人们	-5148
▁我不想	-5149
▁我决定	-5150
为什么不	-5151
岁的孩子	-5152
恐怖分子	-5153
我们希望	-5154
纽约时报	-5155
▁举个例子	-5156
▁这个问题	-5157
生活在一个	-5158
▁拉	-5159
一看	-5160
主流	-5161
亲眼	-5162
到来	-5163
厉害	-5164
原型	-5165
参观	-5166
向你	-5167
和谐	-5168
咨询	-5169
大卫	-5170
家乡	-5171
意图	-5172
意的	-5173
打交	-5174
操纵	-5175
早晨	-5176
某人	-5177
用途	-5178
经典	-5179
诗人	-5180
读到	-5181
购物	-5182
通道	-5183
镜子	-5184
队伍	-5185
食用	-5186
GPS	-5187
▁孩子	-5188
▁平均	-5189
▁是个	-5190
不是很	-5191
以一种	-5192
你可能	-5193
几分钟	-5194
反应堆	-5195
只是在	-5196
向我们	-5197
大概是	-5198
的效果	-5199
那个人	-5200
▁他们就	-5201
▁同时也	-5202
▁当我在	-5203
▁这一点	-5204
是一样的	-5205
是什么呢	-5206
种不同的	-5207
这样的人	-5208
这种方式	-5209
非常简单	-5210
▁因为它们	-5211
▁爱因斯坦	-5212
og	-5213
▁Z	-5214
▁书	-5215
▁左	-5216
一小	-5217
再来	-5218
决心	-5219
创立	-5220
前往	-5221
名声	-5222
困惑	-5223
存储	-5224
审查	-5225
尴尬	-5226
幻想	-5227
想说	-5228
按钮	-5229
挖掘	-5230
收益	-5231
文学	-5232
最为	-5233
极度	-5234
浪漫	-5235
激光	-5236
白人	-5237
看作	-5238
群人	-5239
触摸	-5240
赞助	-5241
轨迹	-5242
轻松	-5243
集合	-5244
面上	-5245
风暴	-5246
鼻子	-5247
▁之前	-5248
▁产生	-5249
▁你不	-5250
▁艺术	-5251
▁这将	-5252
不再是	-5253
你怎么	-5254
参与者	-5255
在上面	-5256
大约有	-5257
斯坦福	-5258
的女性	-5259
诸如此	-5260
起作用	-5261
运作的	-5262
▁什么是	-5263
有趣的是	-5264
的可能性	-5265
▁如果你们	-5266
难以置信的	-5267
nd	-5268
▁V	-5269
▁老	-5270
》,	-5271
上百	-5272
上网	-5273
争取	-5274
储蓄	-5275
公交	-5276
典型	-5277
切的	-5278
刚好	-5279
包装	-5280
匹配	-5281
国王	-5282
季节	-5283
孤独	-5284
尔兰	-5285
开源	-5286
性质	-5287
惊喜	-5288
想出	-5289
搭建	-5290
教训	-5291
斯卡	-5292
曲子	-5293
更快	-5294
格斯	-5295
法官	-5296
消灭	-5297
灰质	-5298
的电	-5299
精英	-5300
缓慢	-5301
被人	-5302
讲座	-5303
课题	-5304
邪恶	-5305
随便	-5306
▁30	-5307
▁但却	-5308
▁其次	-5309
▁就算	-5310
▁感觉	-5311
▁数据	-5312
▁科技	-5313
▁约翰	-5314
了一下	-5315
亲爱的	-5316
会这样	-5317
受欢迎	-5318
她们的	-5319
小行星	-5320
就知道	-5321
市场的	-5322
最喜欢	-5323
的文化	-5324
谢谢你	-5325
贫民窟	-5326
身上的	-5327
非洲人	-5328
2010	-5329
▁第一次	-5330
▁让我来	-5331
就是我们	-5332
所看到的	-5333
是我们的	-5334
这种情况	-5335
需要一个	-5336
高尔夫球	-5337
▁因为这是	-5338
▁这是我们的	-5339
Facebook	-5340
▁十	-5341
▁时	-5342
▁男	-5343
▁飞	-5344
一周	-5345
严格	-5346
你去	-5347
冬天	-5348
几周	-5349
分成	-5350
含有	-5351
国民	-5352
在想	-5353
在线	-5354
外部	-5355
夜晚	-5356
头上	-5357
好比	-5358
姥鲨	-5359
富裕	-5360
将近	-5361
开启	-5362
引入	-5363
拍的	-5364
无知	-5365
来临	-5366
水里	-5367
活力	-5368
理性	-5369
科研	-5370
竞赛	-5371
维护	-5372
缩小	-5373
聚会	-5374
膨胀	-5375
蘑菇	-5376
调节	-5377
足球	-5378
这座	-5379
隔离	-5380
▁对吧	-5381
▁接受	-5382
▁简单	-5383
为自己	-5384
发生过	-5385
大问题	-5386
改变的	-5387
是没有	-5388
更容易	-5389
疯狂的	-5390
的人物	-5391
的基因	-5392
的最后	-5393
的网络	-5394
看不见	-5395
着我们	-5396
能做到	-5397
语言的	-5398
造成了	-5399
不一样的	-5400
变成一个	-5401
外科医生	-5402
绝大多数	-5403
▁而且他们	-5404
▁这并不是	-5405
),	-5406
yn	-5407
之上	-5408
优雅	-5409
依旧	-5410
借助	-5411
像个	-5412
公式	-5413
内在	-5414
内战	-5415
分解	-5416
占据	-5417
品质	-5418
囚犯	-5419
地铁	-5420
大海	-5421
好吗	-5422
姿势	-5423
小型	-5424
常规	-5425
年纪	-5426
床上	-5427
录音	-5428
扩散	-5429
抗议	-5430
指令	-5431
捕食	-5432
收藏	-5433
晶体	-5434
气的	-5435
激进	-5436
热的	-5437
白色	-5438
的海	-5439
着陆	-5440
给出	-5441
给它	-5442
维度	-5443
计的	-5444
说道	-5445
车辆	-5446
遭遇	-5447
鱼类	-5448
ver	-5449
▁不用	-5450
▁以此	-5451
▁它有	-5452
▁这会	-5453
一会儿	-5454
不停地	-5455
共同的	-5456
只有一	-5457
听到了	-5458
太多的	-5459
女性的	-5460
小时候	-5461
所需的	-5462
是通过	-5463
显示了	-5464
的反应	-5465
▁在这种	-5466
▁我父亲	-5467
精神疾病	-5468
这个国家	-5469
这些都是	-5470
之间的关系	-5471
▁d	-5472
▁·	-5473
之心	-5474
伦理	-5475
体重	-5476
出口	-5477
原料	-5478
后代	-5479
味的	-5480
天赋	-5481
安慰	-5482
尼斯	-5483
布什	-5484
心中	-5485
想去	-5486
愉快	-5487
我爱	-5488
把你	-5489
拍照	-5490
昂贵	-5491
晚餐	-5492
最多	-5493
最早	-5494
服用	-5495
积累	-5496
绘制	-5497
缺少	-5498
而不	-5499
透过	-5500
零件	-5501
han	-5502
▁Al	-5503
▁一定	-5504
▁我得	-5505
▁而你	-5506
不是在	-5507
人们会	-5508
决定了	-5509
制造的	-5510
周围的	-5511
哲学家	-5512
围绕着	-5513
大小的	-5514
对这些	-5515
我之前	-5516
的另一	-5517
的图片	-5518
的意义	-5519
的核心	-5520
的游戏	-5521
而来的	-5522
选择了	-5523
NASA	-5524
▁他们不	-5525
▁但我想	-5526
▁和我们	-5527
▁我们正	-5528
一个故事	-5529
任何事情	-5530
的一件事	-5531
▁那是一个	-5532
联系在一起	-5533
23	-5534
▁啊	-5535
一来	-5536
乳房	-5537
任意	-5538
公斤	-5539
去过	-5540
发育	-5541
哥伦	-5542
字塔	-5543
岁了	-5544
底下	-5545
开关	-5546
弯曲	-5547
当成	-5548
慈悲	-5549
拜访	-5550
挽救	-5551
水母	-5552
水源	-5553
热带	-5554
独自	-5555
第四	-5556
能用	-5557
航天	-5558
花钱	-5559
讲讲	-5560
身为	-5561
运算	-5562
醒来	-5563
错觉	-5564
键盘	-5565
长达	-5566
青春	-5567
骄傲	-5568
鲸鱼	-5569
▁不久	-5570
▁不断	-5571
▁你有	-5572
▁到底	-5573
▁她在	-5574
▁好像	-5575
▁总是	-5576
▁这很	-5577
一个月	-5578
以上的	-5579
史以来	-5580
家公司	-5581
工作者	-5582
很棒的	-5583
我不能	-5584
无线电	-5585
生命中	-5586
的活动	-5587
的理解	-5588
的理论	-5589
的细胞	-5590
的那样	-5591
研究中	-5592
经历过	-5593
重大的	-5594
金字塔	-5595
问自己	-5596
2008	-5597
▁并没有	-5598
▁我不能	-5599
▁我想说	-5600
一起工作	-5601
就是这个	-5602
年的时间	-5603
解决方法	-5604
▁你们可以	-5605
▁这是一张	-5606
不同的方式	-5607
▁这就意味着	-5608
▁买	-5609
▁越	-5610
主导	-5611
今日	-5612
他会	-5613
依据	-5614
写道	-5615
出于	-5616
初期	-5617
姐姐	-5618
必然	-5619
恐怕	-5620
想起	-5621
拉丁	-5622
数千	-5623
方说	-5624
景观	-5625
暗示	-5626
极为	-5627
构想	-5628
检验	-5629
比尔	-5630
法庭	-5631
流程	-5632
清单	-5633
温暖	-5634
牛津	-5635
特技	-5636
特质	-5637
猜测	-5638
瘫痪	-5639
的长	-5640
脑中	-5641
西洋	-5642
运营	-5643
这会	-5644
银河	-5645
震撼	-5646
麻醉	-5647
ion	-5648
▁仍然	-5649
▁否则	-5650
▁大卫	-5651
▁相比	-5652
▁试着	-5653
不过是	-5654
之一是	-5655
了他们	-5656
了许多	-5657
人口的	-5658
他们有	-5659
他们都	-5660
俄比亚	-5661
原来的	-5662
在非洲	-5663
大概有	-5664
大气层	-5665
并不能	-5666
成功地	-5667
我今天	-5668
或者说	-5669
提供的	-5670
的人民	-5671
的存在	-5672
的态度	-5673
的目的	-5674
的艺术	-5675
看着我	-5676
跟我说	-5677
▁现在你	-5678
▁这个人	-5679
准备好了	-5680
的重要性	-5681
资本主义	-5682
麻省理工	-5683
▁他们认为	-5684
▁你能看到	-5685
▁我们只是	-5686
埃塞俄比亚	-5687
我们就可以	-5688
DP	-5689
一所	-5690
一颗	-5691
上传	-5692
丧失	-5693
九十	-5694
促使	-5695
入侵	-5696
协会	-5697
发起	-5698
向上	-5699
在做	-5700
姆斯	-5701
孤儿	-5702
手工	-5703
无处	-5704
沉默	-5705
消极	-5706
消防	-5707
直线	-5708
视野	-5709
议题	-5710
越大	-5711
辈子	-5712
黑色	-5713
▁不再	-5714
▁基于	-5715
▁教育	-5716
▁直接	-5717
▁终于	-5718
了什么	-5719
从这里	-5720
合理的	-5721
增加了	-5722
建立了	-5723
我说的	-5724
打交道	-5725
的小孩	-5726
的疾病	-5727
第二天	-5728
类动物	-5729
网站上	-5730
证明了	-5731
该如何	-5732
起来了	-5733
那里的	-5734
▁你现在	-5735
▁所以当	-5736
一些事情	-5737
交通工具	-5738
对我们的	-5739
成为一名	-5740
看到一个	-5741
▁但是现在	-5742
▁更重要的是	-5743
Twitter	-5744
IT	-5745
pp	-5746
▁单	-5747
▁转	-5748
一万	-5749
不止	-5750
与之	-5751
乐团	-5752
二的	-5753
于此	-5754
似的	-5755
创伤	-5756
医师	-5757
去找	-5758
受益	-5759
大多	-5760
官方	-5761
巴勒	-5762
废弃	-5763
引力	-5764
手的	-5765
扭曲	-5766
新生	-5767
旅游	-5768
更新	-5769
档案	-5770
棒球	-5771
永恒	-5772
添加	-5773
的说	-5774
肢体	-5775
蔓延	-5776
解剖	-5777
青蛙	-5778
风能	-5779
▁15	-5780
▁像是	-5781
▁我用	-5782
▁比起	-5783
▁民主	-5784
▁生活	-5785
▁男人	-5786
上百万	-5787
两个人	-5788
全球的	-5789
再一次	-5790
副作用	-5791
发出的	-5792
告诉他	-5793
将会是	-5794
弄清楚	-5795
必要的	-5796
我不会	-5797
把你的	-5798
暗物质	-5799
最近的	-5800
核武器	-5801
没办法	-5802
的发生	-5803
的物种	-5804
研究了	-5805
给自己	-5806
背后的	-5807
自然界	-5808
▁但这些	-5809
▁是一种	-5810
▁第三个	-5811
已经开始	-5812
很感兴趣	-5813
整个世界	-5814
电子邮件	-5815
结合起来	-5816
解释一下	-5817
这个系统	-5818
这项技术	-5819
28	-5820
HI	-5821
三倍	-5822
亿个	-5823
供给	-5824
善于	-5825
多元	-5826
室里	-5827
就业	-5828
往下	-5829
很酷	-5830
德拉	-5831
感激	-5832
手中	-5833
把他	-5834
无所	-5835
无神	-5836
棵树	-5837
用水	-5838
短暂	-5839
硬件	-5840
碰撞	-5841
聚焦	-5842
良好	-5843
衰老	-5844
要么	-5845
要做	-5846
读书	-5847
阴道	-5848
20%	-5849
ind	-5850
ran	-5851
▁也会	-5852
▁发展	-5853
▁总之	-5854
▁放在	-5855
▁更多	-5856
▁毕竟	-5857
▁这幅	-5858
了起来	-5859
价值的	-5860
历史的	-5861
右边的	-5862
在那个	-5863
将他们	-5864
工作中	-5865
希格斯	-5866
并不会	-5867
我想到	-5868
我正在	-5869
的价值	-5870
的发现	-5871
的角色	-5872
诺贝尔	-5873
这个小	-5874
面对的	-5875
▁199	-5876
像这样的	-5877
几个小时	-5878
我不得不	-5879
正是我们	-5880
非常有趣	-5881
▁但实际上	-5882
▁你可以在	-5883
PA	-5884
ud	-5885
▁'	-5886
▁北	-5887
▁离	-5888
举办	-5889
五千	-5890
催产	-5891
全身	-5892
前景	-5893
发言	-5894
听见	-5895
四十	-5896
地带	-5897
垂直	-5898
天哪	-5899
实话	-5900
对着	-5901
整天	-5902
明智	-5903
星星	-5904
是以	-5905
本能	-5906
板球	-5907
某一	-5908
汉堡	-5909
洗衣	-5910
清理	-5911
滑雪	-5912
理所	-5913
界限	-5914
病菌	-5915
的总	-5916
监管	-5917
看得	-5918
知觉	-5919
简洁	-5920
纯粹	-5921
结局	-5922
耐心	-5923
装饰	-5924
说说	-5925
资产	-5926
辆车	-5927
这也	-5928
这片	-5929
通信	-5930
那就	-5931
阐述	-5932
零和	-5933
预料	-5934
高级	-5935
ohn	-5936
▁对此	-5937
▁海洋	-5938
▁要是	-5939
▁让人	-5940
▁难道	-5941
伴随着	-5942
几十年	-5943
在他们	-5944
在过去	-5945
存在了	-5946
它们在	-5947
工作了	-5948
建立在	-5949
很小的	-5950
意识的	-5951
我们又	-5952
把我的	-5953
故事的	-5954
数百万	-5955
数量的	-5956
是否能	-5957
玩意儿	-5958
的一位	-5959
的事业	-5960
的音乐	-5961
目的是	-5962
网络上	-5963
解决了	-5964
达到了	-5965
都不会	-5966
▁他们想	-5967
▁我甚至	-5968
不可避免	-5969
令人兴奋	-5970
做了什么	-5971
很重要的	-5972
我们就能	-5973
相互作用	-5974
维基百科	-5975
觉得自己	-5976
▁我们甚至	-5977
▁而且我们	-5978
对我们来说	-5979
ut	-5980
▁Y	-5981
▁「	-5982
▁主	-5983
一头	-5984
为例	-5985
之路	-5986
众所	-5987
假装	-5988
卡通	-5989
宇航	-5990
带领	-5991
开来	-5992
所见	-5993
方程	-5994
有益	-5995
滑板	-5996
激烈	-5997
生病	-5998
画画	-5999
的好	-6000
的的	-6001
见面	-6002
负面	-6003
走过	-6004
跑步	-6005
躺在	-6006
预言	-6007
▁你是	-6008
▁声音	-6009
▁很好	-6010
一分钟	-6011
了他的	-6012
他们也	-6013
你现在	-6014
做出了	-6015
催产素	-6016
写了一	-6017
地图上	-6018
处理器	-6019
复杂性	-6020
当时的	-6021
打印机	-6022
摄像头	-6023
政治家	-6024
理查德	-6025
甚至是	-6026
的家庭	-6027
研究生	-6028
讲的是	-6029
还记得	-6030
这方面	-6031
集中在	-6032
▁其他的	-6033
▁这两个	-6034
发达国家	-6035
帮助他们	-6036
我们看到	-6037
温室气体	-6038
的事情是	-6039
的方式来	-6040
这个东西	-6041
▁另外一个	-6042
完全不同的	-6043
32	-6044
Al	-6045
ro	-6046
▁–	-6047
不受	-6048
不着	-6049
了他	-6050
体积	-6051
全力	-6052
包围	-6053
厌恶	-6054
参考	-6055
可怜	-6056
在乎	-6057
家园	-6058
封闭	-6059
巨型	-6060
带上	-6061
带给	-6062
延续	-6063
当下	-6064
彼得	-6065
想着	-6066
战胜	-6067
手里	-6068
损害	-6069
教导	-6070
替换	-6071
死的	-6072
测序	-6073
深度	-6074
潜在	-6075
特里	-6076
猜想	-6077
而非	-6078
肝脏	-6079
讯息	-6080
马逊	-6081
ert	-6082
▁一次	-6083
▁寻找	-6084
▁所谓	-6085
▁控制	-6086
▁更加	-6087
▁记录	-6088
会产生	-6089
你应该	-6090
在纽约	-6091
坐下来	-6092
城市里	-6093
外星人	-6094
学生的	-6095
小孩子	-6096
尝试着	-6097
层面上	-6098
建筑的	-6099
开放的	-6100
托马斯	-6101
接受了	-6102
收到了	-6103
数据库	-6104
条件下	-6105
死亡的	-6106
爱尔兰	-6107
的这些	-6108
目标是	-6109
这句话	-6110
里面的	-6111
1960	-6112
▁你应该	-6113
▁大家都	-6114
的原因是	-6115
非常好的	-6116
▁我们就能	-6117
47	-6118
75	-6119
▁试	-6120
▁超	-6121
三明	-6122
上方	-6123
乌鸦	-6124
事儿	-6125
交配	-6126
使它	-6127
俱乐	-6128
冲击	-6129
几何	-6130
列表	-6131
各地	-6132
四周	-6133
塔利	-6134
声明	-6135
大厅	-6136
子和	-6137
它为	-6138
官员	-6139
实用	-6140
封面	-6141
开采	-6142
微博	-6143
怀特	-6144
性能	-6145
情报	-6146
慷慨	-6147
截然	-6148
政客	-6149
文本	-6150
斯拉	-6151
棉花	-6152
殖民	-6153
气泡	-6154
法的	-6155
真空	-6156
竞选	-6157
粗糙	-6158
紧急	-6159
经理	-6160
能否	-6161
节省	-6162
规范	-6163
输出	-6164
顾问	-6165
▁事情	-6166
▁从来	-6167
▁即便	-6168
▁很难	-6169
一切都	-6170
不到的	-6171
众所周	-6172
你就能	-6173
可以从	-6174
可以让	-6175
市中心	-6176
建筑物	-6177
栖息地	-6178
清楚的	-6179
潜在的	-6180
用一种	-6181
的唯一	-6182
的看法	-6183
的视频	-6184
看这个	-6185
▁不管是	-6186
▁我感到	-6187
▁看上去	-6188
几个星期	-6189
在过去的	-6190
它是一个	-6191
巴勒斯坦	-6192
得到一个	-6193
成百上千	-6194
我在这里	-6195
放在一起	-6196
这是一种	-6197
▁你就可以	-6198
▁所有人都	-6199
▁谢谢你们	-6200
一代	-6201
一层	-6202
为之	-6203
低的	-6204
八十	-6205
到我	-6206
医药	-6207
只需	-6208
回复	-6209
坦白	-6210
塞尔	-6211
多巴	-6212
多德	-6213
大战	-6214
干嘛	-6215
戈尔	-6216
排序	-6217
推测	-6218
搜寻	-6219
救援	-6220
智力	-6221
暂时	-6222
桌上	-6223
楼梯	-6224
永久	-6225
沉浸	-6226
法院	-6227
渠道	-6228
盯着	-6229
看成	-6230
突变	-6231
给她	-6232
脑子	-6233
脑部	-6234
脸上	-6235
营利	-6236
装备	-6237
西部	-6238
要比	-6239
要花	-6240
车上	-6241
这很	-6242
酒吧	-6243
震动	-6244
50%	-6245
▁老师	-6246
▁面对	-6247
三明治	-6248
从这个	-6249
你是否	-6250
共和党	-6251
到我们	-6252
加入了	-6253
包含了	-6254
可以说	-6255
在他的	-6256
大西洋	-6257
好奇心	-6258
我当时	-6259
我非常	-6260
提出了	-6261
是真的	-6262
的一次	-6263
的人数	-6264
的人都	-6265
的改变	-6266
看到它	-6267
认为的	-6268
质量的	-6269
▁全世界	-6270
你自己的	-6271
对于我们	-6272
目前为止	-6273
神经系统	-6274
聚在一起	-6275
该怎么办	-6276
这个数字	-6277
▁你会看到	-6278
▁如果你在	-6279
▁所以我就	-6280
▁我们都知道	-6281
EO	-6282
▁早	-6283
▁曾	-6284
▁花	-6285
▁近	-6286
两天	-6287
了吧	-6288
他就	-6289
优先	-6290
兰克	-6291
创业	-6292
动手	-6293
启示	-6294
命令	-6295
回头	-6296
对付	-6297
底层	-6298
恶心	-6299
我只	-6300
担忧	-6301
指标	-6302
搜集	-6303
操控	-6304
有毒	-6305
权的	-6306
次的	-6307
此刻	-6308
气味	-6309
海水	-6310
深远	-6311
生气	-6312
甲烷	-6313
网膜	-6314
羞耻	-6315
耶稣	-6316
西亚	-6317
议会	-6318
询问	-6319
财产	-6320
遥远	-6321
10%	-6322
700	-6323
▁它被	-6324
▁汽车	-6325
▁电脑	-6326
▁那样	-6327
一个新	-6328
不平等	-6329
你觉得	-6330
决定的	-6331
只是个	-6332
失败的	-6333
它们会	-6334
导致了	-6335
我们去	-6336
抗生素	-6337
拥有了	-6338
有一位	-6339
有力的	-6340
灰质炎	-6341
的产品	-6342
的功能	-6343
的机器	-6344
给人们	-6345
行不通	-6346
表面上	-6347
视网膜	-6348
飞行员	-6349
▁一个人	-6350
▁不只是	-6351
▁发生在	-6352
▁在那个	-6353
▁结果是	-6354
全球变暖	-6355
发生的事	-6356
各种各样	-6357
很多人都	-6358
精神分裂	-6359
这些孩子	-6360
这件事情	-6361
▁你也可以	-6362
▁另一方面	-6363
▁我们通过	-6364
▁这个项目	-6365
最重要的是	-6366
脊髓灰质炎	-6367
▁我们不知道	-6368
▁这就是我的	-6369
65	-6370
▁六	-6371
▁画	-6372
上述	-6373
不大	-6374
书中	-6375
买了	-6376
交叉	-6377
交响	-6378
产量	-6379
做着	-6380
冠军	-6381
助于	-6382
又会	-6383
及其	-6384
古典	-6385
古怪	-6386
妹妹	-6387
对它	-6388
尊严	-6389
尚未	-6390
延长	-6391
当的	-6392
微型	-6393
成人	-6394
投影	-6395
拿起	-6396
斯科	-6397
无穷	-6398
架构	-6399
正式	-6400
每周	-6401
毫不	-6402
涂鸦	-6403
点儿	-6404
热衷	-6405
焦点	-6406
电流	-6407
电线	-6408
盖茨	-6409
直升	-6410
礼拜	-6411
约会	-6412
警告	-6413
说不	-6414
这台	-6415
遥控	-6416
重力	-6417
首诗	-6418
骆驼	-6419
GDP	-6420
▁各位	-6421
▁自由	-6422
一个大	-6423
一本书	-6424
为基础	-6425
了一场	-6426
你想要	-6427
你没有	-6428
到这个	-6429
回来了	-6430
因特网	-6431
在未来	-6432
失败了	-6433
学习的	-6434
完全是	-6435
有一条	-6436
玩游戏	-6437
经济的	-6438
而言之	-6439
苏格兰	-6440
解释了	-6441
转化为	-6442
追溯到	-6443
2007	-6444
▁下一个	-6445
▁仅仅是	-6446
▁但是他	-6447
▁你不会	-6448
▁你看到	-6449
▁我还是	-6450
二十世纪	-6451
任何时候	-6452
再生能源	-6453
另一方面	-6454
所有东西	-6455
看起来像	-6456
给了我们	-6457
谢谢大家	-6458
▁因为这个	-6459
▁我有一个	-6460
▁我们就可以	-6461
▁你们可以看到	-6462
29	-6463
ec	-6464
▁连	-6465
业余	-6466
两位	-6467
事的	-6468
介入	-6469
以此	-6470
会上	-6471
作曲	-6472
修改	-6473
候选	-6474
偶尔	-6475
光的	-6476
减轻	-6477
剑桥	-6478
勇敢	-6479
历山	-6480
发掘	-6481
向下	-6482
否认	-6483
图上	-6484
坐着	-6485
外界	-6486
导师	-6487
尸体	-6488
尼尔	-6489
廉价	-6490
强奸	-6491
当初	-6492
意志	-6493
意愿	-6494
护理	-6495
拉德	-6496
指示	-6497
挑选	-6498
捕鱼	-6499
提琴	-6500
摩尔	-6501
摩托	-6502
效益	-6503
新兴	-6504
是指	-6505
杰克	-6506
树林	-6507
格林	-6508
派对	-6509
温和	-6510
演唱	-6511
疯了	-6512
监视	-6513
盲人	-6514
磁场	-6515
笔钱	-6516
线条	-6517
维亚	-6518
肩膀	-6519
行驶	-6520
补充	-6521
要把	-6522
要素	-6523
轻易	-6524
迹象	-6525
阶级	-6526
隐私	-6527
青年	-6528
顶部	-6529
▁再次	-6530
▁参与	-6531
▁唯一	-6532
▁如同	-6533
▁很快	-6534
▁此时	-6535
▁没错	-6536
不一定	-6537
也同样	-6538
人们对	-6539
你已经	-6540
受到了	-6541
大爆炸	-6542
奥巴马	-6543
将它们	-6544
就有了	-6545
很喜欢	-6546
我刚才	-6547
我去了	-6548
提出的	-6549
新技术	-6550
来源于	-6551
的家伙	-6552
的时期	-6553
的电影	-6554
真正地	-6555
结束后	-6556
艺术品	-6557
被称作	-6558
跟我们	-6559
这里有	-6560
银河系	-6561
▁人类的	-6562
▁地球上	-6563
▁它们会	-6564
▁它们在	-6565
▁对我们	-6566
▁我是个	-6567
▁这些都	-6568
一样东西	-6569
到另一个	-6570
完全不同	-6571
就是这么	-6572
应用程序	-6573
我的朋友	-6574
这意味着	-6575
▁这个故事	-6576
做到这一点	-6577
▁如果我们能	-6578
▁安	-6579
▁巴	-6580
▁美	-6581
▁西	-6582
一堆	-6583
二战	-6584
你对	-6585
后悔	-6586
周末	-6587
周边	-6588
外线	-6589
夸张	-6590
好几	-6591
尊敬	-6592
尔德	-6593
峡谷	-6594
常见	-6595
必需	-6596
思路	-6597
战士	-6598
所作	-6599
拿走	-6600
排除	-6601
显现	-6602
步行	-6603
每秒	-6604
灵长	-6605
特兰	-6606
特律	-6607
痴呆	-6608
硬币	-6609
罗里	-6610
者和	-6611
节约	-6612
蒙特	-6613
蚁群	-6614
迁移	-6615
这块	-6616
ack	-6617
▁位于	-6618
▁坐在	-6619
▁持续	-6620
▁永远	-6621
▁注意	-6622
丰富的	-6623
从来没	-6624
使用它	-6625
具体的	-6626
取得了	-6627
小女孩	-6628
就在于	-6629
工作室	-6630
年开始	-6631
建立起	-6632
开玩笑	-6633
弄明白	-6634
怎么说	-6635
我不是	-6636
我想说	-6637
排放量	-6638
早期的	-6639
来到了	-6640
的主要	-6641
的需求	-6642
网络的	-6643
设计了	-6644
都是在	-6645
面临着	-6646
高科技	-6647
▁他们对	-6648
▁他们将	-6649
▁但同时	-6650
▁但这是	-6651
▁当然了	-6652
▁我们再	-6653
▁是不是	-6654
▁是什么	-6655
▁然后把	-6656
▁答案是	-6657
▁这就像	-6658
▁那是在	-6659
地球上的	-6660
墨西哥湾	-6661
怎样才能	-6662
我们想要	-6663
无处不在	-6664
这个过程	-6665
▁我们怎么	-6666
ee	-6667
▁便	-6668
上班	-6669
上说	-6670
不论	-6671
与我	-6672
也就	-6673
人说	-6674
伴侣	-6675
作弊	-6676
入了	-6677
凌晨	-6678
分割	-6679
创办	-6680
叫它	-6681
吃饭	-6682
头痛	-6683
对手	-6684
射击	-6685
强制	-6686
当做	-6687
性地	-6688
戴着	-6689
把手	-6690
杀害	-6691
林肯	-6692
根源	-6693
武装	-6694
由此	-6695
白天	-6696
监测	-6697
称呼	-6698
终结	-6699
胰岛	-6700
膝盖	-6701
蛋糕	-6702
要是	-6703
议员	-6704
设法	-6705
跨国	-6706
路易	-6707
路线	-6708
阶层	-6709
随意	-6710
鞋子	-6711
风景	-6712
鲁士	-6713
all	-6714
▁12	-6715
▁代表	-6716
▁以前	-6717
▁媒体	-6718
▁形成	-6719
▁现代	-6720
▁病人	-6721
▁石油	-6722
▁获得	-6723
▁让它	-6724
▁连接	-6725
▁都能	-6726
一般的	-6727
了解的	-6728
什么的	-6729
从哪里	-6730
吸引力	-6731
天然气	-6732
太好了	-6733
孟加拉	-6734
帮我们	-6735
年时间	-6736
我不想	-6737
我是个	-6738
我真的	-6739
最后一	-6740
有用的	-6741
来这里	-6742
理性的	-6743
理解的	-6744
的能源	-6745
社会中	-6746
科医生	-6747
自己是	-6748
角度看	-6749
超过了	-6750
还不够	-6751
这些是	-6752
非政府	-6753
食物链	-6754
▁也没有	-6755
▁人们在	-6756
▁他们被	-6757
▁和一个	-6758
▁和其他	-6759
▁如果有	-6760
▁这让我	-6761
一件事情	-6762
也是如此	-6763
你知道的	-6764
做了一些	-6765
哥伦比亚	-6766
我的演讲	-6767
机器人的	-6768
生活中的	-6769
的孩子们	-6770
知道如何	-6771
科学研究	-6772
这是什么	-6773
▁我并不是	-6774
▁我认为这	-6775
▁所以这个	-6776
到底是什么	-6777
▁我们称之为	-6778
▁最重要的是	-6779
1%	-6780
3%	-6781
In	-6782
▁得	-6783
▁恩	-6784
不良	-6785
丢失	-6786
两周	-6787
交给	-6788
兰经	-6789
加纳	-6790
十字	-6791
单纯	-6792
危害	-6793
取出	-6794
唱歌	-6795
四种	-6796
国防	-6797
图的	-6798
处境	-6799
大厦	-6800
大声	-6801
她在	-6802
始于	-6803
小学	-6804
已有	-6805
得上	-6806
得起	-6807
忍受	-6808
战场	-6809
把钱	-6810
提问	-6811
撒谎	-6812
放松	-6813
文献	-6814
方形	-6815
死刑	-6816
热量	-6817
男士	-6818
的有	-6819
累积	-6820
线索	-6821
结核	-6822
诠释	-6823
追寻	-6824
通往	-6825
那条	-6826
阴影	-6827
800	-6828
▁基本	-6829
▁显示	-6830
▁照片	-6831
▁选择	-6832
不存在	-6833
停车场	-6834
制造出	-6835
居住在	-6836
建立的	-6837
很高兴	-6838
提一下	-6839
更高的	-6840
最多的	-6841
有多大	-6842
每天都	-6843
癌症的	-6844
癌细胞	-6845
积极的	-6846
罗里达	-6847
自己在	-6848
让它们	-6849
还需要	-6850
道德的	-6851
额外的	-6852
2009	-6853
▁一开始	-6854
▁可能会	-6855
▁好消息	-6856
▁把它们	-6857
展示一下	-6858
我们人类	-6859
我们无法	-6860
我的生活	-6861
最基本的	-6862
治疗方法	-6863
这个概念	-6864
这些照片	-6865
▁他们需要	-6866
▁所以现在	-6867
前所未有的	-6868
48	-6869
▁讲	-6870
不动	-6871
不然	-6872
人均	-6873
低于	-6874
倾斜	-6875
冰层	-6876
制品	-6877
加仑	-6878
吃了	-6879
和她	-6880
唱片	-6881
器的	-6882
在哪	-6883
坐下	-6884
失业	-6885
头的	-6886
密切	-6887
对应	-6888
尼克	-6889
悬崖	-6890
我曾	-6891
支出	-6892
数百	-6893
明年	-6894
是吗	-6895
柏林	-6896
漂浮	-6897
状物	-6898
相处	-6899
硅谷	-6900
简化	-6901
终极	-6902
经费	-6903
脉冲	-6904
自私	-6905
荧光	-6906
词语	-6907
说出	-6908
跳伞	-6909
远程	-6910
鸿沟	-6911
黑帮	-6912
40%	-6913
har	-6914
▁做出	-6915
▁具有	-6916
▁制作	-6917
▁只能	-6918
▁并非	-6919
▁是从	-6920
▁记住	-6921
▁还要	-6922
不好的	-6923
不愿意	-6924
之后的	-6925
你认为	-6926
俱乐部	-6927
出色的	-6928
到现在	-6929
就好像	-6930
就是我	-6931
已经是	-6932
希望的	-6933
底特律	-6934
想办法	-6935
最初的	-6936
没有被	-6937
的办法	-6938
的程度	-6939
的语言	-6940
的领域	-6941
空间的	-6942
胰岛素	-6943
能够在	-6944
项目的	-6945
Tube	-6946
▁另一种	-6947
▁就是说	-6948
▁我们先	-6949
▁来自于	-6950
举个例子	-6951
医疗保健	-6952
唯一一个	-6953
宗教信仰	-6954
有这样的	-6955
理所当然	-6956
看起来很	-6957
这么做了	-6958
▁在我看来	-6959
▁我们就会	-6960
▁这些东西	-6961
YouTube	-6962
▁心	-6963
▁按	-6964
▁红	-6965
。)	-6966
三天	-6967
不住	-6968
不出	-6969
不及	-6970
与你	-6971
亲自	-6972
以南	-6973
分为	-6974
加以	-6975
动脉	-6976
华尔	-6977
卡尔	-6978
压缩	-6979
双方	-6980
反抗	-6981
发行	-6982
号码	-6983
命名	-6984
图画	-6985
圆形	-6986
坏事	-6987
城镇	-6988
外国	-6989
妥协	-6990
容忍	-6991
巴拉	-6992
帐篷	-6993
当他	-6994
性格	-6995
性欲	-6996
患上	-6997
推荐	-6998
欧盟	-6999
正面	-7000
此类	-7001
比我	-7002
毫米	-7003
波斯	-7004
海滩	-7005
琼斯	-7006
空白	-7007
等同	-7008
线路	-7009
股票	-7010
草原	-7011
荣誉	-7012
西兰	-7013
设定	-7014
诸位	-7015
通用	-7016
造出	-7017
问你	-7018
音符	-7019
ord	-7020
▁KB	-7021
▁他就	-7022
▁他把	-7023
▁信息	-7024
▁她是	-7025
▁真是	-7026
▁那天	-7027
三个月	-7028
下一步	-7029
产品的	-7030
人心的	-7031
做出的	-7032
十年里	-7033
可以把	-7034
可爱的	-7035
在英国	-7036
想一想	-7037
我父亲	-7038
接触到	-7039
方式来	-7040
来进行	-7041
每小时	-7042
涉及到	-7043
深刻的	-7044
环境下	-7045
的女人	-7046
的美国	-7047
结果是	-7048
英格兰	-7049
进化论	-7050
那些人	-7051
重要性	-7052
长大的	-7053
问他们	-7054
青春期	-7055
▁其实是	-7056
▁可能是	-7057
▁听起来	-7058
▁真正的	-7059
▁而且它	-7060
▁这并不	-7061
▁这正是	-7062
中的一些	-7063
为什么会	-7064
你会看到	-7065
全球性的	-7066
显而易见	-7067
更多的人	-7068
正在发生	-7069
统计数据	-7070
诸如此类	-7071
还有一些	-7072
▁没有任何	-7073
是什么样子	-7074
▁所以如果你	-7075
2.	-7076
BM	-7077
CA	-7078
▁八	-7079
▁地	-7080
▁弗	-7081
▁贝	-7082
一组	-7083
一间	-7084
中去	-7085
之旅	-7086
也要	-7087
你好	-7088
党派	-7089
共识	-7090
冷却	-7091
分别	-7092
分数	-7093
受过	-7094
和人	-7095
圣战	-7096
场合	-7097
声波	-7098
奶奶	-7099
宝贝	-7100
察觉	-7101
岛上	-7102
崛起	-7103
弹奏	-7104
恶化	-7105
挂在	-7106
放置	-7107
普及	-7108
术语	-7109
橄榄	-7110
歧视	-7111
氏度	-7112
没能	-7113
泄漏	-7114
用作	-7115
的车	-7116
直径	-7117
瞄准	-7118
组建	-7119
言论	-7120
谋杀	-7121
足迹	-7122
转动	-7123
陆地	-7124
雄性	-7125
,20	-7126
195	-7127
25%	-7128
▁保持	-7129
▁允许	-7130
▁变得	-7131
▁国际	-7132
▁学生	-7133
▁左边	-7134
▁影响	-7135
▁我爱	-7136
▁既然	-7137
▁欧洲	-7138
▁西方	-7139
▁观察	-7140
两件事	-7141
严肃的	-7142
了一条	-7143
你们都	-7144
克萨斯	-7145
去了解	-7146
发现在	-7147
可能有	-7148
女孩儿	-7149
实际的	-7150
就已经	-7151
开始做	-7152
很奇怪	-7153
总是在	-7154
想法是	-7155
我只是	-7156
所以我	-7157
投资者	-7158
最新的	-7159
的儿童	-7160
的学校	-7161
的形状	-7162
的材料	-7163
纽约的	-7164
经历的	-7165
给你的	-7166
联系的	-7167
自由的	-7168
舞台上	-7169
过去了	-7170
这两种	-7171
都不是	-7172
▁100	-7173
▁the	-7174
▁不需要	-7175
▁从一个	-7176
▁他们能	-7177
▁因为她	-7178
▁很显然	-7179
▁计算机	-7180
▁让人们	-7181
▁过去的	-7182
▁那里的	-7183
他们没有	-7184
你看到的	-7185
我们今天	-7186
电视节目	-7187
的世界里	-7188
的机器人	-7189
站在这里	-7190
这些地方	-7191
▁如果没有	-7192
更重要的是	-7193
非常简单的	-7194
1,	-7195
▁各	-7196
▁教	-7197
▁现	-7198
一对	-7199
七个	-7200
上角	-7201
不如	-7202
业务	-7203
两条	-7204
书的	-7205
价钱	-7206
全面	-7207
关节	-7208
利于	-7209
加强	-7210
反而	-7211
大致	-7212
字胡	-7213
将军	-7214
广阔	-7215
引人	-7216
引领	-7217
强度	-7218
很高	-7219
总会	-7220
愉悦	-7221
把握	-7222
拉罕	-7223
提示	-7224
放下	-7225
时常	-7226
明的	-7227
未知	-7228
杀手	-7229
来回	-7230
歌颂	-7231
灌输	-7232
照射	-7233
牛顿	-7234
状的	-7235
理智	-7236
痕迹	-7237
航行	-7238
蒂芬	-7239
过头	-7240
造就	-7241
遗产	-7242
都市	-7243
里克	-7244
里士	-7245
长寿	-7246
饼干	-7247
120	-7248
ine	-7249
▁公司	-7250
▁婴儿	-7251
▁说到	-7252
上一个	-7253
不仅是	-7254
为一个	-7255
也一样	-7256
内心的	-7257
在很多	-7258
塔利班	-7259
增长的	-7260
奇妙的	-7261
好莱坞	-7262
如此之	-7263
应用到	-7264
开发的	-7265
我们正	-7266
我而言	-7267
把所有	-7268
接受的	-7269
放弃了	-7270
更喜欢	-7271
服务器	-7272
犹太人	-7273
的不是	-7274
的价格	-7275
的开始	-7276
称它为	-7277
简单地	-7278
获得的	-7279
让这些	-7280
2005	-7281
▁不同的	-7282
▁但它们	-7283
▁你就能	-7284
▁再一次	-7285
▁然后就	-7286
▁而那些	-7287
与众不同	-7288
了一系列	-7289
参与其中	-7290
我是一个	-7291
的大部分	-7292
这样一种	-7293
这部电影	-7294
远的地方	-7295
采取行动	-7296
Chris	-7297
▁但我认为	-7298
▁作为一名	-7299
▁我不得不	-7300
▁我们想要	-7301
▁那是因为	-7302
我们的大脑	-7303
▁顺便说一下	-7304
▁我们可以看到	-7305
,3	-7306
aw	-7307
oy	-7308
ug	-7309
▁m	-7310
▁约	-7311
▁走	-7312
。。	-7313
万物	-7314
不堪	-7315
不已	-7316
中所	-7317
义肢	-7318
五百	-7319
仍在	-7320
分支	-7321
到你	-7322
卡路	-7323
发作	-7324
叔叔	-7325
叫声	-7326
史上	-7327
好多	-7328
孟买	-7329
寄生	-7330
屁股	-7331
带回	-7332
异的	-7333
当代	-7334
感动	-7335
提及	-7336
教科	-7337
明星	-7338
校园	-7339
沙特	-7340
煤炭	-7341
登上	-7342
福特	-7343
脊椎	-7344
菲利	-7345
谎言	-7346
赛车	-7347
车库	-7348
辅导	-7349
追随	-7350
适用	-7351
逃离	-7352
逆转	-7353
遇见	-7354
里约	-7355
雕像	-7356
首席	-7357
HIV	-7358
▁DH	-7359
▁和我	-7360
▁在于	-7361
▁太阳	-7362
▁建造	-7363
▁我猜	-7364
▁让你	-7365
一点儿	-7366
上帝的	-7367
下降了	-7368
也不能	-7369
事实是	-7370
从来不	-7371
做任何	-7372
原始的	-7373
发明的	-7374
完全的	-7375
帮助我	-7376
年代的	-7377
开始在	-7378
引起了	-7379
数据的	-7380
方法是	-7381
构成的	-7382
的文章	-7383
种类的	-7384
答案是	-7385
转移到	-7386
都不能	-7387
麦克风	-7388
2004	-7389
▁于是他	-7390
▁他是个	-7391
▁你觉得	-7392
▁在座的	-7393
▁是如何	-7394
▁突然间	-7395
▁而这是	-7396
什么地方	-7397
其他一些	-7398
利用这些	-7399
很有可能	-7400
所带来的	-7401
职业生涯	-7402
至关重要	-7403
野生动物	-7404
2%	-7405
8%	-7406
▁生	-7407
一支	-7408
中文	-7409
产出	-7410
从没	-7411
借口	-7412
储备	-7413
北美	-7414
十万	-7415
协助	-7416
印第	-7417
口哨	-7418
听着	-7419
哥哥	-7420
回归	-7421
塔尔	-7422
太太	-7423
头部	-7424
奋斗	-7425
害的	-7426
对其	-7427
小镇	-7428
应付	-7429
当前	-7430
总值	-7431
我用	-7432
手上	-7433
找寻	-7434
报导	-7435
更少	-7436
机的	-7437
村子	-7438
极大	-7439
桥梁	-7440
残酷	-7441
海啸	-7442
游行	-7443
环节	-7444
看似	-7445
秩序	-7446
立场	-7447
立法	-7448
荒谬	-7449
要用	-7450
误解	-7451
赢了	-7452
越南	-7453
遭到	-7454
随后	-7455
难度	-7456
预计	-7457
飓风	-7458
飞到	-7459
饥荒	-7460
马达	-7461
高达	-7462
250	-7463
▁公共	-7464
▁到处	-7465
▁女人	-7466
▁它就	-7467
▁当今	-7468
▁当它	-7469
▁往往	-7470
▁绝对	-7471
▁至今	-7472
▁身体	-7473
两个月	-7474
亚马逊	-7475
会不会	-7476
做了个	-7477
像我们	-7478
变化的	-7479
向他们	-7480
回答说	-7481
多巴胺	-7482
如此的	-7483
帮助你	-7484
幸福的	-7485
快速的	-7486
成长的	-7487
抑郁症	-7488
是来自	-7489
普通人	-7490
没问题	-7491
独一无	-7492
白色的	-7493
的一段	-7494
的现象	-7495
的蚂蚁	-7496
程度的	-7497
观众笑	-7498
这一个	-7499
1500	-7500
avid	-7501
▁DNA	-7502
▁你也许	-7503
▁你怎么	-7504
▁我们让	-7505
▁我并不	-7506
▁机器人	-7507
▁这其实	-7508
▁那我们	-7509
一个孩子	-7510
一系列的	-7511
从根本上	-7512
做了很多	-7513
全世界的	-7514
开始思考	-7515
拥有一个	-7516
有史以来	-7517
每个人的	-7518
组成部分	-7519
解决办法	-7520
▁可以看到	-7521
▁就是这个	-7522
▁我们把它	-7523
▁我在这里	-7524
▁这个世界	-7525
我们的孩子	-7526
ce	-7527
▁个	-7528
▁取	-7529
▁进	-7530
不懂	-7531
主人	-7532
乐高	-7533
也被	-7534
从前	-7535
信用	-7536
全是	-7537
出自	-7538
前列	-7539
前提	-7540
加快	-7541
千年	-7542
又有	-7543
可不	-7544
可视	-7545
右手	-7546
呼吁	-7547
坏的	-7548
坦桑	-7549
大胆	-7550
实地	-7551
实的	-7552
宣称	-7553
寒冷	-7554
封信	-7555
尔特	-7556
就此	-7557
年到	-7558
恰好	-7559
恶劣	-7560
手提	-7561
捕捞	-7562
政权	-7563
更深	-7564
朝着	-7565
木头	-7566
案件	-7567
注册	-7568
粪便	-7569
编织	-7570
蛛丝	-7571
蜣螂	-7572
诉讼	-7573
跟随	-7574
转折	-7575
这将	-7576
郊区	-7577
防御	-7578
非法	-7579
颠覆	-7580
骨架	-7581
Mar	-7582
▁Br	-7583
▁一条	-7584
▁也能	-7585
▁学校	-7586
▁家庭	-7587
▁我跟	-7588
▁相当	-7589
▁确保	-7590
▁等等	-7591
为你们	-7592
互动的	-7593
伯拉罕	-7594
你不会	-7595
例来说	-7596
做不到	-7597
关注的	-7598
加起来	-7599
印第安	-7600
在全球	-7601
大型的	-7602
安德特	-7603
屋子里	-7604
工程学	-7605
我曾经	-7606
是否有	-7607
有人说	-7608
此之外	-7609
演讲的	-7610
生产的	-7611
用它来	-7612
电视台	-7613
的一生	-7614
的地图	-7615
的非洲	-7616
翻译成	-7617
要知道	-7618
观察到	-7619
这东西	-7620
马拉松	-7621
2006	-7622
▁之所以	-7623
▁假如你	-7624
▁只需要	-7625
▁可以说	-7626
▁这对于	-7627
一个朋友	-7628
介绍一下	-7629
其他国家	-7630
合作伙伴	-7631
在我看来	-7632
就像这样	-7633
尼安德特	-7634
我们一直	-7635
有不同的	-7636
这样做的	-7637
里士多德	-7638
▁他们没有	-7639
▁因为如果	-7640
▁幸运的是	-7641
成千上万的	-7642
▁我认为这是	-7643
St	-7644
▁w	-7645
▁伊	-7646
▁后	-7647
▁麦	-7648
一的	-7649
一篇	-7650
一道	-7651
不必	-7652
不清	-7653
专辑	-7654
业的	-7655
中来	-7656
中被	-7657
乳腺	-7658
人会	-7659
克的	-7660
写下	-7661
制药	-7662
加油	-7663
协同	-7664
单元	-7665
原先	-7666
听觉	-7667
品种	-7668
商人	-7669
喂养	-7670
复活	-7671
奥斯	-7672
奶酪	-7673
尽力	-7674
帮你	-7675
开的	-7676
感的	-7677
我没	-7678
批准	-7679
推断	-7680
摇滚	-7681
旅途	-7682
春天	-7683
暂停	-7684
来找	-7685
核弹	-7686
根除	-7687
社群	-7688
等的	-7689
箱子	-7690
线性	-7691
船上	-7692
船只	-7693
融化	-7694
说起	-7695
诸如	-7696
账户	-7697
资讯	-7698
这对	-7699
都将	-7700
问道	-7701
马克	-7702
ent	-7703
ley	-7704
▁BF	-7705
▁不可	-7706
▁几年	-7707
▁实际	-7708
▁当地	-7709
▁提高	-7710
▁理解	-7711
▁这与	-7712
▁这只	-7713
中国人	-7714
事情的	-7715
像一个	-7716
共同点	-7717
关键的	-7718
制造商	-7719
劳动力	-7720
合作的	-7721
和其它	-7722
在哪儿	-7723
在家里	-7724
对称性	-7725
很快地	-7726
成年人	-7727
是一只	-7728
是一项	-7729
是不可	-7730
是多少	-7731
有兴趣	-7732
清楚地	-7733
的成果	-7734
的支持	-7735
的死亡	-7736
第二次	-7737
纪录片	-7738
肥胖症	-7739
能不能	-7740
脑子里	-7741
自我的	-7742
见过的	-7743
赛鲁士	-7744
达到的	-7745
进入到	-7746
黄色的	-7747
▁事实是	-7748
▁他们还	-7749
▁因为那	-7750
▁这可以	-7751
一无所知	-7752
另外一种	-7753
完全没有	-7754
工业革命	-7755
怎么做呢	-7756
意义上的	-7757
有更多的	-7758
生产总值	-7759
研究人员	-7760
给大家看	-7761
这种方法	-7762
连接起来	-7763
▁但是我想	-7764
▁大家知道	-7765
▁我们今天	-7766
▁现在我想	-7767
是很重要的	-7768
▁万	-7769
▁哇	-7770
▁哈	-7771
中学	-7772
举动	-7773
也门	-7774
亿的	-7775
从我	-7776
低估	-7777
光明	-7778
光谱	-7779
加工	-7780
加热	-7781
厨师	-7782
变形	-7783
司法	-7784
听听	-7785
在上	-7786
在说	-7787
夏威	-7788
够了	-7789
夫妇	-7790
孩童	-7791
它也	-7792
它了	-7793
就算	-7794
岗位	-7795
帽子	-7796
干的	-7797
征服	-7798
成一	-7799
我一	-7800
挪威	-7801
早已	-7802
时尚	-7803
服装	-7804
杀虫	-7805
海豹	-7806
清醒	-7807
演变	-7808
的画	-7809
确切	-7810
穿上	-7811
维尔	-7812
置于	-7813
肖像	-7814
胚胎	-7815
胳膊	-7816
英亩	-7817
蒸汽	-7818
触及	-7819
认出	-7820
论点	-7821
谁是	-7822
起到	-7823
车里	-7824
辅助	-7825
道上	-7826
那一	-7827
铁路	-7828
问了	-7829
霍华	-7830
ink	-7831
▁St	-7832
▁上帝	-7833
▁儿童	-7834
▁共同	-7835
▁刚刚	-7836
▁因而	-7837
▁数学	-7838
▁电子	-7839
▁语言	-7840
▁这点	-7841
▁针对	-7842
个世纪	-7843
个性化	-7844
亿人口	-7845
传染病	-7846
八字胡	-7847
关系的	-7848
出生的	-7849
分钟内	-7850
南极洲	-7851
参加了	-7852
变得很	-7853
名字是	-7854
和美国	-7855
回到家	-7856
夏威夷	-7857
太多了	-7858
对不对	-7859
对我的	-7860
就是个	-7861
拥有一	-7862
控制的	-7863
是他们	-7864
洗衣机	-7865
生产力	-7866
的出现	-7867
的来说	-7868
相应的	-7869
纽约客	-7870
给那些	-7871
英国的	-7872
要做的	-7873
见到了	-7874
说明了	-7875
转变为	-7876
迈克尔	-7877
这里是	-7878
食物的	-7879
4000	-7880
iPod	-7881
▁互联网	-7882
▁他认为	-7883
▁在这一	-7884
▁并且在	-7885
▁意味着	-7886
▁我们很	-7887
▁我们被	-7888
▁斯蒂芬	-7889
▁更多的	-7890
▁科学家	-7891
▁这本书	-7892
▁这都是	-7893
▁首先是	-7894
临床试验	-7895
之一就是	-7896
会怎么样	-7897
你的大脑	-7898
免疫系统	-7899
坦桑尼亚	-7900
我们还是	-7901
我意识到	-7902
我的身体	-7903
根本没有	-7904
的另一个	-7905
这个游戏	-7906
这么一个	-7907
▁你们可能	-7908
▁对于那些	-7909
▁就是我们	-7910
▁我们相信	-7911
▁我第一次	-7912
▁所以这是	-7913
其中的一个	-7914
可再生能源	-7915
我们称之为	-7916
日常生活中	-7917
是什么意思	-7918
这样的事情	-7919
问题的答案	-7920
▁Chris	-7921
很长一段时间	-7922
▁如果我们可以	-7923
"(	-7924
36	-7925
AR	-7926
CD	-7927
▁U	-7928
▁笑	-7929
不被	-7930
中期	-7931
亚当	-7932
人才	-7933
从头	-7934
会的	-7935
你从	-7936
修建	-7937
全都	-7938
剥夺	-7939
势力	-7940
十个	-7941
受损	-7942
叙述	-7943
可归	-7944
名单	-7945
后期	-7946
四年	-7947
地质	-7948
子宫	-7949
审判	-7950
密集	-7951
山顶	-7952
幼儿	-7953
录制	-7954
心态	-7955
悲惨	-7956
抗体	-7957
掉的	-7958
提前	-7959
揭示	-7960
搞笑	-7961
故意	-7962
新型	-7963
无需	-7964
星盘	-7965
是件	-7966
智商	-7967
暴露	-7968
概括	-7969
模块	-7970
歌剧	-7971
海地	-7972
消化	-7973
牧师	-7974
电磁	-7975
的脸	-7976
目光	-7977
私营	-7978
窗口	-7979
等到	-7980
纸上	-7981
绳子	-7982
老化	-7983
能为	-7984
花朵	-7985
要有	-7986
费曼	-7987
起点	-7988
返回	-7989
逐步	-7990
降到	-7991
雨水	-7992
静止	-7993
马里	-7994
高峰	-7995
int	-7996
▁60	-7997
▁一只	-7998
▁人口	-7999
▁他想	-8000
▁想像	-8001
▁我为	-8002
▁类似	-8003
▁经常	-8004
▁自我	-8005
▁至于	-8006
上看到	-8007
也知道	-8008
他们想	-8009
以前的	-8010
传播的	-8011
分之二	-8012
到那里	-8013
十年前	-8014
华尔街	-8015
和那些	-8016
因为他	-8017
在世界	-8018
在中国	-8019
实现了	-8020
崭新的	-8021
左边的	-8022
快乐的	-8023
性行为	-8024
显示出	-8025
最高的	-8026
有点儿	-8027
样东西	-8028
流行病	-8029
生存的	-8030
的教育	-8031
第一步	-8032
等同于	-8033
能找到	-8034
艺术的	-8035
花费了	-8036
詹姆斯	-8037
许许多	-8038
重点是	-8039
降低了	-8040
2001	-8041
2003	-8042
edia	-8043
▁一方面	-8044
▁他们从	-8045
▁在他们	-8046
▁它不是	-8047
▁我们说	-8048
▁我把它	-8049
▁我正在	-8050
▁我看着	-8051
▁然后是	-8052
▁甚至在	-8053
令人惊讶	-8054
众所周知	-8055
做什么呢	-8056
感到非常	-8057
现在已经	-8058
看看这个	-8059
行动起来	-8060
这个实验	-8061
这个话题	-8062
这是我的	-8063
▁但是这个	-8064
▁它是一种	-8065
▁我们将会	-8066
▁所以如果	-8067
▁现在我要	-8068
很好的例子	-8069
撒哈拉以南	-8070
▁在接下来的	-8071
是非常重要的	-8072
Ar	-8073
ev	-8074
▁卖	-8075
▁简	-8076
一月	-8077
一模	-8078
三次	-8079
不信	-8080
之地	-8081
使其	-8082
侵蚀	-8083
冥想	-8084
冰箱	-8085
切割	-8086
加坡	-8087
升级	-8088
发的	-8089
叙事	-8090
只用	-8091
可口	-8092
合同	-8093
名人	-8094
向的	-8095
吸烟	-8096
地去	-8097
地在	-8098
培育	-8099
填充	-8100
墙壁	-8101
声称	-8102
多大	-8103
大人	-8104
天啊	-8105
奇的	-8106
安置	-8107
实行	-8108
家们	-8109
对照	-8110
导演	-8111
射线	-8112
局的	-8113
幸存	-8114
废物	-8115
引进	-8116
影子	-8117
微小	-8118
心智	-8119
成效	-8120
指责	-8121
教的	-8122
斯顿	-8123
旅馆	-8124
月亮	-8125
有钱	-8126
木材	-8127
本人	-8128
榜样	-8129
水果	-8130
沙丘	-8131
洛克	-8132
活到	-8133
浓度	-8134
滥用	-8135
狮子	-8136
盈利	-8137
研制	-8138
种群	-8139
立方	-8140
管子	-8141
约束	-8142
肤色	-8143
能从	-8144
能把	-8145
重组	-8146
针头	-8147
长久	-8148
门口	-8149
飞天	-8150
ang	-8151
ore	-8152
▁为此	-8153
▁他被	-8154
▁但那	-8155
▁发生	-8156
▁宗教	-8157
▁就如	-8158
▁市场	-8159
▁有了	-8160
▁每当	-8161
▁现实	-8162
不相信	-8163
专业的	-8164
什么样	-8165
以至于	-8166
做了一	-8167
再也不	-8168
准确的	-8169
力量的	-8170
和你的	-8171
和社会	-8172
多少钱	-8173
女孩子	-8174
安全套	-8175
家可归	-8176
尤其是	-8177
得不到	-8178
我看到	-8179
战争中	-8180
拿出来	-8181
提到了	-8182
是十分	-8183
每一天	-8184
演讲者	-8185
的一年	-8186
的成功	-8187
的范围	-8188
莱斯特	-8189
表面的	-8190
认真的	-8191
霍华德	-8192
▁即使是	-8193
▁在他的	-8194
▁在很多	-8195
▁在非洲	-8196
▁女士们	-8197
▁我们和	-8198
▁我自己	-8199
▁所以它	-8200
▁有没有	-8201
▁生活在	-8202
不幸的是	-8203
佛罗里达	-8204
使用这些	-8205
做得更好	-8206
其他人的	-8207
刚刚开始	-8208
变得更好	-8209
喜欢这个	-8210
大规模的	-8211
我有一个	-8212
有了一个	-8213
的第一个	-8214
第二人生	-8215
▁他们正在	-8216
▁你知道的	-8217
▁实际上是	-8218
▁我一直在	-8219
▁我们觉得	-8220
▁还有很多	-8221
感兴趣的是	-8222
我的意思是	-8223
有趣的事情	-8224
解决的问题	-8225
▁现在让我们	-8226
▁让我们看看	-8227
▁非常感谢大家	-8228
33	-8229
BC	-8230
em	-8231
ph	-8232
qu	-8233
sh	-8234
▁乔	-8235
▁内	-8236
▁既	-8237
一路	-8238
不得	-8239
与其	-8240
中产	-8241
为一	-8242
举行	-8243
买卖	-8244
人为	-8245
仅有	-8246
介意	-8247
付钱	-8248
克隆	-8249
冰岛	-8250
出色	-8251
卓越	-8252
即时	-8253
却不	-8254
受体	-8255
哪种	-8256
善良	-8257
圆柱	-8258
在意	-8259
壁虎	-8260
它被	-8261
尔曼	-8262
市民	-8263
带走	-8264
庞大	-8265
忽然	-8266
我真	-8267
找个	-8268
授权	-8269
接到	-8270
推出	-8271
提炼	-8272
收缩	-8273
暴风	-8274
期刊	-8275
束缚	-8276
泡泡	-8277
海湾	-8278
海藻	-8279
瓶子	-8280
用品	-8281
白宫	-8282
真菌	-8283
碰巧	-8284
红杉	-8285
美味	-8286
考验	-8287
脚趾	-8288
节能	-8289
苦难	-8290
莎士	-8291
表述	-8292
要多	-8293
觅食	-8294
让她	-8295
质的	-8296
起飞	-8297
辨别	-8298
遵守	-8299
钥匙	-8300
问他	-8301
问到	-8302
马丁	-8303
马路	-8304
驱使	-8305
911	-8306
Dan	-8307
MIT	-8308
▁分享	-8309
▁刚才	-8310
▁基因	-8311
▁展示	-8312
▁思考	-8313
▁神经	-8314
▁运用	-8315
▁阿瑟	-8316
一些小	-8317
不公平	-8318
不那么	-8319
主要是	-8320
些时候	-8321
什么都	-8322
使用者	-8323
全球性	-8324
出这些	-8325
分钟的	-8326
和技术	-8327
固定的	-8328
工作时	-8329
很好地	-8330
很长的	-8331
得非常	-8332
我们得	-8333
把一个	-8334
是美国	-8335
智慧的	-8336
有关的	-8337
杀虫剂	-8338
生物体	-8339
电脑上	-8340
的基本	-8341
的成员	-8342
的状况	-8343
的表面	-8344
的风险	-8345
目的地	-8346
知道了	-8347
赢得了	-8348
这些事	-8349
这只是	-8350
这样说	-8351
这部分	-8352
飞机上	-8353
----	-8354
▁在那些	-8355
▁我们来	-8356
▁我就是	-8357
▁最大的	-8358
▁现在是	-8359
▁相当于	-8360
一点也不	-8361
人都可以	-8362
他们正在	-8363
以及其他	-8364
办公室里	-8365
工作人员	-8366
怎么可能	-8367
我们将会	-8368
所有的人	-8369
是怎样的	-8370
是错误的	-8371
百分之一	-8372
莎士比亚	-8373
▁你知道吗	-8374
▁它看起来	-8375
▁我们一直	-8376
▁我想知道	-8377
▁还有一些	-8378
在座的各位	-8379
艺术博物馆	-8380
非政府组织	-8381
令人难以置信	-8382
du	-8383
▁:	-8384
▁传	-8385
▁快	-8386
▁日	-8387
丹麦	-8388
侵入	-8389
克拉	-8390
删除	-8391
剧场	-8392
动词	-8393
千个	-8394
卡罗	-8395
同伴	-8396
和水	-8397
嘲笑	-8398
回想	-8399
图标	-8400
在地	-8401
在家	-8402
天生	-8403
姑娘	-8404
字体	-8405
容器	-8406
将在	-8407
尺度	-8408
开着	-8409
张纸	-8410
当劳	-8411
性爱	-8412
愿景	-8413
捐助	-8414
搬到	-8415
教练	-8416
歌唱	-8417
熟练	-8418
犯错	-8419
留言	-8420
的热	-8421
眼光	-8422
短短	-8423
给人	-8424
英镑	-8425
萨拉	-8426
读了	-8427
谨慎	-8428
跑到	-8429
载荷	-8430
过时	-8431
这部	-8432
重塑	-8433
金斯	-8434
锻炼	-8435
面团	-8436
高于	-8437
高潮	-8438
鲍勃	-8439
70%	-8440
ins	-8441
ric	-8442
▁他还	-8443
▁但她	-8444
▁你还	-8445
▁女孩	-8446
▁文化	-8447
▁来到	-8448
▁某些	-8449
▁游戏	-8450
▁给我	-8451
▁而后	-8452
▁要求	-8453
▁记者	-8454
会发现	-8455
先进的	-8456
可以是	-8457
和大家	-8458
当然是	-8459
感到很	-8460
慢慢的	-8461
或其他	-8462
数十亿	-8463
时间和	-8464
晶体管	-8465
暴力的	-8466
有这种	-8467
机构的	-8468
来看待	-8469
杰出的	-8470
现在在	-8471
的任务	-8472
的帮助	-8473
的最大	-8474
的模型	-8475
的知识	-8476
的说法	-8477
的选择	-8478
脑海中	-8479
脑细胞	-8480
致命的	-8481
菲利普	-8482
表现出	-8483
让我来	-8484
过一个	-8485
这是在	-8486
那么大	-8487
▁...	-8488
▁只不过	-8489
▁我去了	-8490
▁我感觉	-8491
▁我无法	-8492
▁有一种	-8493
▁许多人	-8494
▁这样做	-8495
了他们的	-8496
他们需要	-8497
作为一名	-8498
大部分人	-8499
大部分的	-8500
我们真的	-8501
我所说的	-8502
所有人的	-8503
更进一步	-8504
核磁共振	-8505
的环境中	-8506
这一问题	-8507
▁不仅如此	-8508
▁以及其他	-8509
▁但是它们	-8510
▁就是这样	-8511
▁无论如何	-8512
▁而是因为	-8513
我们有一个	-8514
我们的工作	-8515
结合在一起	-8516
ichard	-8517
ld	-8518
of	-8519
▁s	-8520
▁古	-8521
▁玩	-8522
▁盖	-8523
下角	-8524
丛林	-8525
东部	-8526
临时	-8527
主宰	-8528
之时	-8529
了两	-8530
事务	-8531
余的	-8532
侵略	-8533
倍的	-8534
停滞	-8535
元件	-8536
克利	-8537
关掉	-8538
养活	-8539
出乎	-8540
包容	-8541
占领	-8542
卡片	-8543
发了	-8544
可笑	-8545
名词	-8546
国界	-8547
多次	-8548
头骨	-8549
对他	-8550
建成	-8551
弟弟	-8552
患病	-8553
持人	-8554
指向	-8555
探究	-8556
摄入	-8557
支配	-8558
族群	-8559
最低	-8560
有种	-8561
杂耍	-8562
条约	-8563
板块	-8564
比特	-8565
水和	-8566
泄露	-8567
泥土	-8568
注视	-8569
注重	-8570
濒临	-8571
爱上	-8572
牛仔	-8573
猜猜	-8574
畏惧	-8575
的和	-8576
的我	-8577
监督	-8578
破碎	-8579
米洛	-8580
米的	-8581
组件	-8582
终点	-8583
缺失	-8584
考察	-8585
耗费	-8586
职责	-8587
肉眼	-8588
苏丹	-8589
著作	-8590
藏在	-8591
谷物	-8592
足的	-8593
路径	-8594
造影	-8595
除非	-8596
随处	-8597
首要	-8598
Ste	-8599
▁但当	-8600
▁情况	-8601
▁我真	-8602
▁支持	-8603
▁有的	-8604
▁某种	-8605
▁比较	-8606
▁环境	-8607
▁电影	-8608
▁细胞	-8609
▁讨论	-8610
▁记得	-8611
▁达到	-8612
▁那儿	-8613
一起来	-8614
不清楚	-8615
与其他	-8616
人性的	-8617
亿美金	-8618
做很多	-8619
半小时	-8620
去思考	-8621
基础上	-8622
女人的	-8623
好主意	-8624
实实在	-8625
幸福感	-8626
当中的	-8627
影响到	-8628
很不错	-8629
我们和	-8630
投入到	-8631
持续了	-8632
搞清楚	-8633
数字化	-8634
时间里	-8635
昂贵的	-8636
有助于	-8637
火星车	-8638
熟悉的	-8639
男人的	-8640
留下了	-8641
痴呆症	-8642
百万人	-8643
百分比	-8644
的数学	-8645
的来源	-8646
的理由	-8647
的确是	-8648
的社区	-8649
的科技	-8650
的联系	-8651
空气中	-8652
空间中	-8653
空间里	-8654
简直是	-8655
英尺的	-8656
都是由	-8657
陈代谢	-8658
2002	-8659
▁不知道	-8660
▁他们要	-8661
▁但这个	-8662
▁几个月	-8663
▁就是在	-8664
▁我们又	-8665
▁我们只	-8666
▁有许多	-8667
▁第二天	-8668
▁达尔文	-8669
▁这件事	-8670
▁这时候	-8671
▁那是个	-8672
一个国家	-8673
你也可以	-8674
你们可能	-8675
做这件事	-8676
到处都是	-8677
参与进来	-8678
基本上是	-8679
如果他们	-8680
如果你想	-8681
我和我的	-8682
所以我们	-8683
无神论者	-8684
某种方式	-8685
看看这些	-8686
让孩子们	-8687
▁我很高兴	-8688
▁斯蒂芬尼	-8689
▁这是非常	-8690
▁这样一来	-8691
同样的事情	-8692
▁这里有一个	-8693
IM	-8694
RI	-8695
ne	-8696
▁某	-8697
▁科	-8698
▁行	-8699
上课	-8700
主张	-8701
亨利	-8702
人脑	-8703
你说	-8704
使之	-8705
倡导	-8706
假肢	-8707
光是	-8708
公元	-8709
几次	-8710
分校	-8711
到过	-8712
削减	-8713
半球	-8714
及时	-8715
名称	-8716
哈根	-8717
哭泣	-8718
喜悦	-8719
土著	-8720
场地	-8721
埔寨	-8722
塔斯	-8723
大使	-8724
大堆	-8725
天使	-8726
天性	-8727
它将	-8728
宠物	-8729
宣言	-8730
层楼	-8731
工艺	-8732
平静	-8733
开头	-8734
思索	-8735
总体	-8736
息息	-8737
感冒	-8738
摩擦	-8739
放慢	-8740
无可	-8741
早餐	-8742
暗喻	-8743
有三	-8744
树上	-8745
模样	-8746
横跨	-8747
歌手	-8748
残忍	-8749
比起	-8750
沙发	-8751
消亡	-8752
液态	-8753
爱滋	-8754
特拉	-8755
现有	-8756
男生	-8757
病症	-8758
眼神	-8759
等级	-8760
箭头	-8761
细微	-8762
肯尼	-8763
肾脏	-8764
落在	-8765
譬如	-8766
议程	-8767
货物	-8768
过后	-8769
适宜	-8770
选票	-8771
选项	-8772
闭上	-8773
频繁	-8774
频道	-8775
题目	-8776
饮料	-8777
鸡蛋	-8778
per	-8779
▁一边	-8780
▁具体	-8781
▁加上	-8782
▁对了	-8783
▁我没	-8784
▁按照	-8785
▁电视	-8786
▁红色	-8787
一个更	-8788
不容易	-8789
不舒服	-8790
与他们	-8791
个月后	-8792
了一只	-8793
了一种	-8794
了解了	-8795
亚历山	-8796
人生的	-8797
你们在	-8798
使他们	-8799
例子中	-8800
做过的	-8801
医学院	-8802
口袋里	-8803
因此而	-8804
在其中	-8805
多样化	-8806
对不起	-8807
影响了	-8808
很高的	-8809
我们很	-8810
方法来	-8811
柬埔寨	-8812
栋建筑	-8813
棒极了	-8814
汽车的	-8815
用的是	-8816
留下的	-8817
的女孩	-8818
的宇宙	-8819
的市场	-8820
的答案	-8821
的设备	-8822
确定的	-8823
碳排放	-8824
结束时	-8825
肯定的	-8826
被发现	-8827
路易斯	-8828
那些在	-8829
非零和	-8830
领导力	-8831
颜色的	-8832
▁198	-8833
▁就如同	-8834
▁我们为	-8835
▁我总是	-8836
▁比方说	-8837
▁而是在	-8838
亚伯拉罕	-8839
令人惊叹	-8840
化石燃料	-8841
可以改变	-8842
和他们的	-8843
在座各位	-8844
完全可以	-8845
所需要的	-8846
改变我们	-8847
无家可归	-8848
无论如何	-8849
最伟大的	-8850
的一点是	-8851
这么做的	-8852
那个时候	-8853
重新定义	-8854
▁举例来说	-8855
▁人们可以	-8856
▁他们发现	-8857
▁他们只是	-8858
▁我们可能	-8859
▁我们并不	-8860
▁这个系统	-8861
▁这是我在	-8862
▁重要的是	-8863
为什么我们	-8864
是怎么回事	-8865
每个人都有	-8866
▁这是另一个	-8867
Sc	-8868
ib	-8869
if	-8870
▁X	-8871
▁七	-8872
▁学	-8873
▁建	-8874
▁成	-8875
▁查	-8876
▁至	-8877
▁远	-8878
上海	-8879
乘客	-8880
会把	-8881
伸出	-8882
住房	-8883
你把	-8884
做事	-8885
六十	-8886
冷冻	-8887
分歧	-8888
北京	-8889
厚的	-8890
原油	-8891
去掉	-8892
去除	-8893
名言	-8894
土卫	-8895
在不	-8896
在大	-8897
地址	-8898
尽快	-8899
山羊	-8900
巴克	-8901
布莱	-8902
很像	-8903
心情	-8904
感恩	-8905
我再	-8906
手册	-8907
推移	-8908
支架	-8909
收音	-8910
断了	-8911
斯加	-8912
无形	-8913
格伦	-8914
橡皮	-8915
潮流	-8916
电极	-8917
电缆	-8918
病例	-8919
病房	-8920
相遇	-8921
破解	-8922
签署	-8923
简短	-8924
管用	-8925
编写	-8926
菌丝	-8927
要好	-8928
语音	-8929
读过	-8930
质数	-8931
连结	-8932
迷人	-8933
迷因	-8934
那只	-8935
野外	-8936
长度	-8937
降临	-8938
面孔	-8939
30%	-8940
ast	-8941
ith	-8942
ose	-8943
▁个人	-8944
▁为何	-8945
▁但也	-8946
▁你所	-8947
▁你说	-8948
▁创新	-8949
▁哪些	-8950
▁完成	-8951
▁实验	-8952
▁我先	-8953
▁探索	-8954
▁而当	-8955
▁造成	-8956
一生中	-8957
不寻常	-8958
也许是	-8959
也需要	-8960
了一切	-8961
人与人	-8962
他们对	-8963
你们中	-8964
健康和	-8965
几年里	-8966
医院的	-8967
去理解	-8968
吉尼亚	-8969
和这个	-8970
圣诞节	-8971
地发现	-8972
完全不	-8973
家里的	-8974
将我们	-8975
房子里	-8976
时间来	-8977
有效率	-8978
机器的	-8979
来说是	-8980
海洋中	-8981
热衷于	-8982
照相机	-8983
生物的	-8984
电视机	-8985
的一员	-8986
的一项	-8987
的几率	-8988
的平均	-8989
的最佳	-8990
的高度	-8991
社区的	-8992
程序员	-8993
行为的	-8994
见到的	-8995
许多的	-8996
资源的	-8997
过这个	-8998
还不是	-8999
那以后	-9000
银行家	-9001
非常棒	-9002
1990	-9003
▁但其实	-9004
▁你将会	-9005
▁其他人	-9006
▁只要你	-9007
▁如果是	-9008
▁这其中	-9009
▁这可能	-9010
与此同时	-9011
人们可以	-9012
令人吃惊	-9013
你的身体	-9014
做的一切	-9015
四分之一	-9016
坐在那里	-9017
大脑皮层	-9018
实在是太	-9019
很多东西	-9020
显示的是	-9021
注意到了	-9022
艾滋病毒	-9023
这样做了	-9024
都是这样	-9025
▁他们不会	-9026
▁他们已经	-9027
▁但是这些	-9028
▁我们无法	-9029
▁我们真的	-9030
▁我的工作	-9031
▁这是关于	-9032
▁那个时候	-9033
什么都没有	-9034
我们都知道	-9035
百分之九十	-9036
至关重要的	-9037
▁我们不需要	-9038
▁我们有一个	-9039
在某种程度上	-9040
37	-9041
49	-9042
ET	-9043
▁吃	-9044
▁靠	-9045
一度	-9046
一整	-9047
一面	-9048
与否	-9049
也将	-9050
云彩	-9051
亲身	-9052
仍旧	-9053
从此	-9054
优化	-9055
何处	-9056
何种	-9057
冲动	-9058
切除	-9059
创始	-9060
前额	-9061
北方	-9062
去买	-9063
去的	-9064
同行	-9065
呆了	-9066
哥本	-9067
商场	-9068
图中	-9069
堆积	-9070
复兴	-9071
婚礼	-9072
子女	-9073
存的	-9074
它有	-9075
定了	-9076
导航	-9077
就越	-9078
局面	-9079
巴布	-9080
带入	-9081
平的	-9082
幻肢	-9083
开支	-9084
心想	-9085
情节	-9086
才华	-9087
打字	-9088
抚养	-9089
提交	-9090
收费	-9091
施加	-9092
时光	-9093
是为	-9094
更长	-9095
本科	-9096
杀了	-9097
杠杆	-9098
次数	-9099
此时	-9100
比这	-9101
泡沫	-9102
洛伊	-9103
海军	-9104
海盗	-9105
潜能	-9106
爱人	-9107
玛丽	-9108
用手	-9109
的两	-9110
的吗	-9111
禁忌	-9112
积分	-9113
突出	-9114
立体	-9115
继承	-9116
维修	-9117
耶路	-9118
致的	-9119
虐待	-9120
血压	-9121
诱惑	-9122
谈的	-9123
越好	-9124
还未	-9125
违反	-9126
造型	-9127
造的	-9128
配合	-9129
雌性	-9130
音频	-9131
领悟	-9132
飞过	-9133
香港	-9134
"——	-9135
The	-9136
aul	-9137
ess	-9138
her	-9139
hir	-9140
ott	-9141
▁三个	-9142
▁从中	-9143
▁他也	-9144
▁以上	-9145
▁充满	-9146
▁全部	-9147
▁加入	-9148
▁努力	-9149
▁最初	-9150
▁站在	-9151
▁而非	-9152
▁这真	-9153
一半的	-9154
上面的	-9155
与你们	-9156
了出来	-9157
会导致	-9158
你们会	-9159
便宜的	-9160
几乎是	-9161
区域的	-9162
印度人	-9163
名字叫	-9164
听上去	-9165
和人类	-9166
和这些	-9167
培养皿	-9168
基督徒	-9169
它不是	-9170
忽略了	-9171
感染了	-9172
慢慢地	-9173
我刚刚	-9174
我的手	-9175
有一次	-9176
朋友的	-9177
物种的	-9178
特别是	-9179
的人会	-9180
的体验	-9181
的图像	-9182
的表现	-9183
的证据	-9184
看出来	-9185
看这些	-9186
知识和	-9187
能得到	-9188
解决的	-9189
谈到的	-9190
运行的	-9191
问题了	-9192
音乐的	-9193
预测的	-9194
魔术师	-9195
2050	-9196
▁也不会	-9197
▁他们用	-9198
▁你认为	-9199
▁又或者	-9200
▁它就会	-9201
▁我应该	-9202
▁有一次	-9203
▁然后她	-9204
▁这样就	-9205
▁那里有	-9206
告诉人们	-9207
哥本哈根	-9208
我们不会	-9209
我们对于	-9210
我们有了	-9211
我的观点	-9212
把它放在	-9213
有很多人	-9214
花了很多	-9215
还有其他	-9216
▁于是他们	-9217
▁于是我就	-9218
▁他们会说	-9219
▁如果你能	-9220
▁我们是否	-9221
▁所以这些	-9222
▁毫无疑问	-9223
了一段时间	-9224
可持续发展	-9225
建立了一个	-9226
▁我们实际上	-9227
,4	-9228
la	-9229
一提	-9230
不见	-9231
不该	-9232
两只	-9233
人是	-9234
人权	-9235
付诸	-9236
们在	-9237
传承	-9238
传授	-9239
停在	-9240
全书	-9241
其为	-9242
冲浪	-9243
力学	-9244
升高	-9245
半岛	-9246
博弈	-9247
反思	-9248
反正	-9249
变量	-9250
口号	-9251
口气	-9252
呆在	-9253
圈子	-9254
在内	-9255
地里	-9256
她是	-9257
威廉	-9258
娜塔	-9259
宏观	-9260
实力	-9261
容量	-9262
岛屿	-9263
巴嫩	-9264
平时	-9265
废墟	-9266
形势	-9267
彩票	-9268
忠诚	-9269
总和	-9270
情的	-9271
我该	-9272
手法	-9273
撒冷	-9274
故障	-9275
无疑	-9276
星际	-9277
是他	-9278
曾在	-9279
曾是	-9280
林匹	-9281
栅栏	-9282
标注	-9283
毒素	-9284
海里	-9285
涵盖	-9286
深的	-9287
淹没	-9288
源头	-9289
特权	-9290
电动	-9291
画像	-9292
病原	-9293
的女	-9294
眼中	-9295
矿物	-9296
空的	-9297
章节	-9298
筹集	-9299
罢了	-9300
而然	-9301
艘船	-9302
萧条	-9303
话说	-9304
调研	-9305
走廊	-9306
起步	-9307
身于	-9308
身后	-9309
迄今	-9310
过渡	-9311
这时	-9312
首都	-9313
香蕉	-9314
魔法	-9315
","	-9316
ett	-9317
mat	-9318
sha	-9319
ton	-9320
▁21	-9321
▁动物	-9322
▁原来	-9323
▁反而	-9324
▁妇女	-9325
▁常常	-9326
▁并把	-9327
▁我刚	-9328
▁我叫	-9329
▁系统	-9330
▁讲述	-9331
一下子	-9332
一句话	-9333
一定的	-9334
万美金	-9335
之外的	-9336
仍然是	-9337
代表了	-9338
但是我	-9339
关心的	-9340
几百万	-9341
出一种	-9342
另一边	-9343
命名为	-9344
在里面	-9345
岁大的	-9346
当你在	-9347
当我在	-9348
忘记了	-9349
我们该	-9350
我怎么	-9351
我是说	-9352
找一个	-9353
持续的	-9354
摄氏度	-9355
收音机	-9356
教科书	-9357
曼德拉	-9358
有效地	-9359
来完成	-9360
民主党	-9361
沃尔玛	-9362
没关系	-9363
然后再	-9364
现在是	-9365
的一条	-9366
的发明	-9367
的可能	-9368
的挑战	-9369
的时光	-9370
的经验	-9371
的计划	-9372
监狱里	-9373
结论是	-9374
肯定会	-9375
课堂上	-9376
超越了	-9377
还是有	-9378
这样想	-9379
都已经	-9380
都非常	-9381
降落伞	-9382
飞行的	-9383
黎巴嫩	-9384
▁大量的	-9385
▁我以为	-9386
▁现在的	-9387
▁这才是	-9388
亿美元的	-9389
众人鼓掌	-9390
做点什么	-9391
像我一样	-9392
兄弟姐妹	-9393
全球化的	-9394
几乎没有	-9395
创造力的	-9396
学习如何	-9397
就像一个	-9398
已经成为	-9399
年的时候	-9400
德克萨斯	-9401
怎么回事	-9402
无人驾驶	-9403
更多的钱	-9404
耶路撒冷	-9405
被认为是	-9406
这个事实	-9407
这个观点	-9408
这么认为	-9409
这张图片	-9410
都是如此	-9411
高速公路	-9412
▁我不认为	-9413
我们所做的	-9414
我们的世界	-9415
▁但是我认为	-9416
▁你可以想象	-9417
▁因为我们的	-9418
An	-9419
CO	-9420
VD	-9421
cy	-9422
▁绝	-9423
▁黑	-9424
一副	-9425
上周	-9426
两千	-9427
义务	-9428
从不	-9429
份子	-9430
传送	-9431
使人	-9432
信赖	-9433
债务	-9434
共产	-9435
关怀	-9436
冰山	-9437
前后	-9438
化疗	-9439
占了	-9440
原谅	-9441
友好	-9442
变了	-9443
后院	-9444
哮喘	-9445
在她	-9446
坐标	-9447
好人	-9448
孙子	-9449
孤立	-9450
少了	-9451
尖叫	-9452
展望	-9453
属性	-9454
微观	-9455
懂的	-9456
打个	-9457
打败	-9458
承载	-9459
担任	-9460
拍了	-9461
拿来	-9462
捕获	-9463
排名	-9464
推销	-9465
揭露	-9466
明亮	-9467
是说	-9468
有力	-9469
机率	-9470
条例	-9471
杰出	-9472
标本	-9473
样品	-9474
核聚	-9475
案子	-9476
比方	-9477
比率	-9478
火灾	-9479
版的	-9480
现金	-9481
电图	-9482
电梯	-9483
画出	-9484
疑惑	-9485
病情	-9486
直立	-9487
硫化	-9488
税收	-9489
空调	-9490
端的	-9491
紧紧	-9492
纳粹	-9493
罗德	-9494
群落	-9495
而出	-9496
职位	-9497
腿上	-9498
艾米	-9499
芬兰	-9500
花上	-9501
葬礼	-9502
蜡烛	-9503
蜻蜓	-9504
被迫	-9505
触动	-9506
讲到	-9507
论坛	-9508
试者	-9509
说得	-9510
贯穿	-9511
走神	-9512
超出	-9513
这三	-9514
逮捕	-9515
钱的	-9516
陨石	-9517
隐喻	-9518
15%	-9519
Wik	-9520
ike	-9521
▁40	-9522
▁不知	-9523
▁仿佛	-9524
▁传统	-9525
▁准备	-9526
▁右边	-9527
▁听到	-9528
▁在它	-9529
▁多么	-9530
▁战争	-9531
▁提出	-9532
▁收集	-9533
▁让他	-9534
▁证明	-9535
▁还能	-9536
▁这让	-9537
三角形	-9538
上来说	-9539
不允许	-9540
不同于	-9541
与他人	-9542
也开始	-9543
了一项	-9544
五分钟	-9545
人民的	-9546
他们要	-9547
会让你	-9548
内部的	-9549
决定要	-9550
创造者	-9551
卡路里	-9552
去寻找	-9553
另一只	-9554
喜爱的	-9555
因为你	-9556
在现实	-9557
在这种	-9558
在那些	-9559
基因的	-9560
太阳的	-9561
好朋友	-9562
安全带	-9563
家庭的	-9564
将这个	-9565
带到了	-9566
年以来	-9567
幼儿园	-9568
广泛的	-9569
微不足	-9570
提高了	-9571
有一半	-9572
有三个	-9573
未知的	-9574
来解决	-9575
每一位	-9576
民主的	-9577
注射器	-9578
活动的	-9579
的关键	-9580
的比例	-9581
直升机	-9582
真是太	-9583
知识的	-9584
禽流感	-9585
移动的	-9586
第一位	-9587
能力的	-9588
脆弱的	-9589
葡萄牙	-9590
葡萄酒	-9591
被告知	-9592
谈的是	-9593
跟大家	-9594
这么大	-9595
遥远的	-9596
那些有	-9597
都需要	-9598
非营利	-9599
音乐厅	-9600
飞天车	-9601
高效的	-9602
1950	-9603
John	-9604
▁人们会	-9605
▁以一种	-9606
▁但不是	-9607
▁即使在	-9608
▁在未来	-9609
▁安德森	-9610
▁差不多	-9611
▁每一次	-9612
▁而我的	-9613
一个关于	-9614
互联网上	-9615
人工智能	-9616
你可以在	-9617
几个例子	-9618
千万美元	-9619
变得非常	-9620
可以说是	-9621
可持续性	-9622
如果你们	-9623
安全座椅	-9624
很有趣的	-9625
思维方式	-9626
把他们的	-9627
某个地方	-9628
百分之十	-9629
经济发展	-9630
角度来看	-9631
诺贝尔奖	-9632
这并不是	-9633
这样的事	-9634
都有一个	-9635
▁他们开始	-9636
▁他们都是	-9637
▁如果你是	-9638
▁而这就是	-9639
▁这个想法	-9640
▁这个过程	-9641
▁除此之外	-9642
他们的生活	-9643
精神分裂症	-9644
▁这也是为什么	-9645
1/	-9646
iv	-9647
▁p	-9648
▁乌	-9649
▁吉	-9650
▁往	-9651
▁流	-9652
▁维	-9653
▁读	-9654
▁风	-9655
一番	-9656
不敢	-9657
举起	-9658
交往	-9659
享有	-9660
亲近	-9661
伙计	-9662
估算	-9663
作了	-9664
便利	-9665
做为	-9666
充斥	-9667
全新	-9668
关乎	-9669
几种	-9670
半个	-9671
单单	-9672
南方	-9673
卧室	-9674
压迫	-9675
双眼	-9676
发觉	-9677
古代	-9678
可用	-9679
同学	-9680
和大	-9681
大幅	-9682
失调	-9683
小了	-9684
少于	-9685
巧合	-9686
巴士	-9687
市的	-9688
布尔	-9689
弹性	-9690
很低	-9691
得的	-9692
急剧	-9693
怪兽	-9694
总理	-9695
打赌	-9696
抗争	-9697
拉登	-9698
振动	-9699
探寻	-9700
撰写	-9701
救助	-9702
救护	-9703
散步	-9704
无助	-9705
早就	-9706
普林	-9707
最爱	-9708
月的	-9709
树枝	-9710
格雷	-9711
沉迷	-9712
注定	-9713
涌现	-9714
漏洞	-9715
演说	-9716
王子	-9717
甘地	-9718
生俱	-9719
用处	-9720
界线	-9721
登山	-9722
目击	-9723
眼球	-9724
着它	-9725
砍伐	-9726
精细	-9727
罪恶	-9728
而被	-9729
肥皂	-9730
自愿	-9731
船长	-9732
色情	-9733
范畴	-9734
获益	-9735
萝卜	-9736
言语	-9737
谈及	-9738
路口	-9739
转到	-9740
辉煌	-9741
遗忘	-9742
锁定	-9743
问过	-9744
间接	-9745
领先	-9746
马尔	-9747
鹅肝	-9748
75%	-9749
ach	-9750
bed	-9751
▁一件	-9752
▁一年	-9753
▁减少	-9754
▁别人	-9755
▁多数	-9756
▁带来	-9757
▁当她	-9758
▁恐惧	-9759
▁我再	-9760
▁手机	-9761
▁打开	-9762
▁找出	-9763
▁日本	-9764
▁昨天	-9765
▁正好	-9766
▁等待	-9767
▁而他	-9768
▁说明	-9769
▁这不	-9770
▁这可	-9771
▁这场	-9772
一大堆	-9773
不明白	-9774
不相同	-9775
也可能	-9776
了一位	-9777
了整个	-9778
交流的	-9779
他们将	-9780
件事是	-9781
任何的	-9782
做实验	-9783
去研究	-9784
参与了	-9785
发生时	-9786
只不过	-9787
在某些	-9788
对你的	-9789
就是要	-9790
建造的	-9791
很复杂	-9792
很好奇	-9793
很快的	-9794
我们最	-9795
所学校	-9796
扫描仪	-9797
拿到了	-9798
数以千	-9799
显示的	-9800
最早的	-9801
有多么	-9802
某些人	-9803
正是我	-9804
母亲的	-9805
永恒的	-9806
演讲中	-9807
潜水器	-9808
的决定	-9809
的标准	-9810
的精神	-9811
目睹了	-9812
看一看	-9813
祖父母	-9814
立学校	-9815
结构的	-9816
绝对的	-9817
脑海里	-9818
被认为	-9819
觉得很	-9820
觉得这	-9821
设计和	-9822
诞生了	-9823
身体里	-9824
转换成	-9825
连接到	-9826
透明的	-9827
那是个	-9828
▁从这个	-9829
▁和一些	-9830
▁在你的	-9831
▁学生们	-9832
▁它是由	-9833
▁当这些	-9834
▁我个人	-9835
▁我之前	-9836
▁是为了	-9837
▁是非常	-9838
▁然后用	-9839
▁美国人	-9840
▁这使得	-9841
一些关于	-9842
一些问题	-9843
一张照片	-9844
不好意思	-9845
也是一样	-9846
也是这样	-9847
了不起的	-9848
令人震惊	-9849
你们中的	-9850
你能看到	-9851
展示的是	-9852
工作的人	-9853
并非如此	-9854
很久以前	-9855
拉丁美洲	-9856
是如此的	-9857
现实世界	-9858
的时候了	-9859
这种现象	-9860
这项工作	-9861
问题就是	-9862
需要的是	-9863
10000	-9864
erson	-9865
▁你可以用	-9866
▁因为人们	-9867
▁好消息是	-9868
▁并且我们	-9869
▁我和我的	-9870
▁有多少人	-9871
▁没有什么	-9872
▁然后我就	-9873
尼安德特人	-9874
艾滋病病毒	-9875
ipedia	-9876
▁你可以看见	-9877
▁我们不得不	-9878
是什么样子的	-9879
34	-9880
ex	-9881
ux	-9882
▁强	-9883
▁路	-9884
▁车	-9885
▁顺	-9886
一首	-9887
为他	-9888
乘以	-9889
事先	-9890
产权	-9891
亿年	-9892
他也	-9893
代之	-9894
伯格	-9895
偏远	-9896
做饭	-9897
偷偷	-9898
充电	-9899
八个	-9900
关爱	-9901
写信	-9902
几率	-9903
卡拉	-9904
原住	-9905
友善	-9906
吃掉	-9907
吉他	-9908
听了	-9909
啦啦	-9910
在场	-9911
地毯	-9912
地狱	-9913
壮大	-9914
天主	-9915
天线	-9916
奥克	-9917
她会	-9918
平凡	-9919
并未	-9920
开创	-9921
归功	-9922
彗星	-9923
抵达	-9924
接种	-9925
无前	-9926
曾说	-9927
有谁	-9928
朝鲜	-9929
木偶	-9930
木星	-9931
杰明	-9932
标识	-9933
死后	-9934
气象	-9935
流通	-9936
浮现	-9937
海上	-9938
渗透	-9939
渴求	-9940
源自	-9941
滚动	-9942
潜艇	-9943
灰色	-9944
生殖	-9945
电台	-9946
画家	-9947
画廊	-9948
的三	-9949
看做	-9950
破产	-9951
空洞	-9952
突触	-9953
繁衍	-9954
纸张	-9955
绳索	-9956
群众	-9957
翻转	-9958
老虎	-9959
耳蜗	-9960
胡子	-9961
自从	-9962
艰苦	-9963
蚁穴	-9964
行政	-9965
起床	-9966
边上	-9967
迁徙	-9968
这事	-9969
里亚	-9970
里程	-9971
限于	-9972
骨髓	-9973
鸽子	-9974
Rob	-9975
ica	-9976
▁Ar	-9977
▁一名	-9978
▁一点	-9979
▁保护	-9980
▁保罗	-9981
▁其它	-9982
▁哪里	-9983
▁存在	-9984
▁应用	-9985
▁成功	-9986
▁我与	-9987
▁我都	-9988
▁晚上	-9989
▁植物	-9990
▁究竟	-9991
▁给予	-9992
▁绿色	-9993
▁计算	-9994
▁逐渐	-9995
▁鼓励	-9996
▁鼓掌	-9997
一个很	-9998
一直到	-9999
不了解	-10000
不在乎	-10001
了一份	-10002
了一张	-10003
亚特兰	-10004
仍然在	-10005
从我的	-10006
低收入	-10007
你们所	-10008
你看到	-10009
化学家	-10010
去那里	-10011
多年的	-10012
奥林匹	-10013
娜塔莎	-10014
实验中	-10015
当人们	-10016
影响的	-10017
我们再	-10018
我总是	-10019
我想起	-10020
我感觉	-10021
我无法	-10022
文化中	-10023
时间内	-10024
有人在	-10025
有更多	-10026
来解释	-10027
核聚变	-10028
模式的	-10029
欧洲的	-10030
海洋的	-10031
熟知的	-10032
爱好者	-10033
生产出	-10034
的理念	-10035
的自由	-10036
看电视	-10037
硫化氢	-10038
等一下	-10039
紫外线	-10040
经济体	-10041
转化成	-10042
还要多	-10043
这一天	-10044
这个是	-10045
银行的	-10046
闻起来	-10047
附近的	-10048
际关系	-10049
▁Ste	-10050
▁一旦你	-10051
▁他就是	-10052
▁你们的	-10053
▁你是否	-10054
▁可以在	-10055
▁当它们	-10056
▁我将要	-10057
▁我这里	-10058
▁所谓的	-10059
▁把他们	-10060
▁然后又	-10061
▁这是他	-10062
▁这是由	-10063
▁那是我	-10064
▁都可以	-10065
了自己的	-10066
他们就会	-10067
关注的是	-10068
其中之一	-10069
到我们的	-10070
在自己的	-10071
大家可以	-10072
恐怖袭击	-10073
恰恰相反	-10074
我们这个	-10075
我的父亲	-10076
操作系统	-10077
有很大的	-10078
正在进行	-10079
的方式是	-10080
的美国人	-10081
神经科学	-10082
艺术家们	-10083
这个地方	-10084
这个样子	-10085
这些国家	-10086
这些故事	-10087
▁不管怎样	-10088
▁但问题是	-10089
▁尤其是在	-10090
▁我之所以	-10091
▁我们不是	-10092
▁所以我的	-10093
▁接下来的	-10094
▁这是他们	-10095
▁这种情况	-10096
▁这里有个	-10097
变成了一个	-10098
大家都知道	-10099
开始的时候	-10100
我们所说的	-10101
我们的身体	-10102
改变我们的	-10103
▁我们发现了	-10104
成千上万的人	-10105
ID	-10106
ky	-10107
ny	-10108
▁另	-10109
▁干	-10110
▁深	-10111
▁翻	-10112
▁解	-10113
▁谢	-10114
▁达	-10115
▁里	-10116
一人	-10117
一会	-10118
一架	-10119
下次	-10120
世贸	-10121
两点	-10122
了你	-10123
仁爱	-10124
伦斯	-10125
伴随	-10126
但却	-10127
假的	-10128
兔子	-10129
减速	-10130
分化	-10131
制成	-10132
医保	-10133
匿名	-10134
南亚	-10135
历程	-10136
双腿	-10137
合并	-10138
复苏	-10139
大于	-10140
大师	-10141
头条	-10142
实例	-10143
容纳	-10144
尔顿	-10145
尽的	-10146
常识	-10147
废料	-10148
度假	-10149
必定	-10150
性感	-10151
恶魔	-10152
悬浮	-10153
我刚	-10154
所为	-10155
把戏	-10156
拇指	-10157
持久	-10158
指望	-10159
提起	-10160
收购	-10161
放映	-10162
旋律	-10163
时不	-10164
最难	-10165
杀人	-10166
构思	-10167
桌面	-10168
棘手	-10169
比你	-10170
沙子	-10171
沙滩	-10172
泰国	-10173
测验	-10174
浮游	-10175
游客	-10176
物件	-10177
特效	-10178
生来	-10179
用过	-10180
电网	-10181
男女	-10182
神的	-10183
稍后	-10184
空军	-10185
章鱼	-10186
笛子	-10187
第五	-10188
类比	-10189
索沃	-10190
胎儿	-10191
能被	-10192
花生	-10193
衰退	-10194
视线	-10195
语的	-10196
误导	-10197
贪婪	-10198
迎接	-10199
进口	-10200
透了	-10201
配方	-10202
降雨	-10203
零售	-10204
鳄鱼	-10205
鸟儿	-10206
"--	-10207
DVD	-10208
erg	-10209
ock	-10210
pha	-10211
ram	-10212
▁不然	-10213
▁他对	-10214
▁值得	-10215
▁农业	-10216
▁历史	-10217
▁我正	-10218
▁数字	-10219
▁比尔	-10220
▁治疗	-10221
▁穿过	-10222
▁蜜蜂	-10223
▁设想	-10224
▁请看	-10225
▁这类	-10226
▁道德	-10227
▁部分	-10228
▁采用	-10229
为大家	-10230
为这个	-10231
二十年	-10232
什么事	-10233
会议上	-10234
但他们	-10235
作曲家	-10236
作用的	-10237
你如何	-10238
你所见	-10239
原住民	-10240
去世了	-10241
和朋友	-10242
哪一个	-10243
学院的	-10244
宇航员	-10245
小提琴	-10246
居住的	-10247
市场上	-10248
应该被	-10249
弦理论	-10250
归功于	-10251
想法和	-10252
我妈妈	-10253
捕食者	-10254
描述的	-10255
新加坡	-10256
无前例	-10257
普遍的	-10258
更重要	-10259
来说明	-10260
标准的	-10261
生态圈	-10262
用这种	-10263
的人说	-10264
的定义	-10265
的成分	-10266
着我的	-10267
综合症	-10268
肯尼迪	-10269
能量的	-10270
英尺高	-10271
让你的	-10272
还是个	-10273
通常是	-10274
长期的	-10275
问题上	-10276
难民营	-10277
非暴力	-10278
麦当劳	-10279
arry	-10280
▁也许是	-10281
▁同样地	-10282
▁在印度	-10283
▁存在于	-10284
▁对不起	-10285
▁应该是	-10286
▁当你在	-10287
▁意思是	-10288
▁我试着	-10289
▁有点像	-10290
▁而且是	-10291
▁联合国	-10292
▁谢谢你	-10293
一直以来	-10294
也是一个	-10295
他们想要	-10296
会有什么	-10297
公共空间	-10298
和其他人	-10299
在地球上	-10300
它看起来	-10301
布鲁克林	-10302
感兴趣的	-10303
我一直在	-10304
我的故事	-10305
整个过程	-10306
有意思的	-10307
有自己的	-10308
百科全书	-10309
知道这个	-10310
研究中心	-10311
给孩子们	-10312
聪明的人	-10313
西方国家	-10314
认为自己	-10315
这方面的	-10316
这种感觉	-10317
▁他们希望	-10318
▁他们甚至	-10319
▁他们觉得	-10320
▁你不需要	-10321
▁你只需要	-10322
▁因为它是	-10323
▁如果有人	-10324
▁对于我们	-10325
▁我们确实	-10326
▁我们还有	-10327
▁我们通常	-10328
▁我们都是	-10329
▁最后一个	-10330
▁这是一项	-10331
一次又一次	-10332
之间的联系	-10333
亚里士多德	-10334
我们在这里	-10335
▁但如果我们	-10336
▁我希望你们	-10337
▁我想说的是	-10338
▁所以这就是	-10339
世界上最大的	-10340
的事情发生了	-10341
55	-10342
72	-10343
MB	-10344
▁信	-10345
▁回	-10346
▁富	-10347
▁算	-10348
▁装	-10349
一封	-10350
三百	-10351
上是	-10352
不曾	-10353
不算	-10354
两百	-10355
主角	-10356
乌贼	-10357
乐谱	-10358
优点	-10359
伙子	-10360
但这	-10361
侵犯	-10362
便会	-10363
偏离	-10364
停下	-10365
养蜂	-10366
写到	-10367
写过	-10368
利比	-10369
华丽	-10370
卖给	-10371
卡因	-10372
厌倦	-10373
发病	-10374
发音	-10375
召集	-10376
吃一	-10377
四天	-10378
土豆	-10379
在外	-10380
境地	-10381
增大	-10382
奇特	-10383
奖学	-10384
官僚	-10385
宝石	-10386
实说	-10387
客观	-10388
宣扬	-10389
密的	-10390
小小	-10391
就更	-10392
山上	-10393
崇拜	-10394
已被	-10395
巴尔	-10396
幅画	-10397
平行	-10398
得通	-10399
扔掉	-10400
托邦	-10401
报酬	-10402
持有	-10403
捐款	-10404
换个	-10405
无意	-10406
日期	-10407
有幸	-10408
校长	-10409
每人	-10410
法规	-10411
派的	-10412
流量	-10413
海拔	-10414
漫步	-10415
照亮	-10416
爬上	-10417
牛肉	-10418
牡蛎	-10419
环形	-10420
生之	-10421
生机	-10422
用电	-10423
电击	-10424
电源	-10425
疫情	-10426
的了	-10427
的信	-10428
的内	-10429
皇家	-10430
直观	-10431
着了	-10432
着眼	-10433
磁铁	-10434
筹款	-10435
素材	-10436
纳税	-10437
者是	-10438
背上	-10439
胞胎	-10440
脚步	-10441
芬奇	-10442
行程	-10443
行道	-10444
要说	-10445
触碰	-10446
赞同	-10447
轻轻	-10448
迷惑	-10449
钢铁	-10450
长得	-10451
长远	-10452
队员	-10453
隧道	-10454
雕刻	-10455
霍乱	-10456
面向	-10457
顶尖	-10458
预先	-10459
颤抖	-10460
魔鬼	-10461
350	-10462
amp	-10463
iel	-10464
rat	-10465
ust	-10466
▁Be	-10467
▁一场	-10468
▁亚当	-10469
▁但从	-10470
▁你从	-10471
▁你把	-10472
▁关注	-10473
▁可惜	-10474
▁哪怕	-10475
▁并将	-10476
▁我向	-10477
▁手术	-10478
▁最好	-10479
▁某个	-10480
▁沿着	-10481
▁测试	-10482
▁现今	-10483
▁组织	-10484
▁肿瘤	-10485
▁谷歌	-10486
一个在	-10487
一个有	-10488
一回事	-10489
一方面	-10490
下来了	-10491
二十五	-10492
人一样	-10493
人都会	-10494
他正在	-10495
以外的	-10496
体现在	-10497
候选人	-10498
关键是	-10499
利用它	-10500
到这些	-10501
即使是	-10502
和一些	-10503
地方的	-10504
基督教	-10505
大约是	-10506
如何去	-10507
它已经	-10508
对人类	-10509
对那些	-10510
就会有	-10511
尼西亚	-10512
弗兰克	-10513
很显然	-10514
才开始	-10515
打开了	-10516
新西兰	-10517
时期的	-10518
是一场	-10519
是否会	-10520
更像是	-10521
有机体	-10522
有超过	-10523
有这个	-10524
游戏中	-10525
现实的	-10526
理论上	-10527
生命体	-10528
用我的	-10529
的一家	-10530
的动作	-10531
的危险	-10532
的消息	-10533
的观众	-10534
的讨论	-10535
的身体	-10536
的边缘	-10537
看见的	-10538
真正想	-10539
研究员	-10540
科学和	-10541
管理员	-10542
而代之	-10543
自然地	-10544
被我们	-10545
讨论的	-10546
让别人	-10547
负责任	-10548
过来了	-10549
过来的	-10550
这张图	-10551
那一刻	-10552
那样做	-10553
黑暗中	-10554
▁And	-10555
▁他们所	-10556
▁你甚至	-10557
▁刚开始	-10558
▁原因是	-10559
▁大自然	-10560
▁如果在	-10561
▁我打算	-10562
▁我最近	-10563
▁把这些	-10564
▁给我们	-10565
▁艾滋病	-10566
▁这说明	-10567
世界银行	-10568
也不知道	-10569
他们认为	-10570
其他东西	-10571
加州大学	-10572
发现这些	-10573
史无前例	-10574
商业模式	-10575
我们怎么	-10576
新陈代谢	-10577
日常生活	-10578
的一个小	-10579
看到一些	-10580
知道这些	-10581
神经细胞	-10582
自然而然	-10583
许许多多	-10584
这些技术	-10585
那么多的	-10586
▁但我觉得	-10587
▁同时也是	-10588
▁因为现在	-10589
▁因此他们	-10590
▁如果你把	-10591
▁尽管如此	-10592
▁我们不会	-10593
▁我们喜欢	-10594
▁我并没有	-10595
▁科学家们	-10596
▁而我们的	-10597
▁这也就是	-10598
与众不同的	-10599
严重的问题	-10600
人类历史上	-10601
他们的故事	-10602
和大家分享	-10603
所有的东西	-10604
的一小部分	-10605
结束的时候	-10606
老年痴呆症	-10607
▁大家都知道	-10608
▁我们来看看	-10609
46	-10610
Ge	-10611
af	-10612
ew	-10613
li	-10614
▁圣	-10615
▁帕	-10616
▁整	-10617
▁脑	-10618
▁迪	-10619
一日	-10620
不变	-10621
不愿	-10622
严峻	-10623
中部	-10624
从小	-10625
会去	-10626
会更	-10627
传到	-10628
位数	-10629
佛教	-10630
养育	-10631
冷静	-10632
列举	-10633
制片	-10634
副本	-10635
助手	-10636
即便	-10637
却在	-10638
去想	-10639
发动	-10640
取消	-10641
叶子	-10642
同等	-10643
哪怕	-10644
嘴里	-10645
器械	-10646
回馈	-10647
圆圈	-10648
境界	-10649
多或	-10650
大事	-10651
天体	-10652
太大	-10653
奉献	-10654
女子	-10655
好象	-10656
孕育	-10657
害虫	-10658
尼古	-10659
市郊	-10660
带动	-10661
店里	-10662
开口	-10663
开拓	-10664
强壮	-10665
待了	-10666
很短	-10667
总共	-10668
恰当	-10669
意想	-10670
慢性	-10671
户外	-10672
手势	-10673
拥挤	-10674
排队	-10675
攀登	-10676
斯基	-10677
时会	-10678
智利	-10679
暴乱	-10680
有利	-10681
机动	-10682
村民	-10683
核电	-10684
次方	-10685
汤姆	-10686
活在	-10687
流体	-10688
浓缩	-10689
滑稽	-10690
滑翔	-10691
片断	-10692
片的	-10693
狩猎	-10694
猪的	-10695
球场	-10696
甚么	-10697
留给	-10698
癫痫	-10699
盲目	-10700
精准	-10701
纹身	-10702
纺织	-10703
绑架	-10704
而又	-10705
耳机	-10706
胸部	-10707
致癌	-10708
藏着	-10709
虔诚	-10710
被动	-10711
西雅	-10712
要从	-10713
要问	-10714
诺顿	-10715
资格	-10716
赞美	-10717
轻微	-10718
输送	-10719
运送	-10720
选手	-10721
通风	-10722
那张	-10723
配偶	-10724
量化	-10725
铅笔	-10726
随身	-10727
音响	-10728
顶峰	-10729
颠倒	-10730
黄蜂	-10731
1.5	-10732
Car	-10733
ash	-10734
est	-10735
ole	-10736
▁与其	-10737
▁从我	-10738
▁受到	-10739
▁处理	-10740
▁实现	-10741
▁是有	-10742
▁是被	-10743
▁父母	-10744
▁癌症	-10745
▁而不	-10746
▁表明	-10747
▁譬如	-10748
▁这段	-10749
▁这比	-10750
不停的	-10751
不能再	-10752
中找到	-10753
也是个	-10754
他是个	-10755
以一个	-10756
低成本	-10757
保护的	-10758
准备的	-10759
创造性	-10760
制成的	-10761
北极熊	-10762
去做的	-10763
去帮助	-10764
受教育	-10765
在网上	-10766
它就会	-10767
对它们	-10768
已知的	-10769
开始吧	-10770
引起的	-10771
得出的	-10772
快速地	-10773
怎么了	-10774
我并不	-10775
战争的	-10776
把他的	-10777
把那些	-10778
是不够	-10779
最棒的	-10780
有任何	-10781
朋友和	-10782
来谈谈	-10783
案例中	-10784
清晰的	-10785
的做法	-10786
的增长	-10787
的收入	-10788
的网站	-10789
着这个	-10790
神圣的	-10791
突然间	-10792
简短的	-10793
老年人	-10794
说我们	-10795
转变成	-10796
运用到	-10797
还不错	-10798
这三个	-10799
这么想	-10800
进行着	-10801
遗传学	-10802
问题时	-10803
领域中	-10804
驱动的	-10805
tube	-10806
▁但对于	-10807
▁但是当	-10808
▁取决于	-10809
▁史蒂夫	-10810
▁和那些	-10811
▁在某些	-10812
▁它只是	-10813
▁它就是	-10814
▁来帮助	-10815
▁而且这	-10816
▁这将会	-10817
一种方法	-10818
一起合作	-10819
不同的人	-10820
不是为了	-10821
个不同的	-10822
之处在于	-10823
你可能会	-10824
做到这点	-10825
到了一个	-10826
加拿大的	-10827
可以成为	-10828
国家公园	-10829
在一起的	-10830
在他们的	-10831
大多数的	-10832
天文学家	-10833
实验室的	-10834
尽可能的	-10835
息息相关	-10836
新的东西	-10837
给你们讲	-10838
考虑一下	-10839
致命武器	-10840
让我感到	-10841
那是一个	-10842
都不知道	-10843
非常大的	-10844
▁2000	-10845
▁为什么呢	-10846
▁他是一个	-10847
▁告诉我们	-10848
▁大家可以	-10849
▁如果你的	-10850
▁当然还有	-10851
▁我的父亲	-10852
▁然后我说	-10853
▁还有其他	-10854
不可避免的	-10855
发生的一切	-10856
工作的时候	-10857
我们不知道	-10858
的生活方式	-10859
给你们展示	-10860
解决问题的	-10861
▁对于我来说	-10862
▁我们可以在	-10863
▁所以我决定	-10864
Wikipedia	-10865
".	-10866
,2	-10867
,5	-10868
3.	-10869
oc	-10870
▁f	-10871
▁g	-10872
▁坐	-10873
▁库	-10874
▁点	-10875
」。	-10876
一共	-10877
一艘	-10878
七十	-10879
上次	-10880
世了	-10881
世代	-10882
东京	-10883
中风	-10884
主体	-10885
人力	-10886
仍有	-10887
伤口	-10888
伤心	-10889
住宅	-10890
体型	-10891
促成	-10892
修理	-10893
克莱	-10894
入口	-10895
养分	-10896
冷战	-10897
减缓	-10898
切尔	-10899
切片	-10900
匈牙	-10901
匹马	-10902
古巴	-10903
只在	-10904
合唱	-10905
吓人	-10906
国务	-10907
地是	-10908
声的	-10909
处方	-10910
多于	-10911
大奖	-10912
大笑	-10913
天后	-10914
子弹	-10915
学了	-10916
家中	-10917
将被	-10918
州立	-10919
干燥	-10920
座位	-10921
往上	-10922
往前	-10923
性交	-10924
怪异	-10925
想把	-10926
手表	-10927
打扰	-10928
抬头	-10929
授予	-10930
握手	-10931
旁观	-10932
无视	-10933
日益	-10934
是啊	-10935
更能	-10936
服从	-10937
杯子	-10938
林冠	-10939
某处	-10940
样式	-10941
毒性	-10942
活的	-10943
流入	-10944
流失	-10945
流浪	-10946
流的	-10947
烦恼	-10948
热门	-10949
爬行	-10950
球员	-10951
痢疾	-10952
登陆	-10953
监禁	-10954
看它	-10955
看清	-10956
眼的	-10957
石器	-10958
磅的	-10959
站着	-10960
粉丝	-10961
老了	-10962
而去	-10963
能有	-10964
自发	-10965
范例	-10966
菜单	-10967
薄的	-10968
虚构	-10969
要的	-10970
见解	-10971
见识	-10972
记载	-10973
访谈	-10974
说谎	-10975
财务	-10976
走来	-10977
起初	-10978
起诉	-10979
边境	-10980
近期	-10981
迷失	-10982
追逐	-10983
送上	-10984
那年	-10985
酒精	-10986
酵母	-10987
陈述	-10988
非同	-10989
饲养	-10990
魔力	-10991
CEO	-10992
LED	-10993
mer	-10994
ony	-10995
osh	-10996
our	-10997
▁Ch	-10998
▁世上	-10999
▁仔细	-11000
▁他用	-11001
▁会在	-11002
▁喜欢	-11003
▁安全	-11004
▁对吗	-11005
▁开发	-11006
▁很少	-11007
▁我更	-11008
▁是对	-11009
▁有一	-11010
▁火星	-11011
▁纽约	-11012
▁警察	-11013
▁都被	-11014
三十年	-11015
不怎么	-11016
不能用	-11017
与生俱	-11018
习惯于	-11019
交响乐	-11020
亿年前	-11021
从没有	-11022
从这些	-11023
付出的	-11024
以下的	-11025
会出现	-11026
会变成	-11027
会改变	-11028
体内的	-11029
你能够	-11030
使它们	-11031
供应链	-11032
允许我	-11033
克林顿	-11034
分子的	-11035
制作了	-11036
功能的	-11037
去看看	-11038
参与的	-11039
另一半	-11040
启动了	-11041
告诉过	-11042
和政治	-11043
土地的	-11044
在学校	-11045
多利亚	-11046
多大的	-11047
奖学金	-11048
姆斯特	-11049
媒体的	-11050
宝贵的	-11051
实在太	-11052
导致的	-11053
将成为	-11054
小男孩	-11055
尽全力	-11056
局限于	-11057
层次的	-11058
年以前	-11059
年以后	-11060
幸运的	-11061
当地人	-11062
很快就	-11063
我个人	-11064
我就能	-11065
我所说	-11066
房子的	-11067
文明的	-11068
是基于	-11069
是时候	-11070
显著的	-11071
暗能量	-11072
有价值	-11073
有几个	-11074
本身的	-11075
来结束	-11076
极好的	-11077
水平的	-11078
污染物	-11079
没那么	-11080
流行的	-11081
浏览器	-11082
游戏的	-11083
点什么	-11084
电视上	-11085
的人在	-11086
的医生	-11087
的机构	-11088
的权利	-11089
的治疗	-11090
的药物	-11091
的费用	-11092
研究院	-11093
社区里	-11094
第一批	-11095
管理局	-11096
给你看	-11097
绝对是	-11098
胡萝卜	-11099
血管增	-11100
行得通	-11101
谈论的	-11102
贫民区	-11103
这一步	-11104
连接体	-11105
迷人的	-11106
通过了	-11107
那么做	-11108
那时起	-11109
音乐会	-11110
饮用水	-11111
100%	-11112
6000	-11113
▁一些人	-11114
▁他当时	-11115
▁但是她	-11116
▁在全球	-11117
▁在所有	-11118
▁在整个	-11119
▁在那儿	-11120
▁我们与	-11121
▁我母亲	-11122
▁我突然	-11123
▁最好的	-11124
▁本质上	-11125
▁特斯拉	-11126
▁而这种	-11127
▁这是很	-11128
▁这需要	-11129
一点都不	-11130
不同寻常	-11131
不用担心	-11132
为什么呢	-11133
令人惊奇	-11134
作为一种	-11135
你的孩子	-11136
你的眼睛	-11137
和我一起	-11138
因为这个	-11139
国家地理	-11140
如果没有	-11141
宇宙中的	-11142
对他们的	-11143
对自己说	-11144
我们做的	-11145
我们自身	-11146
波斯尼亚	-11147
流感病毒	-11148
电子设备	-11149
社交网络	-11150
还不知道	-11151
还有什么	-11152
这一切都	-11153
这个目标	-11154
这么简单	-11155
这种技术	-11156
那是什么	-11157
问题所在	-11158
▁今天我想	-11159
▁他们知道	-11160
▁它们都是	-11161
▁就像我们	-11162
▁我们一起	-11163
▁我们拥有	-11164
一个简单的	-11165
和你们分享	-11166
很大程度上	-11167
每一个人都	-11168
沙特阿拉伯	-11169
灵长类动物	-11170
独一无二的	-11171
自己的孩子	-11172
▁我们可以用	-11173
回答这个问题	-11174
▁但是如果我们	-11175
▁在某种程度上	-11176
▁如果我们能够	-11177
,'	-11178
31	-11179
42	-11180
Sh	-11181
ok	-11182
pe	-11183
▁双	-11184
▁嘿	-11185
▁戴	-11186
▁树	-11187
▁法	-11188
▁苏	-11189
▁莫	-11190
一团	-11191
一阵	-11192
三点	-11193
上演	-11194
上过	-11195
下方	-11196
下水	-11197
下雨	-11198
不满	-11199
东欧	-11200
之道	-11201
乘坐	-11202
书亚	-11203
二维	-11204
人格	-11205
他要	-11206
会员	-11207
全的	-11208
兴起	-11209
兹勒	-11210
出租	-11211
十九	-11212
千人	-11213
千米	-11214
参照	-11215
取了	-11216
只想	-11217
叫作	-11218
史密	-11219
各国	-11220
吸入	-11221
回了	-11222
地板	-11223
坏人	-11224
堵塞	-11225
夜间	-11226
大洲	-11227
大街	-11228
大选	-11229
夫人	-11230
失聪	-11231
宪法	-11232
富翁	-11233
对外	-11234
对立	-11235
导弹	-11236
小段	-11237
尔巴	-11238
就说	-11239
尽头	-11240
左手	-11241
布拉	-11242
干旱	-11243
建的	-11244
开办	-11245
当年	-11246
得好	-11247
恻隐	-11248
您的	-11249
想让	-11250
我为	-11251
我正	-11252
我问	-11253
拜托	-11254
拥堵	-11255
授粉	-11256
提倡	-11257
整套	-11258
日光	-11259
是无	-11260
普查	-11261
更像	-11262
有害	-11263
有权	-11264
根廷	-11265
梅尔	-11266
欢乐	-11267
氢气	-11268
水面	-11269
洗手	-11270
深信	-11271
混凝	-11272
港口	-11273
灌溉	-11274
灰尘	-11275
特例	-11276
狂热	-11277
环顾	-11278
理会	-11279
瓦特	-11280
番茄	-11281
皮质	-11282
相应	-11283
秘诀	-11284
移到	-11285
等式	-11286
简易	-11287
米尔	-11288
纠结	-11289
终身	-11290
绕着	-11291
老的	-11292
肉类	-11293
肚子	-11294
自问	-11295
节拍	-11296
药片	-11297
董事	-11298
裂缝	-11299
言之	-11300
认定	-11301
谈一	-11302
谜团	-11303
跳动	-11304
车鱼	-11305
轮廓	-11306
过着	-11307
还得	-11308
这间	-11309
违背	-11310
途中	-11311
通知	-11312
速率	-11313
避开	-11314
部份	-11315
金森	-11316
长出	-11317
隔绝	-11318
难的	-11319
雇员	-11320
风力	-11321
IBM	-11322
ark	-11323
ers	-11324
les	-11325
lex	-11326
oll	-11327
▁99	-11328
▁中间	-11329
▁互相	-11330
▁他叫	-11331
▁做了	-11332
▁在她	-11333
▁将来	-11334
▁就有	-11335
▁母亲	-11336
▁男孩	-11337
▁而那	-11338
▁能在	-11339
▁这件	-11340
▁这和	-11341
▁食物	-11342
。。。	-11343
一定是	-11344
万五千	-11345
两年前	-11346
也无法	-11347
了一名	-11348
事件的	-11349
人人都	-11350
人群中	-11351
他可以	-11352
作品的	-11353
出生于	-11354
制造了	-11355
包括了	-11356
反过来	-11357
发明家	-11358
叙利亚	-11359
可以做	-11360
各地的	-11361
合成的	-11362
同事们	-11363
和她的	-11364
喜马拉	-11365
国家里	-11366
天花板	-11367
孤儿院	-11368
宗教的	-11369
寄生虫	-11370
带你们	-11371
年之前	-11372
很兴奋	-11373
得很好	-11374
微积分	-11375
思想的	-11376
想法的	-11377
愚蠢的	-11378
我们做	-11379
我就会	-11380
我感到	-11381
我母亲	-11382
更小的	-11383
最小的	-11384
有两种	-11385
杂志上	-11386
某个人	-11387
水资源	-11388
漫画家	-11389
然后说	-11390
的一张	-11391
的努力	-11392
的妇女	-11393
的男人	-11394
的自然	-11395
相信我	-11396
看到我	-11397
真实性	-11398
石油的	-11399
站出来	-11400
精确的	-11401
罗伯特	-11402
被用来	-11403
计划的	-11404
计算器	-11405
认为这	-11406
设计出	-11407
责任感	-11408
跟他们	-11409
迅速地	-11410
还是会	-11411
还是在	-11412
还有个	-11413
这些都	-11414
这首歌	-11415
通常会	-11416
部分是	-11417
都会有	-11418
隐藏的	-11419
非常高	-11420
▁伟大的	-11421
▁其中的	-11422
▁它没有	-11423
▁想想看	-11424
▁我们该	-11425
▁我是在	-11426
▁我说的	-11427
▁所以她	-11428
▁看到了	-11429
▁真的是	-11430
▁还可以	-11431
▁这似乎	-11432
▁这张图	-11433
▁那时我	-11434
一个人的	-11435
不是这样	-11436
世界大战	-11437
亚历山大	-11438
你的生活	-11439
关于这个	-11440
其实就是	-11441
十分之一	-11442
原始细胞	-11443
喜马拉雅	-11444
基地组织	-11445
处在一个	-11446
它们可以	-11447
就意味着	-11448
带给我们	-11449
并不需要	-11450
很多事情	-11451
思考一下	-11452
成了一个	-11453
我们不是	-11454
我们就会	-11455
我的孩子	-11456
我的想法	-11457
摩尔定律	-11458
教育系统	-11459
智能手机	-11460
有意义的	-11461
有趣的事	-11462
来看一下	-11463
的时候就	-11464
纳米比亚	-11465
虚拟世界	-11466
让我们的	-11467
▁他们就会	-11468
▁众所周知	-11469
▁大多数人	-11470
▁它们可以	-11471
▁我们也许	-11472
▁我们决定	-11473
▁我称之为	-11474
▁第一个是	-11475
▁这些问题	-11476
这样的地方	-11477
非常有趣的	-11478
▁因为如果你	-11479
▁如果你仔细	-11480
,9	-11481
38	-11482
4%	-11483
58	-11484
Fl	-11485
zz	-11486
▁右	-11487
▁呃	-11488
▁拍	-11489
▁蓝	-11490
一倍	-11491
一杯	-11492
七八	-11493
下个	-11494
不让	-11495
东非	-11496
个小	-11497
了她	-11498
他所	-11499
何方	-11500
依照	-11501
先前	-11502
光了	-11503
几位	-11504
出门	-11505
函数	-11506
切地	-11507
前行	-11508
包裹	-11509
午饭	-11510
协商	-11511
厘米	-11512
变换	-11513
吉尔	-11514
听力	-11515
周五	-11516
周年	-11517
喜好	-11518
头盔	-11519
头顶	-11520
奏效	-11521
奢侈	-11522
奥运	-11523
嫉妒	-11524
定制	-11525
定居	-11526
导向	-11527
尔蒙	-11528
就跟	-11529
屋里	-11530
嵌入	-11531
布斯	-11532
幻象	-11533
弱的	-11534
归属	-11535
彩色	-11536
微妙	-11537
忧虑	-11538
怜悯	-11539
总部	-11540
意粉	-11541
成真	-11542
才有	-11543
抱着	-11544
拓展	-11545
指引	-11546
指的	-11547
排斥	-11548
接纳	-11549
改良	-11550
放了	-11551
敌意	-11552
散布	-11553
普拉	-11554
更糟	-11555
最先	-11556
杀掉	-11557
棍子	-11558
每日	-11559
活性	-11560
流传	-11561
点上	-11562
片子	-11563
珠宝	-11564
生了	-11565
留意	-11566
的假	-11567
真主	-11568
知情	-11569
研讨	-11570
策划	-11571
置疑	-11572
老龄	-11573
考古	-11574
而我	-11575
联结	-11576
致敬	-11577
致死	-11578
舌头	-11579
荒唐	-11580
萎缩	-11581
蕴含	-11582
衰竭	-11583
证书	-11584
贝多	-11585
贿赂	-11586
走动	-11587
越高	-11588
趋向	-11589
辛苦	-11590
辨识	-11591
运气	-11592
这太	-11593
避难	-11594
鉴定	-11595
钓鱼	-11596
镜片	-11597
雷德	-11598
面纱	-11599
音调	-11600
风筝	-11601
190	-11602
ETI	-11603
▁不像	-11604
▁人均	-11605
▁参加	-11606
▁坦白	-11607
▁将它	-11608
▁就象	-11609
▁我敢	-11610
▁整整	-11611
▁看来	-11612
▁英语	-11613
▁要比	-11614
▁视觉	-11615
▁进化	-11616
▁那你	-11617
一种新	-11618
一群人	-11619
不会再	-11620
两分钟	-11621
了一件	-11622
了一家	-11623
了一段	-11624
人生中	-11625
从我们	-11626
他们被	-11627
令我们	-11628
以来的	-11629
做成的	-11630
共和国	-11631
内在的	-11632
准确地	-11633
几个人	-11634
出一些	-11635
医院里	-11636
十一月	-11637
发展到	-11638
发表了	-11639
只有在	-11640
台电脑	-11641
因为她	-11642
国家都	-11643
声音的	-11644
大脑里	-11645
富有的	-11646
平均值	-11647
很强的	-11648
很聪明	-11649
感染率	-11650
我将会	-11651
技术和	-11652
控制器	-11653
提到过	-11654
明确的	-11655
是好的	-11656
有一千	-11657
服务于	-11658
每一次	-11659
海平面	-11660
消防员	-11661
混凝土	-11662
漫长的	-11663
物质的	-11664
的事儿	-11665
的医疗	-11666
的情形	-11667
的海洋	-11668
的现实	-11669
的路上	-11670
的途径	-11671
相反的	-11672
看了看	-11673
给孩子	-11674
给它们	-11675
网络中	-11676
群体的	-11677
自己说	-11678
花时间	-11679
规模的	-11680
计算出	-11681
谈一谈	-11682
走过来	-11683
身边的	-11684
转折点	-11685
过很多	-11686
近距离	-11687
这家伙	-11688
采用了	-11689
骨骼肌	-11690
1970	-11691
1980	-11692
2020	-11693
▁Car	-11694
▁你自己	-11695
▁到现在	-11696
▁发生了	-11697
▁如果他	-11698
▁如果这	-11699
▁已经有	-11700
▁已经被	-11701
▁我做了	-11702
▁我在想	-11703
▁更好的	-11704
▁查尔斯	-11705
▁然后说	-11706
▁第一种	-11707
▁简单的	-11708
▁这也许	-11709
▁这是从	-11710
▁这真是	-11711
▁这里面	-11712
▁那是一	-11713
一个星期	-11714
一模一样	-11715
亚特兰大	-11716
使用这个	-11717
充分利用	-11718
可口可乐	-11719
因为它们	-11720
奥林匹克	-11721
开始着手	-11722
强有力的	-11723
很快就会	-11724
成为可能	-11725
我们决定	-11726
我们把它	-11727
我的意思	-11728
所发生的	-11729
数以百万	-11730
是不够的	-11731
是正确的	-11732
有一定的	-11733
有个问题	-11734
用自己的	-11735
的环境下	-11736
种族灭绝	-11737
营养不良	-11738
这个领域	-11739
这些动物	-11740
这项研究	-11741
那个地方	-11742
重新设计	-11743
▁他们必须	-11744
▁他们想要	-11745
▁他告诉我	-11746
▁你也许会	-11747
▁你要知道	-11748
▁你还可以	-11749
▁因为我想	-11750
▁在这样的	-11751
▁如果一个	-11752
▁并且他们	-11753
▁我们能否	-11754
▁看看这个	-11755
▁试想一下	-11756
▁这实际上	-11757
▁这是一件	-11758
▁这是一只	-11759
▁这样的话	-11760
其中的一些	-11761
创造了一个	-11762
成为了一个	-11763
我们发现了	-11764
截然不同的	-11765
每个人都能	-11766
这个星球上	-11767
都是一样的	-11768
▁为什么我们	-11769
▁我从来没有	-11770
▁所以我开始	-11771
▁所以我认为	-11772
▁某种程度上	-11773
发展中国家的	-11774
▁我不知道你们	-11775
MT	-11776
SD	-11777
▁b	-11778
▁今	-11779
▁借	-11780
▁埃	-11781
▁热	-11782
▁象	-11783
▁跳	-11784
一眼	-11785
一类	-11786
中年	-11787
为主	-11788
丽莎	-11789
举例	-11790
书写	-11791
亲吻	-11792
他有	-11793
仿生	-11794
伐木	-11795
会想	-11796
会问	-11797
传媒	-11798
修正	-11799
修补	-11800
做完	-11801
光滑	-11802
再做	-11803
再说	-11804
冒着	-11805
刹车	-11806
剧本	-11807
力气	-11808
勒比	-11809
又说	-11810
向外	-11811
吞噬	-11812
吨的	-11813
吸取	-11814
响应	-11815
嘈杂	-11816
固的	-11817
国外	-11818
在最	-11819
基层	-11820
墨水	-11821
复合	-11822
奖项	-11823
好友	-11824
好看	-11825
如下	-11826
宏伟	-11827
审美	-11828
客厅	-11829
就得	-11830
就象	-11831
岛的	-11832
州长	-11833
已知	-11834
巴斯	-11835
带了	-11836
带我	-11837
平民	-11838
庇护	-11839
废水	-11840
弹簧	-11841
得太	-11842
心跳	-11843
忧郁	-11844
快餐	-11845
恰巧	-11846
情愿	-11847
惯例	-11848
戈斯	-11849
所处	-11850
打了	-11851
打造	-11852
把她	-11853
抵消	-11854
指南	-11855
捐献	-11856
推理	-11857
搞定	-11858
放上	-11859
教义	-11860
昨晚	-11861
是大	-11862
棕榈	-11863
欢呼	-11864
每月	-11865
水管	-11866
沉积	-11867
治理	-11868
淡水	-11869
清晨	-11870
清除	-11871
渔业	-11872
漆黑	-11873
点燃	-11874
熵值	-11875
琢磨	-11876
痴迷	-11877
的后	-11878
的门	-11879
盘子	-11880
直播	-11881
碱基	-11882
离婚	-11883
种的	-11884
科幻	-11885
立马	-11886
笑了	-11887
类别	-11888
纠正	-11889
纳州	-11890
纳德	-11891
缩短	-11892
网状	-11893
而死	-11894
肺部	-11895
能的	-11896
草图	-11897
荣耀	-11898
落后	-11899
蒙大	-11900
虫子	-11901
蜂群	-11902
补贴	-11903
装满	-11904
西藏	-11905
要点	-11906
触觉	-11907
讲了	-11908
说来	-11909
赤道	-11910
走在	-11911
走的	-11912
路德	-11913
躲避	-11914
车站	-11915
转型	-11916
这颗	-11917
这首	-11918
重重	-11919
野蛮	-11920
间断	-11921
附加	-11922
预知	-11923
领养	-11924
颗粒	-11925
,10	-11926
,30	-11927
130	-11928
60%	-11929
enn	-11930
ull	-11931
▁to	-11932
▁人的	-11933
▁他将	-11934
▁他有	-11935
▁周围	-11936
▁商业	-11937
▁它还	-11938
▁将其	-11939
▁法律	-11940
▁空气	-11941
▁穿着	-11942
▁简直	-11943
▁行为	-11944
▁视频	-11945
▁过了	-11946
▁马上	-11947
一个叫	-11948
一旦你	-11949
世纪末	-11950
他们为	-11951
任何事	-11952
会看到	-11953
你的手	-11954
信用卡	-11955
儿麻痹	-11956
全面的	-11957
几十亿	-11958
创始人	-11959
创建了	-11960
北部的	-11961
十年的	-11962
去年的	-11963
双胞胎	-11964
发生着	-11965
可以将	-11966
可卡因	-11967
各自的	-11968
合作者	-11969
和文化	-11970
和科学	-11971
和设计	-11972
咖啡馆	-11973
城市中	-11974
大学里	-11975
大屠杀	-11976
奇特的	-11977
好像是	-11978
如何呢	-11979
它们就	-11980
它就是	-11981
将来的	-11982
工业化	-11983
工作过	-11984
希望能	-11985
应用于	-11986
影响着	-11987
思考的	-11988
患者的	-11989
我也是	-11990
搬到了	-11991
方式的	-11992
是人类	-11993
是由于	-11994
有一只	-11995
某一天	-11996
正方形	-11997
毕业生	-11998
灭绝了	-11999
照片中	-12000
的传统	-12001
的创新	-12002
的前提	-12003
的建议	-12004
的数字	-12005
的母亲	-12006
的温度	-12007
的规模	-12008
的颜色	-12009
粒子的	-12010
英国人	-12011
被用于	-12012
让世界	-12013
讲一下	-12014
请大家	-12015
谈到了	-12016
负责人	-12017
那里有	-12018
集中营	-12019
▁一直到	-12020
▁不仅是	-12021
▁你们中	-12022
▁在中国	-12023
▁如果说	-12024
▁它们都	-12025
▁对他们	-12026
▁我以前	-12027
▁我刚刚	-12028
▁我妈妈	-12029
▁我想我	-12030
▁我想这	-12031
▁我经常	-12032
▁有可能	-12033
▁未来的	-12034
▁现在有	-12035
▁这一次	-12036
一开始就	-12037
不确定性	-12038
专业人士	-12039
也是一种	-12040
你是一个	-12041
使用它们	-12042
值得我们	-12043
做的一个	-12044
创建一个	-12045
告诉我说	-12046
大自然的	-12047
并不重要	-12048
意识形态	-12049
我们拥有	-12050
我们甚至	-12051
我们确实	-12052
或者其他	-12053
所有事情	-12054
所面临的	-12055
接下来要	-12056
放在一个	-12057
整个国家	-12058
是不同的	-12059
是多么的	-12060
生命中的	-12061
的基础上	-12062
的时间内	-12063
给你一个	-12064
美国政府	-12065
认为这是	-12066
谢谢你们	-12067
这些想法	-12068
需要帮助	-12069
▁但我知道	-12070
▁成为一个	-12071
▁最重要的	-12072
▁特别是在	-12073
▁而我认为	-12074
▁而是一个	-12075
▁这些孩子	-12076
▁这看起来	-12077
向大家展示	-12078
对于我来说	-12079
并不是一个	-12080
这样的一个	-12081
▁然后我们就	-12082
▁在这种情况下	-12083
▁我们可以通过	-12084
44	-12085
68	-12086
CT	-12087
Em	-12088
IC	-12089
PC	-12090
eg	-12091
ov	-12092
▁丹	-12093
▁亦	-12094
▁倒	-12095
▁半	-12096
▁尽	-12097
▁应	-12098
▁未	-12099
▁狗	-12100
一门	-12101
七年	-12102
万亿	-12103
不只	-12104
世俗	-12105
中了	-12106
临界	-12107
习俗	-12108
五种	-12109
产卵	-12110
人人	-12111
人家	-12112
传说	-12113
伪装	-12114
体温	-12115
信奉	-12116
光亮	-12117
光学	-12118
光照	-12119
共事	-12120
内瑞	-12121
冰盖	-12122
分泌	-12123
分的	-12124
刊登	-12125
功夫	-12126
加尔	-12127
参数	-12128
口味	-12129
口音	-12130
吻合	-12131
唤起	-12132
喇嘛	-12133
因子	-12134
因果	-12135
块钱	-12136
坚定	-12137
外出	-12138
失控	-12139
孤单	-12140
尖端	-12141
岁月	-12142
巧妙	-12143
差的	-12144
带你	-12145
干了	-12146
年我	-12147
并在	-12148
并没	-12149
开会	-12150
开设	-12151
很远	-12152
徒步	-12153
快要	-12154
急救	-12155
想在	-12156
我猜	-12157
所要	-12158
打动	-12159
按下	-12160
排泄	-12161
推翻	-12162
教条	-12163
敬畏	-12164
新奇	-12165
旗帜	-12166
时机	-12167
晚期	-12168
最快	-12169
最新	-12170
本土	-12171
架上	-12172
标示	-12173
标语	-12174
楼房	-12175
民间	-12176
波兰	-12177
波罗	-12178
活得	-12179
流向	-12180
流逝	-12181
漫长	-12182
灌木	-12183
珍惜	-12184
生死	-12185
畅销	-12186
病患	-12187
的公	-12188
的歌	-12189
眼里	-12190
福德	-12191
穿梭	-12192
突发	-12193
第六	-12194
筛选	-12195
红酒	-12196
级别	-12197
罪行	-12198
羽毛	-12199
肥料	-12200
背面	-12201
舞者	-12202
芭蕾	-12203
草地	-12204
蜂鸟	-12205
蝴蝶	-12206
蟑螂	-12207
袋獾	-12208
被送	-12209
裤子	-12210
西斯	-12211
解开	-12212
说唱	-12213
谁会	-12214
贝拉	-12215
越过	-12216
轰炸	-12217
运到	-12218
还挺	-12219
远处	-12220
适当	-12221
逃避	-12222
选了	-12223
通向	-12224
造福	-12225
那段	-12226
重叠	-12227
闪烁	-12228
问问	-12229
飞翔	-12230
首领	-12231
马桶	-12232
高等	-12233
鱼的	-12234
140	-12235
180	-12236
ass	-12237
ens	-12238
ern	-12239
▁25	-12240
▁An	-12241
▁也在	-12242
▁他从	-12243
▁会有	-12244
▁估计	-12245
▁便是	-12246
▁健康	-12247
▁增加	-12248
▁它由	-12249
▁我才	-12250
▁拍摄	-12251
▁生产	-12252
▁相互	-12253
▁相对	-12254
▁能源	-12255
▁解释	-12256
▁这两	-12257
▁这又	-12258
▁这块	-12259
▁这跟	-12260
▁这还	-12261
▁释放	-12262
一张纸	-12263
一美元	-12264
不了的	-12265
不会是	-12266
不会被	-12267
不同意	-12268
不是我	-12269
也非常	-12270
他们不	-12271
他自己	-12272
但我们	-12273
体会到	-12274
作用于	-12275
你就是	-12276
偏头痛	-12277
公众的	-12278
内瑞拉	-12279
几秒钟	-12280
分布在	-12281
分钟后	-12282
创作的	-12283
到底在	-12284
到达了	-12285
努力地	-12286
十分钟	-12287
单独的	-12288
历史中	-12289
去参加	-12290
发动机	-12291
发电机	-12292
取代了	-12293
古希腊	-12294
可能在	-12295
吸引人	-12296
呈现出	-12297
和别人	-12298
和平的	-12299
多年来	-12300
大家的	-12301
天然的	-12302
太大了	-12303
它没有	-12304
定义为	-12305
岁的人	-12306
年左右	-12307
应该有	-12308
废弃物	-12309
当然了	-12310
彻底的	-12311
怎么会	-12312
我以前	-12313
我们只	-12314
我就是	-12315
所处的	-12316
报纸上	-12317
搞明白	-12318
无论是	-12319
是用来	-12320
是相当	-12321
有影响	-12322
来帮助	-12323
来控制	-12324
来改变	-12325
来研究	-12326
沉浸在	-12327
激动的	-12328
物体的	-12329
环境里	-12330
现实中	-12331
理想的	-12332
生成的	-12333
的主意	-12334
的事是	-12335
的思想	-12336
的成就	-12337
的成本	-12338
的政府	-12339
的旅程	-12340
的最好	-12341
的电脑	-12342
的表情	-12343
的那种	-12344
看得到	-12345
破坏了	-12346
称其为	-12347
让这个	-12348
记录了	-12349
轨道上	-12350
这可能	-12351
都是有	-12352
隐藏在	-12353
黑色的	-12354
orge	-12355
▁Dan	-12356
▁人们的	-12357
▁他可以	-12358
▁传统的	-12359
▁你会说	-12360
▁在英国	-12361
▁在许多	-12362
▁它们有	-12363
▁它叫做	-12364
▁它已经	-12365
▁它是一	-12366
▁它能够	-12367
▁就在那	-12368
▁巨大的	-12369
▁我那时	-12370
▁有人说	-12371
▁给他们	-12372
▁而且在	-12373
▁越来越	-12374
▁阿富汗	-12375
七十年代	-12376
个这样的	-12377
令人振奋	-12378
告诉我的	-12379
和我们的	-12380
基础建设	-12381
多长时间	-12382
如果你在	-12383
委内瑞拉	-12384
实验室中	-12385
对我而言	-12386
就在这里	-12387
就开始了	-12388
就有一个	-12389
年代中期	-12390
年的历史	-12391
并不只是	-12392
很多地方	-12393
很多很多	-12394
很简单的	-12395
总结一下	-12396
恻隐之心	-12397
成为什么	-12398
我们只是	-12399
我们都是	-12400
所产生的	-12401
所作所为	-12402
提醒我们	-12403
早些时候	-12404
更重要的	-12405
没有人会	-12406
现在正在	-12407
的世界中	-12408
的地方是	-12409
看不到的	-12410
研究表明	-12411
研究这些	-12412
精神上的	-12413
西班牙语	-12414
足够多的	-12415
运作方式	-12416
这是我们	-12417
这样的话	-12418
▁2005	-12419
▁为什么不	-12420
▁人们开始	-12421
▁今天我要	-12422
▁以及我们	-12423
▁但这不是	-12424
▁你能想象	-12425
▁因为这样	-12426
▁如果我能	-12427
▁如果这些	-12428
▁我不是说	-12429
▁我们当时	-12430
▁我们自己	-12431
▁我发现了	-12432
▁我指的是	-12433
▁没有一个	-12434
▁然后他说	-12435
▁现在已经	-12436
▁这些就是	-12437
▁这些数据	-12438
▁这可不是	-12439
与你们分享	-12440
你所看到的	-12441
做些什么呢	-12442
同样的问题	-12443
我们的社会	-12444
我最喜欢的	-12445
时间的推移	-12446
百分之八十	-12447
这样的东西	-12448
这里有一个	-12449
▁于是我开始	-12450
▁我们也可以	-12451
▁我们所做的	-12452
▁所以我们需要	-12453
,8	-12454
85	-12455
:「	-12456
Ch	-12457
Ph	-12458
ly	-12459
▁n	-12460
▁头	-12461
▁弄	-12462
▁极	-12463
▁经	-12464
▁送	-12465
▁难	-12466
丁堡	-12467
上看	-12468
世人	-12469
东方	-12470
为观	-12471
了呢	-12472
产的	-12473
仁慈	-12474
仓库	-12475
会计	-12476
传粉	-12477
伸展	-12478
但它	-12479
你了	-12480
保佑	-12481
倒了	-12482
充足	-12483
先锋	-12484
先驱	-12485
出路	-12486
切换	-12487
初始	-12488
前方	-12489
化妆	-12490
化身	-12491
半径	-12492
压抑	-12493
取的	-12494
口语	-12495
可供	-12496
向他	-12497
听从	-12498
启蒙	-12499
国度	-12500
国旗	-12501
坟墓	-12502
夜里	-12503
太高	-12504
女王	-12505
子孙	-12506
将此	-12507
就如	-12508
山地	-12509
市区	-12510
年半	-12511
年在	-12512
异性	-12513
德尔	-12514
忙碌	-12515
念头	-12516
恶性	-12517
想做	-12518
我可	-12519
手稿	-12520
找来	-12521
抢劫	-12522
指控	-12523
敏捷	-12524
数值	-12525
无力	-12526
旨在	-12527
星体	-12528
更具	-12529
更小	-12530
更难	-12531
曾被	-12532
末日	-12533
机能	-12534
杂音	-12535
构架	-12536
某天	-12537
棕色	-12538
气温	-12539
水域	-12540
水池	-12541
沥青	-12542
洛斯	-12543
洞察	-12544
渔民	-12545
烟雾	-12546
煤矿	-12547
牠们	-12548
牵涉	-12549
猎物	-12550
猫咪	-12551
班加	-12552
甲壳	-12553
画了	-12554
的美	-12555
相片	-12556
省下	-12557
真诚	-12558
祝福	-12559
秋天	-12560
积木	-12561
竞技	-12562
粉碎	-12563
紧要	-12564
纷纷	-12565
网民	-12566
聊聊	-12567
艰巨	-12568
草坪	-12569
药剂	-12570
薪水	-12571
藻类	-12572
螃蟹	-12573
衍生	-12574
解析	-12575
诸多	-12576
贤淑	-12577
转身	-12578
迈向	-12579
进到	-12580
逃脱	-12581
逃跑	-12582
部署	-12583
都用	-12584
闪光	-12585
闲置	-12586
降解	-12587
雇用	-12588
雏形	-12589
靠着	-12590
香味	-12591
香水	-12592
鸭子	-12593
5%。	-12594
arr	-12595
eff	-12596
eil	-12597
hid	-12598
ino	-12599
ist	-12600
old	-12601
und	-12602
▁一百	-12603
▁专家	-12604
▁专门	-12605
▁但对	-12606
▁再到	-12607
▁到达	-12608
▁只需	-12609
▁埃及	-12610
▁复杂	-12611
▁幸福	-12612
▁欢迎	-12613
▁正常	-12614
▁男性	-12615
▁空间	-12616
▁穿越	-12617
▁管理	-12618
▁而它	-12619
▁肯定	-12620
▁花了	-12621
▁起初	-12622
▁身为	-12623
▁还在	-12624
▁这份	-12625
▁这太	-12626
▁这才	-12627
▁远远	-12628
▁避免	-12629
▁飞机	-12630
一些事	-12631
一直都	-12632
上世纪	-12633
上大学	-12634
不太好	-12635
两百万	-12636
个体的	-12637
中看到	-12638
人性化	-12639
停止了	-12640
儿童的	-12641
出版社	-12642
努力的	-12643
原子核	-12644
可见的	-12645
告诉她	-12646
和孩子	-12647
回答道	-12648
在这一	-12649
塑料瓶	-12650
多么的	-12651
大学生	-12652
女朋友	-12653
学家们	-12654
完全被	-12655
对你们	-12656
就不能	-12657
就行了	-12658
层面的	-12659
应用在	-12660
度过了	-12661
延伸到	-12662
很清楚	-12663
恢复了	-12664
我们来	-12665
把整个	-12666
掌握了	-12667
放射性	-12668
放进去	-12669
教育和	-12670
曾说过	-12671
森林里	-12672
植物的	-12673
比以前	-12674
比这个	-12675
活动中	-12676
活跃的	-12677
潜意识	-12678
父母的	-12679
现代的	-12680
理解了	-12681
男人们	-12682
病原体	-12683
的人均	-12684
的信号	-12685
的情绪	-12686
的父亲	-12687
的生产	-12688
的真实	-12689
盒子里	-12690
相对于	-12691
知道它	-12692
科索沃	-12693
第一天	-12694
系列的	-12695
艰难的	-12696
范围的	-12697
被诊断	-12698
西雅图	-12699
谈一下	-12700
走出来	-12701
超声波	-12702
还是很	-12703
这两者	-12704
适当的	-12705
避难所	-12706
都必须	-12707
都无法	-12708
里的人	-12709
非常快	-12710
魅力的	-12711
2011	-12712
inux	-12713
▁---	-12714
▁他开始	-12715
▁他正在	-12716
▁以色列	-12717
▁你一定	-12718
▁你如何	-12719
▁你无法	-12720
▁再看看	-12721
▁和我的	-12722
▁得到了	-12723
▁我们才	-12724
▁我其实	-12725
▁我花了	-12726
▁或者在	-12727
▁找到了	-12728
▁第二种	-12729
▁致力于	-12730
▁这非常	-12731
一些例子	-12732
为我们的	-12733
他的名字	-12734
公共卫生	-12735
创造性的	-12736
发生变化	-12737
哈佛大学	-12738
外科手术	-12739
多样性的	-12740
它是如何	-12741
小的时候	-12742
尽可能地	-12743
得到什么	-12744
我们使用	-12745
我们才能	-12746
我们是否	-12747
我的作品	-12748
所拥有的	-12749
把自己的	-12750
教育体系	-12751
星球上的	-12752
是什么样	-12753
曾经说过	-12754
最后一次	-12755
有足够的	-12756
根本无法	-12757
每天都在	-12758
没有得到	-12759
生活质量	-12760
生物学的	-12761
的方法是	-12762
相似之处	-12763
维多利亚	-12764
西方世界	-12765
这个方向	-12766
这么多的	-12767
这台机器	-12768
通过这些	-12769
金融危机	-12770
阿拉斯加	-12771
非洲国家	-12772
鳍金枪鱼	-12773
David	-12774
▁你可以从	-12775
▁因为我的	-12776
▁如果你去	-12777
▁对我而言	-12778
▁帮助我们	-12779
▁我们尝试	-12780
▁我很喜欢	-12781
▁我觉得这	-12782
▁现在这个	-12783
▁结果发现	-12784
▁而事实上	-12785
▁这个数字	-12786
▁这种方法	-12787
他们的工作	-12788
儿童死亡率	-12789
告诉我们的	-12790
巨大的影响	-12791
成立了一个	-12792
我们不得不	-12793
提供了一个	-12794
有意思的是	-12795
生物多样性	-12796
的工作原理	-12797
类似的东西	-12798
聚集在一起	-12799
连接在一起	-12800
非常复杂的	-12801
▁到目前为止	-12802
▁如果你看看	-12803
▁我们为什么	-12804
▁我认为我们	-12805
▁所以我们的	-12806
▁而且我认为	-12807
▁这就是一个	-12808
你们可以看到	-12809
越来越多的人	-12810
-3	-12811
95	-12812
AT	-12813
by	-12814
io	-12815
tt	-12816
▁c	-12817
▁刚	-12818
▁图	-12819
▁塞	-12820
▁托	-12821
▁朱	-12822
▁萨	-12823
▁虽	-12824
一页	-12825
不定	-12826
不自	-12827
丢弃	-12828
两组	-12829
之久	-12830
乐园	-12831
乙醇	-12832
也好	-12833
书里	-12834
二进	-12835
人道	-12836
他还	-12837
以便	-12838
住所	-12839
催化	-12840
克罗	-12841
冷藏	-12842
分形	-12843
切实	-12844
则会	-12845
初级	-12846
前沿	-12847
剪辑	-12848
动员	-12849
又能	-12850
叫我	-12851
后退	-12852
和解	-12853
喇叭	-12854
器和	-12855
四倍	-12856
四百	-12857
回路	-12858
回避	-12859
地平	-12860
地形	-12861
塔拉	-12862
处女	-12863
大国	-12864
大麻	-12865
失落	-12866
奥秘	-12867
女权	-12868
奶牛	-12869
娃娃	-12870
安娜	-12871
对撞	-12872
导体	-12873
尖锐	-12874
尼的	-12875
峰值	-12876
席卷	-12877
平和	-12878
年起	-12879
开端	-12880
当选	-12881
很近	-12882
律宾	-12883
德斯	-12884
快了	-12885
快感	-12886
怀着	-12887
怪人	-12888
悲观	-12889
戏法	-12890
战后	-12891
所欲	-12892
手套	-12893
抗拒	-12894
披萨	-12895
拉里	-12896
招募	-12897
拥护	-12898
指着	-12899
损坏	-12900
摇晃	-12901
收养	-12902
救济	-12903
时空	-12904
明了	-12905
最具	-12906
朵花	-12907
权衡	-12908
村落	-12909
条款	-12910
柔软	-12911
格陵	-12912
模因	-12913
橡胶	-12914
次序	-12915
比伦	-12916
水准	-12917
水族	-12918
汇聚	-12919
没用	-12920
泽西	-12921
洪水	-12922
烤箱	-12923
牙医	-12924
特勒	-12925
犯了	-12926
犹豫	-12927
珍贵	-12928
用药	-12929
电波	-12930
登录	-12931
目录	-12932
离子	-12933
私有	-12934
移除	-12935
稍稍	-12936
篮球	-12937
糖果	-12938
罕见	-12939
羊毛	-12940
羞愧	-12941
联络	-12942
胜过	-12943
脸部	-12944
芥末	-12945
茶壶	-12946
蒸发	-12947
蓝图	-12948
蜂巢	-12949
蜗牛	-12950
规矩	-12951
警卫	-12952
认证	-12953
议院	-12954
诊室	-12955
请你	-12956
谈起	-12957
跳过	-12958
躯体	-12959
轮子	-12960
还多	-12961
这可	-12962
这真	-12963
迷宫	-12964
选民	-12965
透露	-12966
避孕	-12967
那次	-12968
邮箱	-12969
配对	-12970
酷的	-12971
钻石	-12972
队的	-12973
飞跃	-12974
骗子	-12975
/11	-12976
160	-12977
ace	-12978
ans	-12979
ice	-12980
ina	-12981
ish	-12982
omo	-12983
ong	-12984
ure	-12985
·11	-12986
▁80	-12987
▁PM	-12988
▁一样	-12989
▁一群	-12990
▁人民	-12991
▁住在	-12992
▁像我	-12993
▁再看	-12994
▁图片	-12995
▁处于	-12996
▁愿意	-12997
▁我可	-12998
▁投资	-12999
▁描述	-13000
▁是你	-13001
▁普通	-13002
▁死亡	-13003
▁每一	-13004
▁真实	-13005
一点的	-13006
一致的	-13007
不出来	-13008
不过了	-13009
不适合	-13010
为观止	-13011
了两个	-13012
了你的	-13013
伊朗人	-13014
会成为	-13015
会觉得	-13016
伦敦的	-13017
作品中	-13018
使人们	-13019
做决定	-13020
做研究	-13021
出现过	-13022
分之三	-13023
分辨率	-13024
利用了	-13025
前面的	-13026
加勒比	-13027
加油站	-13028
动物园	-13029
单一的	-13030
卡罗来	-13031
原子的	-13032
反映了	-13033
发表的	-13034
受试者	-13035
台机器	-13036
史密斯	-13037
合法的	-13038
和时间	-13039
回过头	-13040
团体的	-13041
土卫六	-13042
土地上	-13043
在场的	-13044
在它们	-13045
在欧洲	-13046
处理的	-13047
多或少	-13048
大气中	-13049
实验的	-13050
小时内	-13051
小时后	-13052
已成为	-13053
已有的	-13054
巴布韦	-13055
帕戈斯	-13056
带回家	-13057
年代末	-13058
张图片	-13059
当一个	-13060
形状的	-13061
很开心	-13062
很有用	-13063
必须的	-13064
想到了	-13065
意粉酱	-13066
所在的	-13067
摩托车	-13068
收入的	-13069
救护车	-13070
是值得	-13071
更安全	-13072
最基本	-13073
有一定	-13074
有不同	-13075
有哪些	-13076
有那么	-13077
有问题	-13078
机会去	-13079
来创造	-13080
根本就	-13081
格陵兰	-13082
模型的	-13083
每平方	-13084
氧化氮	-13085
火星上	-13086
独裁者	-13087
现在就	-13088
生长的	-13089
的一名	-13090
的人性	-13091
的分子	-13092
的广告	-13093
的恐惧	-13094
的战争	-13095
的水平	-13096
的空气	-13097
的解释	-13098
看到过	-13099
瞄准器	-13100
神秘的	-13101
突尼斯	-13102
篇论文	-13103
约书亚	-13104
给一个	-13105
给别人	-13106
老师们	-13107
聚合物	-13108
背景下	-13109
能做的	-13110
能源的	-13111
节目的	-13112
荷尔蒙	-13113
菲律宾	-13114
街道上	-13115
观察了	-13116
记忆的	-13117
贫穷的	-13118
进监狱	-13119
里面有	-13120
阿根廷	-13121
需要有	-13122
非常大	-13123
..."	-13124
1995	-13125
1997	-13126
1999	-13127
usan	-13128
▁一个在	-13129
▁今天我	-13130
▁你开始	-13131
▁你真的	-13132
▁告诉我	-13133
▁在一些	-13134
▁很高兴	-13135
▁德里克	-13136
▁我认识	-13137
▁换言之	-13138
▁理查德	-13139
▁美国的	-13140
▁而且你	-13141
▁能够在	-13142
▁还记得	-13143
▁这个小	-13144
久的将来	-13145
了所有的	-13146
了解这些	-13147
人的生活	-13148
人类文明	-13149
他们如何	-13150
他们能够	-13151
会怎样呢	-13152
你为什么	-13153
做了这个	-13154
做到这些	-13155
其它地方	-13156
出乎意料	-13157
别的东西	-13158
可以帮助	-13159
叹为观止	-13160
同一时间	-13161
回顾一下	-13162
在这方面	-13163
坐在一起	-13164
如此多的	-13165
已经有了	-13166
市场营销	-13167
弗吉尼亚	-13168
形成一个	-13169
很多时候	-13170
怎么办呢	-13171
我不喜欢	-13172
我们可能	-13173
我就可以	-13174
我想要的	-13175
我的母亲	-13176
有些东西	-13177
来自一个	-13178
某些东西	-13179
气候危机	-13180
津巴布韦	-13181
百分之百	-13182
的那一刻	-13183
社会问题	-13184
糟糕的是	-13185
美国国家	-13186
联合起来	-13187
自我组装	-13188
行不通的	-13189
观众笑声	-13190
说的那样	-13191
迄今为止	-13192
这个演讲	-13193
遗憾的是	-13194
都是一个	-13195
阿姆斯特	-13196
高质量的	-13197
黄金法则	-13198
athan	-13199
▁他们不是	-13200
▁他们能够	-13201
▁但是当我	-13202
▁你们中的	-13203
▁就像一个	-13204
▁就像这样	-13205
▁总的来说	-13206
▁我们总是	-13207
▁我看到了	-13208
▁所以它们	-13209
▁所以当我	-13210
▁所以我在	-13211
▁然后我想	-13212
▁还有就是	-13213
▁这听起来	-13214
与生俱来的	-13215
举一个例子	-13216
人类基因组	-13217
准备好了吗	-13218
大部分时间	-13219
太阳能电池	-13220
如果我们能	-13221
我从来没有	-13222
我们不需要	-13223
我们看到的	-13224
所有的这些	-13225
找到了一个	-13226
改变了我们	-13227
显而易见的	-13228
有什么关系	-13229
没有意识到	-13230
没有足够的	-13231
简单的问题	-13232
给大家展示	-13233
解释为什么	-13234
重要的东西	-13235
shahid	-13236
▁你可以把它	-13237
▁因为我觉得	-13238
▁每个人都有	-13239
汽车安全座椅	-13240
Richard	-13241
▁这是一个非常	-13242
"?	-13243
39	-13244
64	-13245
97	-13246
FO	-13247
eB	-13248
▁a	-13249
▁【	-13250
▁低	-13251
▁少	-13252
▁找	-13253
▁抗	-13254
▁杰	-13255
▁核	-13256
▁泰	-13257
▁白	-13258
▁米	-13259
▁精	-13260
一动	-13261
三千	-13262
上市	-13263
下而	-13264
不但	-13265
中立	-13266
中等	-13267
之力	-13268
之家	-13269
九月	-13270
争夺	-13271
享用	-13272
亲戚	-13273
伏特	-13274
会面	-13275
但他	-13276
俄国	-13277
保加	-13278
倒塌	-13279
借鉴	-13280
停留	-13281
光纤	-13282
全职	-13283
养老	-13284
写出	-13285
击败	-13286
分工	-13287
划分	-13288
初步	-13289
别处	-13290
办事	-13291
化和	-13292
十倍	-13293
升起	-13294
双重	-13295
口头	-13296
召唤	-13297
可塑	-13298
名义	-13299
君子	-13300
吸毒	-13301
周遭	-13302
呼叫	-13303
和它	-13304
和小	-13305
咱们	-13306
商务	-13307
喷气	-13308
地利	-13309
场面	-13310
坚硬	-13311
坦克	-13312
外表	-13313
天真	-13314
太过	-13315
奇异	-13316
奔跑	-13317
奥尔	-13318
女生	-13319
婆罗	-13320
字节	-13321
学上	-13322
它时	-13323
宝贵	-13324
实物	-13325
小事	-13326
就好	-13327
就把	-13328
巨星	-13329
带进	-13330
广义	-13331
弥补	-13332
当天	-13333
当它	-13334
很强	-13335
得越	-13336
德的	-13337
总量	-13338
恶意	-13339
我与	-13340
我叫	-13341
截肢	-13342
手腕	-13343
执政	-13344
扭转	-13345
接口	-13346
放回	-13347
散播	-13348
文档	-13349
新颖	-13350
无辜	-13351
枪击	-13352
格拉	-13353
毛发	-13354
水泥	-13355
汇集	-13356
没了	-13357
活生	-13358
浴室	-13359
海绵	-13360
清真	-13361
溪流	-13362
溶解	-13363
爷爷	-13364
特尔	-13365
王国	-13366
玩的	-13367
瓦解	-13368
的反	-13369
的老	-13370
的鱼	-13371
益于	-13372
益处	-13373
看下	-13374
知名	-13375
石灰	-13376
硕士	-13377
签名	-13378
纸质	-13379
线虫	-13380
继而	-13381
美人	-13382
耻辱	-13383
肮脏	-13384
营地	-13385
行贿	-13386
被判	-13387
西西	-13388
证人	-13389
说他	-13390
请看	-13391
象棋	-13392
负荷	-13393
贴在	-13394
费城	-13395
赖以	-13396
车子	-13397
较为	-13398
迈出	-13399
还很	-13400
这门	-13401
迷你	-13402
遍及	-13403
道歉	-13404
问卷	-13405
陪伴	-13406
零零	-13407
食谱	-13408
马车	-13409
驾车	-13410
高压	-13411
鲜花	-13412
黑白	-13413
默德	-13414
默默	-13415
Jim	-13416
ive	-13417
ood	-13418
ows	-13419
▁16	-13420
▁WK	-13421
▁一是	-13422
▁但要	-13423
▁你对	-13424
▁出现	-13425
▁分析	-13426
▁医疗	-13427
▁合作	-13428
▁妈妈	-13429
▁开放	-13430
▁彼得	-13431
▁很久	-13432
▁挑战	-13433
▁放到	-13434
▁毫无	-13435
▁电话	-13436
▁直至	-13437
▁确定	-13438
▁第四	-13439
▁经历	-13440
▁结合	-13441
▁谈论	-13442
▁负责	-13443
▁走向	-13444
▁远离	-13445
▁长期	-13446
▁阿尔	-13447
一辈子	-13448
三年前	-13449
下去了	-13450
下面的	-13451
不稳定	-13452
不足以	-13453
与这些	-13454
东海岸	-13455
个问题	-13456
乌托邦	-13457
了多少	-13458
交易所	-13459
会得到	-13460
伯利亚	-13461
你将会	-13462
你真的	-13463
保守派	-13464
公路上	-13465
内容的	-13466
再看看	-13467
利比亚	-13468
到你的	-13469
匈牙利	-13470
医生和	-13471
原子弹	-13472
又一遍	-13473
只是想	-13474
可以为	-13475
可以去	-13476
和工作	-13477
和经济	-13478
四个月	-13479
在地上	-13480
地看到	-13481
增长率	-13482
复杂了	-13483
外太空	-13484
大城市	-13485
失败者	-13486
存活率	-13487
它们能	-13488
家长们	-13489
容易的	-13490
将自己	-13491
就会被	-13492
就变得	-13493
就好了	-13494
开始于	-13495
得更好	-13496
心血管	-13497
恰恰是	-13498
想象成	-13499
我也不	-13500
我们与	-13501
我们为	-13502
我们说	-13503
我如何	-13504
技术上	-13505
接着说	-13506
放一个	-13507
无能为	-13508
无限的	-13509
是一家	-13510
是不会	-13511
更健康	-13512
曾经在	-13513
曾经是	-13514
有一张	-13515
有关联	-13516
有创意	-13517
有希望	-13518
有这些	-13519
本世纪	-13520
材料的	-13521
村子里	-13522
来决定	-13523
来实现	-13524
来描述	-13525
根本不	-13526
每个月	-13527
比其他	-13528
活下来	-13529
深远的	-13530
清真寺	-13531
爵士乐	-13532
状态下	-13533
班加罗	-13534
生之年	-13535
生产商	-13536
电脑的	-13537
的一样	-13538
的人才	-13539
的安全	-13540
的成长	-13541
的投资	-13542
的政治	-13543
的认识	-13544
的这一	-13545
的道路	-13546
的顶端	-13547
目前的	-13548
相对论	-13549
着这些	-13550
竞争者	-13551
米特里	-13552
精彩的	-13553
美国和	-13554
翻车鱼	-13555
被叫做	-13556
观点是	-13557
让学生	-13558
记录下	-13559
说一下	-13560
说他们	-13561
赖喇嘛	-13562
起源于	-13563
还不能	-13564
这并不	-13565
这种事	-13566
遥控器	-13567
那一天	-13568
部分的	-13569
长大了	-13570
陷入了	-13571
非凡的	-13572
非常小	-13573
1998	-13574
Paul	-13575
ames	-13576
icha	-13577
▁197	-13578
▁不管你	-13579
▁于是她	-13580
▁他们为	-13581
▁他们只	-13582
▁但当你	-13583
▁但是却	-13584
▁但最终	-13585
▁你们看	-13586
▁你只能	-13587
▁你只要	-13588
▁关键是	-13589
▁再加上	-13590
▁剩下的	-13591
▁发现了	-13592
▁可以用	-13593
▁右边的	-13594
▁因此在	-13595
▁在没有	-13596
▁大概有	-13597
▁如果把	-13598
▁我们便	-13599
▁我怎么	-13600
▁我有个	-13601
▁我还有	-13602
▁有多少	-13603
▁有意思	-13604
▁来看看	-13605
▁用一种	-13606
▁直到我	-13607
▁相对于	-13608
▁说实话	-13609
▁这可是	-13610
▁那些在	-13611
一种方式	-13612
不是什么	-13613
不是那么	-13614
世界人口	-13615
临床实验	-13616
为基础的	-13617
些什么呢	-13618
人的生命	-13619
什么都不	-13620
他们已经	-13621
你想要的	-13622
保加利亚	-13623
别的什么	-13624
博士学位	-13625
古典音乐	-13626
可以得到	-13627
可能性的	-13628
同样的事	-13629
因为这些	-13630
坐在那儿	-13631
大脑中的	-13632
奇怪的是	-13633
学会如何	-13634
孩子们的	-13635
已经知道	-13636
年轻女性	-13637
建造一个	-13638
很不一样	-13639
想到的是	-13640
我为什么	-13641
我们刚刚	-13642
我们所知	-13643
我们是在	-13644
我们还有	-13645
接受治疗	-13646
提供一个	-13647
搜索引擎	-13648
无线网络	-13649
没有办法	-13650
浮游生物	-13651
激动人心	-13652
的年轻人	-13653
的意思是	-13654
的时间和	-13655
网络罪犯	-13656
美国人的	-13657
计算机的	-13658
过程中的	-13659
还是一个	-13660
这一过程	-13661
这个技术	-13662
这个网站	-13663
这么大的	-13664
这些家伙	-13665
这种想法	-13666
阿拉伯语	-13667
非常兴奋	-13668
面部表情	-13669
duino	-13670
▁John	-13671
▁一个非常	-13672
▁不可思议	-13673
▁于是我想	-13674
▁但是当你	-13675
▁但是没有	-13676
▁像这样的	-13677
▁到处都是	-13678
▁告诉他们	-13679
▁如果你不	-13680
▁它实际上	-13681
▁总而言之	-13682
▁我们有了	-13683
▁我们的确	-13684
▁我是一名	-13685
▁我的朋友	-13686
▁我的父母	-13687
▁我还记得	-13688
▁所以当你	-13689
▁现在你们	-13690
▁而且它们	-13691
▁让我们从	-13692
▁这项技术	-13693
完全不知道	-13694
并没有什么	-13695
强大的力量	-13696
很大一部分	-13697
改变世界的	-13698
是因为他们	-13699
是因为我们	-13700
根本不知道	-13701
正确的事情	-13702
的一段时间	-13703
究竟是什么	-13704
阿拉伯世界	-13705
▁如果你想要	-13706
▁如果我们想	-13707
▁我们得到了	-13708
▁我们必须要	-13709
▁我们看到了	-13710
▁这是我们在	-13711
发生了什么事	-13712
思考这个问题	-13713
......"	-13714
Youtube	-13715
shahidi	-13716
▁所以这是一个	-13717
▁让我们来看看	-13718
▁这就是我们在	-13719
',	-13720
,7	-13721
2,	-13722
94	-13723
OL	-13724
ke	-13725
▁扎	-13726
▁眼	-13727
▁紧	-13728
▁跨	-13729
▁鱼	-13730
一圈	-13731
一款	-13732
三位	-13733
上而	-13734
下班	-13735
不做	-13736
不计	-13737
与此	-13738
专用	-13739
主管	-13740
乃至	-13741
之人	-13742
五岁	-13743
人与	-13744
从你	-13745
代理	-13746
伊曼	-13747
会从	-13748
会使	-13749
住的	-13750
住院	-13751
信徒	-13752
光源	-13753
光片	-13754
克鲁	-13755
入狱	-13756
内向	-13757
军人	-13758
减弱	-13759
凭借	-13760
出席	-13761
切断	-13762
力和	-13763
劳工	-13764
十几	-13765
单身	-13766
压制	-13767
发给	-13768
变性	-13769
可言	-13770
号的	-13771
听我	-13772
周刊	-13773
周后	-13774
周日	-13775
哥白	-13776
唤醒	-13777
喷射	-13778
嘴巴	-13779
噩梦	-13780
固体	-13781
在其	-13782
在它	-13783
在看	-13784
地产	-13785
坚强	-13786
基里	-13787
填满	-13788
填补	-13789
外观	-13790
多远	-13791
大洋	-13792
头疼	-13793
奖赏	-13794
字符	-13795
孙女	-13796
它又	-13797
审核	-13798
客人	-13799
宽容	-13800
密歇	-13801
将有	-13802
就行	-13803
布置	-13804
年时	-13805
幸好	-13806
弱势	-13807
强子	-13808
态的	-13809
恐慌	-13810
我了	-13811
我做	-13812
我跟	-13813
打扮	-13814
扔到	-13815
批判	-13816
扼杀	-13817
技艺	-13818
抱负	-13819
拼命	-13820
捕杀	-13821
排的	-13822
搞砸	-13823
摆动	-13824
撞上	-13825
支柱	-13826
无趣	-13827
时装	-13828
是种	-13829
是非	-13830
普勒	-13831
更换	-13832
更是	-13833
最棒	-13834
本性	-13835
机翼	-13836
杂货	-13837
条腿	-13838
柱子	-13839
树脂	-13840
格子	-13841
毁了	-13842
池塘	-13843
沃森	-13844
沼泽	-13845
法语	-13846
波动	-13847
波长	-13848
洋葱	-13849
洗澡	-13850
活儿	-13851
涡轮	-13852
温柔	-13853
澄清	-13854
瀑布	-13855
火焰	-13856
灭亡	-13857
灾害	-13858
物资	-13859
球体	-13860
电场	-13861
电能	-13862
病理	-13863
症的	-13864
登革	-13865
碳水	-13866
示范	-13867
神父	-13868
离我	-13869
笑脸	-13870
等候	-13871
纳斯	-13872
经受	-13873
结晶	-13874
给自	-13875
缘故	-13876
缩写	-13877
网格	-13878
耐克	-13879
花蜜	-13880
获利	-13881
获奖	-13882
行事	-13883
衬衫	-13884
装有	-13885
裸露	-13886
语法	-13887
课本	-13888
贪污	-13889
赞成	-13890
越是	-13891
踏上	-13892
这群	-13893
远古	-13894
道义	-13895
道具	-13896
遗弃	-13897
金星	-13898
钱包	-13899
问她	-13900
阐释	-13901
限的	-13902
难过	-13903
集成	-13904
雷达	-13905
颜料	-13906
香烟	-13907
高温	-13908
95%	-13909
ata	-13910
car	-13911
ity	-13912
olf	-13913
▁90	-13914
▁也不	-13915
▁从此	-13916
▁传播	-13917
▁再来	-13918
▁几天	-13919
▁去做	-13920
▁名叫	-13921
▁和平	-13922
▁在一	-13923
▁大型	-13924
▁女士	-13925
▁她会	-13926
▁它与	-13927
▁就要	-13928
▁布鲁	-13929
▁彼此	-13930
▁感到	-13931
▁我这	-13932
▁新闻	-13933
▁明天	-13934
▁是很	-13935
▁本来	-13936
▁机器	-13937
▁来吧	-13938
▁病毒	-13939
▁看见	-13940
▁给你	-13941
▁缺乏	-13942
▁蓝色	-13943
▁走进	-13944
一代的	-13945
一辆车	-13946
三百万	-13947
不会在	-13948
为人知	-13949
之中的	-13950
九个月	-13951
争议的	-13952
你会说	-13953
你是谁	-13954
供应商	-13955
全部的	-13956
公元前	-13957
公司和	-13958
关闭了	-13959
到底是	-13960
到我的	-13961
前额叶	-13962
十年后	-13963
印度河	-13964
去学习	-13965
去探索	-13966
又一个	-13967
可兰经	-13968
可怜的	-13969
吃一惊	-13970
后面的	-13971
哩啦啦	-13972
地下室	-13973
奴隶制	-13974
密度的	-13975
密歇根	-13976
就如同	-13977
尼克斯	-13978
岁生日	-13979
左上角	-13980
布拉德	-13981
开心的	-13982
开放式	-13983
录病毒	-13984
德里安	-13985
感应器	-13986
成熟的	-13987
我做的	-13988
我听到	-13989
我甚至	-13990
或许是	-13991
所在地	-13992
支持者	-13993
新事物	-13994
新生儿	-13995
更少的	-13996
最快的	-13997
本杰明	-13998
来制造	-13999
核心的	-14000
橄榄球	-14001
正在被	-14002
正面的	-14003
残疾人	-14004
活着的	-14005
犹太教	-14006
用来做	-14007
痛苦的	-14008
的书籍	-14009
的了解	-14010
的人员	-14011
的场景	-14012
的巨大	-14013
的手段	-14014
的梦想	-14015
的汽车	-14016
的电话	-14017
的真正	-14018
的试验	-14019
的身份	-14020
的频率	-14021
目标的	-14022
相结合	-14023
看得见	-14024
眼睛的	-14025
知道你	-14026
科学界	-14027
细小的	-14028
结婚了	-14029
罕见的	-14030
角度来	-14031
解释的	-14032
认真地	-14033
请举手	-14034
过的人	-14035
这一刻	-14036
这是很	-14037
这类的	-14038
那是我	-14039
障碍物	-14040
需要被	-14041
项目中	-14042
2015	-14043
Abed	-14044
Bill	-14045
▁500	-14046
▁Mar	-14047
▁下一步	-14048
▁人们对	-14049
▁但当我	-14050
▁但没有	-14051
▁创造出	-14052
▁变成了	-14053
▁可以让	-14054
▁后来我	-14055
▁和他们	-14056
▁因此他	-14057
▁在这儿	-14058
▁大概是	-14059
▁如果它	-14060
▁它可能	-14061
▁左边的	-14062
▁我也不	-14063
▁我们给	-14064
▁我尝试	-14065
▁我就想	-14066
▁我就能	-14067
▁我看见	-14068
▁我确实	-14069
▁我马上	-14070
▁改变了	-14071
▁每一天	-14072
▁没什么	-14073
▁神经元	-14074
▁而对于	-14075
▁自己的	-14076
▁被称为	-14077
▁请注意	-14078
▁这三个	-14079
▁这两种	-14080
▁这表明	-14081
一个叫做	-14082
一些数据	-14083
三分之二	-14084
两个小时	-14085
中产阶级	-14086
做好准备	-14087
八十年代	-14088
共产主义	-14089
几个月前	-14090
创造一种	-14091
利比里亚	-14092
华盛顿特	-14093
卫生组织	-14094
印第安人	-14095
去的地方	-14096
完成这个	-14097
家庭成员	-14098
对于一个	-14099
就业机会	-14100
就可以了	-14101
就在那里	-14102
就是我的	-14103
布朗克斯	-14104
惊讶的是	-14105
意识到了	-14106
方法就是	-14107
有很多的	-14108
注意的是	-14109
海洋生物	-14110
的情况是	-14111
的是一种	-14112
看上去像	-14113
矮黑猩猩	-14114
石油泄漏	-14115
社交媒体	-14116
第一件事	-14117
继续下去	-14118
联邦政府	-14119
艾滋病的	-14120
观察到的	-14121
让人兴奋	-14122
越来越少	-14123
这是真的	-14124
这样认为	-14125
这种能力	-14126
进化过程	-14127
那些我们	-14128
那些没有	-14129
非常困难	-14130
▁不是因为	-14131
▁为什么要	-14132
▁事实证明	-14133
▁但我还是	-14134
▁但是对于	-14135
▁你可以把	-14136
▁再来看看	-14137
▁另一个是	-14138
▁就是一个	-14139
▁尼日利亚	-14140
▁我不确定	-14141
▁我们使用	-14142
▁我最喜欢	-14143
▁有的时候	-14144
▁正如你们	-14145
▁这个作品	-14146
▁这就好像	-14147
▁问题在于	-14148
不同的地方	-14149
不同类型的	-14150
之类的东西	-14151
今天的演讲	-14152
就是这样的	-14153
心脏病发作	-14154
我们还没有	-14155
是不可能的	-14156
的角度来看	-14157
碳水化合物	-14158
设计了一个	-14159
这个机器人	-14160
这就是我们	-14161
这样的问题	-14162
重要的事情	-14163
非常不同的	-14164
非常有意思	-14165
▁他们实际上	-14166
▁你们都知道	-14167
▁因为我认为	-14168
▁如果你愿意	-14169
▁对我们来说	-14170
▁当我第一次	-14171
▁我也不知道	-14172
▁我们并没有	-14173
▁我们还需要	-14174
▁所以让我们	-14175
▁这正是我们	-14176
▁那么我们就	-14177
▁顺便说一句	-14178
我们可以看到	-14179
我们可以通过	-14180
解决这些问题	-14181
▁大家可以看到	-14182
▁我们需要一个	-14183
▁这就是我们的	-14184
令人难以置信的	-14185
正在发生的事情	-14186
▁我们生活在一个	-14187
43	-14188
6%	-14189
Ad	-14190
Am	-14191
▁仍	-14192
▁占	-14193
▁希	-14194
▁常	-14195
▁排	-14196
▁欧	-14197
▁身	-14198
▁选	-14199
。'	-14200
一滴	-14201
一股	-14202
一试	-14203
上所	-14204
上涨	-14205
不相	-14206
东亚	-14207
严谨	-14208
临终	-14209
为生	-14210
之际	-14211
乐于	-14212
九个	-14213
买下	-14214
仇恨	-14215
会对	-14216
作画	-14217
作的	-14218
供电	-14219
侧面	-14220
便携	-14221
偏差	-14222
先从	-14223
光年	-14224
光速	-14225
免于	-14226
共性	-14227
关上	-14228
其余	-14229
典范	-14230
兹堡	-14231
内亚	-14232
内存	-14233
军方	-14234
冰块	-14235
减肥	-14236
凝聚	-14237
判决	-14238
利他	-14239
利安	-14240
剂量	-14241
加密	-14242
化为	-14243
十八	-14244
及的	-14245
变老	-14246
可信	-14247
可惜	-14248
各式	-14249
员的	-14250
嗅觉	-14251
回溯	-14252
国土	-14253
在海	-14254
地亚	-14255
多尔	-14256
大道	-14257
夸克	-14258
女神	-14259
季候	-14260
学过	-14261
定期	-14262
害羞	-14263
寂静	-14264
对策	-14265
小块	-14266
山的	-14267
峰顶	-14268
帮他	-14269
庄稼	-14270
延迟	-14271
建模	-14272
开销	-14273
强加	-14274
归根	-14275
当局	-14276
心率	-14277
急需	-14278
惊异	-14279
想用	-14280
憎恨	-14281
成品	-14282
成型	-14283
我已	-14284
我最	-14285
或缺	-14286
手掌	-14287
把人	-14288
抛开	-14289
拍卖	-14290
挤压	-14291
掩盖	-14292
插入	-14293
插座	-14294
携手	-14295
摆弄	-14296
收拾	-14297
教书	-14298
斯蒂	-14299
旅鸽	-14300
日记	-14301
朗玛	-14302
望的	-14303
杀戮	-14304
来吧	-14305
来过	-14306
极具	-14307
正规	-14308
水流	-14309
海运	-14310
深奥	-14311
混淆	-14312
濒危	-14313
火柴	-14314
爬到	-14315
爱和	-14316
牲畜	-14317
献给	-14318
珠穆	-14319
用这	-14320
电荷	-14321
疯子	-14322
百事	-14323
百姓	-14324
百年	-14325
真人	-14326
着你	-14327
睾丸	-14328
短说	-14329
祷告	-14330
称的	-14331
程式	-14332
算出	-14333
管制	-14334
类人	-14335
粪球	-14336
紫色	-14337
美德	-14338
美术	-14339
耕种	-14340
耗尽	-14341
股东	-14342
脚下	-14343
荒漠	-14344
落的	-14345
薄膜	-14346
装上	-14347
西尼	-14348
觉醒	-14349
讲台	-14350
讲起	-14351
译者	-14352
貌似	-14353
贴片	-14354
轴上	-14355
过多	-14356
这不	-14357
进出	-14358
连线	-14359
连锁	-14360
退出	-14361
退役	-14362
选的	-14363
都说	-14364
里兰	-14365
铭记	-14366
阿基	-14367
陷阱	-14368
隐形	-14369
零下	-14370
音量	-14371
首相	-14372
麻木	-14373
900	-14374
alk	-14375
ana	-14376
att	-14377
ect	-14378
ics	-14379
lan	-14380
▁一项	-14381
▁两种	-14382
▁乔治	-14383
▁你好	-14384
▁全国	-14385
▁医院	-14386
▁哪个	-14387
▁大多	-14388
▁她还	-14389
▁德国	-14390
▁恐怕	-14391
▁摆脱	-14392
▁每周	-14393
▁海豚	-14394
▁现场	-14395
▁细菌	-14396
▁花费	-14397
▁表现	-14398
▁调查	-14399
▁进而	-14400
▁随之	-14401
三个人	-14402
不是么	-14403
不是说	-14404
严格的	-14405
中间的	-14406
了一座	-14407
人身上	-14408
仍然有	-14409
仔细地	-14410
份工作	-14411
会变得	-14412
做不了	-14413
充斥着	-14414
农作物	-14415
利益的	-14416
十年间	-14417
占据了	-14418
古兰经	-14419
同意了	-14420
向人们	-14421
和印度	-14422
和教育	-14423
和科技	-14424
国防部	-14425
在所有	-14426
多年前	-14427
大街上	-14428
天文学	-14429
安全感	-14430
对一个	-14431
对世界	-14432
就像在	-14433
就是你	-14434
屋顶上	-14435
工作和	-14436
已经从	-14437
巴比伦	-14438
应该在	-14439
开始时	-14440
很熟悉	-14441
很相似	-14442
怎么去	-14443
情况是	-14444
想成为	-14445
我将要	-14446
我所知	-14447
我爸爸	-14448
我这个	-14449
把事情	-14450
挑战性	-14451
接一个	-14452
控制了	-14453
故事中	-14454
数据是	-14455
整体的	-14456
新想法	-14457
是个很	-14458
是这么	-14459
更复杂	-14460
更多人	-14461
更有效	-14462
有一项	-14463
有其他	-14464
服务的	-14465
比方说	-14466
法尼亚	-14467
测量的	-14468
海洋里	-14469
深深的	-14470
游世界	-14471
爱的人	-14472
现代化	-14473
的专家	-14474
的事了	-14475
的大楼	-14476
的大气	-14477
的大量	-14478
的新闻	-14479
的植物	-14480
的装置	-14481
的资金	-14482
的那天	-14483
直接的	-14484
相当的	-14485
研究者	-14486
离我们	-14487
种语言	-14488
老龄化	-14489
而成的	-14490
肺结核	-14491
自动化	-14492
虚拟的	-14493
表达的	-14494
视觉化	-14495
训练的	-14496
说的话	-14497
贝多芬	-14498
走出去	-14499
那个小	-14500
那么的	-14501
都来自	-14502
2030	-14503
eter	-14504
▁Rob	-14505
▁一个叫	-14506
▁主持人	-14507
▁他们正	-14508
▁但我的	-14509
▁俄罗斯	-14510
▁历史上	-14511
▁大约有	-14512
▁很可能	-14513
▁我们去	-14514
▁我有幸	-14515
▁我确信	-14516
▁我试图	-14517
▁有一点	-14518
▁而这一	-14519
▁还有些	-14520
▁这东西	-14521
▁这个词	-14522
▁这些小	-14523
▁这已经	-14524
▁这的确	-14525
▁这真的	-14526
▁这确实	-14527
▁那么你	-14528
▁那么这	-14529
▁都没有	-14530
一个城市	-14531
一些信息	-14532
一小部分	-14533
上的一个	-14534
上的问题	-14535
不管怎样	-14536
个人电脑	-14537
今天我要	-14538
任何问题	-14539
住在一个	-14540
你们当中	-14541
共和党人	-14542
其他地区	-14543
出了问题	-14544
前列腺癌	-14545
化学反应	-14546
历史学家	-14547
发挥作用	-14548
发现一个	-14549
吃惊的是	-14550
各个方面	-14551
周围环境	-14552
在未来的	-14553
大吃一惊	-14554
它的时候	-14555
小儿麻痹	-14556
希望你们	-14557
平均寿命	-14558
微不足道	-14559
怎么样呢	-14560
想要一个	-14561
成为一种	-14562
我们一起	-14563
我们觉得	-14564
我们都有	-14565
手提电脑	-14566
找到答案	-14567
接受教育	-14568
改变了我	-14569
无能为力	-14570
是一个很	-14571
是巨大的	-14572
是很好的	-14573
普林斯顿	-14574
最简单的	-14575
有一个人	-14576
燃料电池	-14577
珠穆朗玛	-14578
的一份子	-14579
的科学家	-14580
看不见的	-14581
着我们的	-14582
研究显示	-14583
研究这个	-14584
艺术作品	-14585
西伯利亚	-14586
让我觉得	-14587
设计一个	-14588
这个理论	-14589
这个计划	-14590
进行研究	-14591
那些东西	-14592
里的一个	-14593
Linux	-14594
▁2004	-14595
▁从来没有	-14596
▁十分感谢	-14597
▁我们人类	-14598
▁我们对此	-14599
▁我们花了	-14600
▁我们过去	-14601
▁研究人员	-14602
▁而实际上	-14603
▁还有那些	-14604
▁这个地方	-14605
▁通过这些	-14606
不是这样的	-14607
与大家分享	-14608
他们的孩子	-14609
他们的行为	-14610
其他的东西	-14611
到目前为止	-14612
在接下来的	-14613
大多数人都	-14614
意想不到的	-14615
我们所有人	-14616
我们的目标	-14617
我想说的是	-14618
把这些东西	-14619
气候变化的	-14620
现在看到的	-14621
百分之三十	-14622
百分之二十	-14623
要做的就是	-14624
足够的时间	-14625
这个世界的	-14626
面临的问题	-14627
ichael	-14628
▁Alpha	-14629
▁于是我决定	-14630
▁但是实际上	-14631
▁但是我们的	-14632
▁如果我们不	-14633
▁我们一直在	-14634
▁我们意识到	-14635
▁我希望大家	-14636
▁我知道你们	-14637
▁所以我们在	-14638
国内生产总值	-14639
如果我们可以	-14640
花了很多时间	-14641
▁Google	-14642
▁所以我们可以	-14643
现代艺术博物馆	-14644
")	-14645
-2	-14646
Be	-14647
Jo	-14648
Sp	-14649
ht	-14650
up	-14651
▁喔	-14652
▁嗨	-14653
▁指	-14654
▁死	-14655
▁索	-14656
▁赫	-14657
▁造	-14658
。」	-14659
」,	-14660
一笔	-14661
一角	-14662
一顿	-14663
七千	-14664
万维	-14665
不不	-14666
丑陋	-14667
专栏	-14668
丢掉	-14669
两岁	-14670
两张	-14671
主席	-14672
主持	-14673
之于	-14674
乡下	-14675
了几	-14676
事了	-14677
交汇	-14678
京都	-14679
人文	-14680
介于	-14681
他把	-14682
他能	-14683
付费	-14684
伊甸	-14685
休闲	-14686
会场	-14687
会很	-14688
但你	-14689
作战	-14690
你我	-14691
便便	-14692
保卫	-14693
保姆	-14694
信服	-14695
信条	-14696
倡议	-14697
债券	-14698
储藏	-14699
入手	-14700
公益	-14701
共生	-14702
共用	-14703
内疚	-14704
再到	-14705
再现	-14706
农田	-14707
冷漠	-14708
凯文	-14709
出行	-14710
分隔	-14711
切开	-14712
利略	-14713
到这	-14714
削弱	-14715
动症	-14716
十七	-14717
升华	-14718
协力	-14719
博拉	-14720
占有	-14721
历经	-14722
原地	-14723
发誓	-14724
变动	-14725
变迁	-14726
右侧	-14727
号召	-14728
各类	-14729
同胞	-14730
否定	-14731
品尝	-14732
哈尔	-14733
哭了	-14734
四岁	-14735
地做	-14736
地雷	-14737
基石	-14738
基酸	-14739
多人	-14740
多伦	-14741
大地	-14742
奖金	-14743
学业	-14744
学期	-14745
宁愿	-14746
它所	-14747
实习	-14748
审团	-14749
家和	-14750
宿主	-14751
对她	-14752
对面	-14753
少女	-14754
局部	-14755
展出	-14756
差点	-14757
布雷	-14758
带宽	-14759
幼虫	-14760
建构	-14761
开阔	-14762
弗里	-14763
强暴	-14764
归类	-14765
待在	-14766
得快	-14767
忘掉	-14768
怪物	-14769
悄悄	-14770
惧怕	-14771
才智	-14772
打猎	-14773
抉择	-14774
抗药	-14775
抵制	-14776
抵御	-14777
抽搐	-14778
收容	-14779
效的	-14780
敏锐	-14781
救生	-14782
族人	-14783
早在	-14784
晓得	-14785
最不	-14786
最深	-14787
有名	-14788
未曾	-14789
杀伤	-14790
杂烩	-14791
村里	-14792
条纹	-14793
杰作	-14794
极少	-14795
枯燥	-14796
树叶	-14797
树立	-14798
橙色	-14799
步伐	-14800
毁掉	-14801
每隔	-14802
水质	-14803
波特	-14804
满是	-14805
火腿	-14806
牛排	-14807
牧羊	-14808
瑞克	-14809
田纳	-14810
由你	-14811
电报	-14812
的上	-14813
的要	-14814
监护	-14815
矿井	-14816
破裂	-14817
示威	-14818
礼貌	-14819
社团	-14820
笨蛋	-14821
粉末	-14822
紧迫	-14823
终止	-14824
绝佳	-14825
维斯	-14826
缓解	-14827
而后	-14828
胶带	-14829
能做	-14830
脖子	-14831
脸书	-14832
脸谱	-14833
航班	-14834
藉由	-14835
蜂蜜	-14836
融资	-14837
装了	-14838
要让	-14839
评分	-14840
试过	-14841
诱因	-14842
谓的	-14843
谦虚	-14844
谴责	-14845
贪腐	-14846
路程	-14847
路边	-14848
车轮	-14849
还原	-14850
进攻	-14851
逆向	-14852
那场	-14853
都对	-14854
重心	-14855
重现	-14856
重生	-14857
链条	-14858
阴茎	-14859
阴谋	-14860
随地	-14861
雇主	-14862
露出	-14863
露天	-14864
面试	-14865
面貌	-14866
顶级	-14867
预见	-14868
馅饼	-14869
马萨	-14870
骗局	-14871
鸡肉	-14872
,18	-14873
AIM	-14874
ara	-14875
ech	-14876
end	-14877
off	-14878
onn	-14879
rew	-14880
▁JA	-14881
▁Mc	-14882
▁Re	-14883
▁Sh	-14884
▁一半	-14885
▁下一	-14886
▁不错	-14887
▁从事	-14888
▁他很	-14889
▁以下	-14890
▁但最	-14891
▁使其	-14892
▁内容	-14893
▁南非	-14894
▁压力	-14895
▁发出	-14896
▁同情	-14897
▁四个	-14898
▁大量	-14899
▁它比	-14900
▁据说	-14901
▁效果	-14902
▁昆虫	-14903
▁是为	-14904
▁是用	-14905
▁暴力	-14906
▁温度	-14907
▁疾病	-14908
▁的人	-14909
▁盖瑞	-14910
▁种族	-14911
▁表示	-14912
▁超越	-14913
▁这座	-14914
▁阅读	-14915
一年前	-14916
一年半	-14917
一种叫	-14918
不用说	-14919
丧失了	-14920
中国菜	-14921
之前就	-14922
习惯了	-14923
事情是	-14924
人们所	-14925
人体的	-14926
他已经	-14927
他没有	-14928
传递给	-14929
你无法	-14930
保持着	-14931
做手术	-14932
公交车	-14933
几年中	-14934
几年后	-14935
出生在	-14936
制作人	-14937
制片人	-14938
前教育	-14939
匹兹堡	-14940
压力的	-14941
原材料	-14942
去尝试	-14943
去改变	-14944
发展出	-14945
发展成	-14946
另一位	-14947
另一端	-14948
只要你	-14949
可靠的	-14950
史蒂芬	-14951
合唱团	-14952
同一种	-14953
和中国	-14954
喜欢它	-14955
回答是	-14956
在工作	-14957
在每个	-14958
增加的	-14959
增长了	-14960
多一点	-14961
多样的	-14962
大家庭	-14963
如果有	-14964
季候风	-14965
实质上	-14966
尝试过	-14967
就是他	-14968
帕金森	-14969
带大家	-14970
幸存者	-14971
怎样做	-14972
意外的	-14973
我只能	-14974
我打算	-14975
我的心	-14976
我确实	-14977
我经常	-14978
我花了	-14979
我都会	-14980
所知的	-14981
才可以	-14982
把东西	-14983
控制它	-14984
携带者	-14985
教室里	-14986
新型的	-14987
方程式	-14988
旁边的	-14989
无所谓	-14990
无数的	-14991
日子里	-14992
日本的	-14993
星巴克	-14994
是一张	-14995
是你的	-14996
是无法	-14997
暴风雨	-14998
更愿意	-14999
最终会	-15000
本拉登	-15001
来展示	-15002
来表示	-15003
桌子上	-15004
永久的	-15005
没想到	-15006
海岸线	-15007
混合物	-15008
灵活性	-15009
爱丁堡	-15010
版本的	-15011
田纳西	-15012
病人们	-15013
瘾君子	-15014
的人是	-15015
的合作	-15016
的商业	-15017
的团队	-15018
的地球	-15019
的大型	-15020
的大门	-15021
的房子	-15022
的最高	-15023
的本质	-15024
的病毒	-15025
的眼睛	-15026
的神经	-15027
的衣服	-15028
的质量	-15029
眼中的	-15030
研讨会	-15031
确切的	-15032
社会里	-15033
系统里	-15034
约翰逊	-15035
纪念碑	-15036
纳米管	-15037
统计学	-15038
至今日	-15039
艺术节	-15040
要开始	-15041
视而不	-15042
视频中	-15043
许可证	-15044
话短说	-15045
说过的	-15046
谁知道	-15047
较大的	-15048
过这些	-15049
运动中	-15050
这世界	-15051
这都是	-15052
选择性	-15053
透明化	-15054
避免的	-15055
那不是	-15056
那些被	-15057
那部分	-15058
长大后	-15059
阿波罗	-15060
1984	-15061
orld	-15062
▁一部分	-15063
▁不得不	-15064
▁为我们	-15065
▁也不能	-15066
▁今天的	-15067
▁但是从	-15068
▁你们都	-15069
▁你已经	-15070
▁你或许	-15071
▁你看见	-15072
▁像这样	-15073
▁充满了	-15074
▁出现在	-15075
▁告诉你	-15076
▁因为当	-15077
▁在欧洲	-15078
▁坏消息	-15079
▁大约在	-15080
▁并且它	-15081
▁库尔特	-15082
▁我从未	-15083
▁我会说	-15084
▁我听到	-15085
▁我坚信	-15086
▁我终于	-15087
▁我还要	-15088
▁有什么	-15089
▁还没有	-15090
▁那也是	-15091
什么才是	-15092
他们都是	-15093
任何一种	-15094
作出反应	-15095
你在哪里	-15096
做什么的	-15097
别的地方	-15098
历史上的	-15099
原始数据	-15100
吸引人的	-15101
因为它是	-15102
在网络上	-15103
对自己的	-15104
就变成了	-15105
工作岗位	-15106
布鲁克斯	-15107
帮助人们	-15108
并不是在	-15109
强子对撞	-15110
慈善机构	-15111
我们将要	-15112
我发现了	-15113
我的一个	-15114
我的研究	-15115
无关紧要	-15116
是最好的	-15117
有一点点	-15118
热带雨林	-15119
现代社会	-15120
电脑游戏	-15121
的一句话	-15122
的一系列	-15123
紧密相连	-15124
组成一个	-15125
经历过的	-15126
能够得到	-15127
能源消耗	-15128
自我意识	-15129
自然选择	-15130
菲尼克斯	-15131
角度来说	-15132
达成一致	-15133
这个时候	-15134
这听起来	-15135
这就是我	-15136
这种东西	-15137
通过一个	-15138
那么简单	-15139
都不一样	-15140
量子力学	-15141
非同寻常	-15142
骑自行车	-15143
ation	-15144
▁2008	-15145
▁世界上最	-15146
▁从那以后	-15147
▁其中一些	-15148
▁因为它的	-15149
▁因为我在	-15150
▁如果人们	-15151
▁我们首先	-15152
▁突然之间	-15153
▁而且这个	-15154
▁这个国家	-15155
▁这是一些	-15156
一个小小的	-15157
不同的事情	-15158
了这个项目	-15159
加拉帕戈斯	-15160
发现了一个	-15161
可以让我们	-15162
周围的环境	-15163
天文望远镜	-15164
我们的国家	-15165
磁共振成像	-15166
让我们看看	-15167
超级计算机	-15168
跟大家分享	-15169
这一切都是	-15170
这个世界上	-15171
olfram	-15172
▁于是我们就	-15173
▁你可以通过	-15174
▁因为我知道	-15175
▁我想让你们	-15176
▁越来越多的	-15177
▁这是第一个	-15178
可持续发展的	-15179
是怎么做到的	-15180
Arduino	-15181
▁因为如果我们	-15182
▁Anderson	-15183
"、	-15184
57	-15185
?(	-15186
?)	-15187
ES	-15188
MA	-15189
NN	-15190
Wh	-15191
au	-15192
co	-15193
▁南	-15194
▁种	-15195
▁穿	-15196
▁站	-15197
一一	-15198
一声	-15199
万的	-15200
三到	-15201
上台	-15202
上和	-15203
不复	-15204
不经	-15205
世的	-15206
两到	-15207
个案	-15208
二者	-15209
云层	-15210
今后	-15211
从他	-15212
代数	-15213
你被	-15214
侦测	-15215
侮辱	-15216
信件	-15217
修饰	-15218
偏好	-15219
做爱	-15220
偶像	-15221
偷窃	-15222
充实	-15223
六岁	-15224
内基	-15225
再去	-15226
冷的	-15227
几点	-15228
刘旭	-15229
初衷	-15230
到一	-15231
占用	-15232
印记	-15233
原创	-15234
双向	-15235
台阶	-15236
同龄	-15237
启迪	-15238
哈里	-15239
喷发	-15240
在以	-15241
在小	-15242
塞拉	-15243
壮观	-15244
复原	-15245
外套	-15246
大块	-15247
大片	-15248
天上	-15249
头来	-15250
头衔	-15251
女友	-15252
姓名	-15253
姿态	-15254
威力	-15255
孢子	-15256
它不	-15257
完好	-15258
宾夕	-15259
对这	-15260
将之	-15261
小麦	-15262
就很	-15263
山谷	-15264
布兰	-15265
常数	-15266
幅度	-15267
干涉	-15268
平板	-15269
应急	-15270
底线	-15271
度量	-15272
归结	-15273
录影	-15274
征兆	-15275
待遇	-15276
得主	-15277
德尼	-15278
思绪	-15279
慈悯	-15280
我看	-15281
打断	-15282
打着	-15283
承包	-15284
抓取	-15285
投放	-15286
护照	-15287
报复	-15288
拿了	-15289
挫折	-15290
捍卫	-15291
掠食	-15292
接管	-15293
推向	-15294
摒弃	-15295
摔倒	-15296
政党	-15297
散发	-15298
斐波	-15299
时地	-15300
时每	-15301
昏迷	-15302
是与	-15303
是把	-15304
晚了	-15305
景色	-15306
暗的	-15307
替身	-15308
未经	-15309
未被	-15310
本领	-15311
朱丽	-15312
机关	-15313
查理	-15314
格尔	-15315
检视	-15316
毒害	-15317
比的	-15318
水分	-15319
深受	-15320
深渊	-15321
渡渡	-15322
源泉	-15323
满怀	-15324
演绎	-15325
激起	-15326
烈的	-15327
照护	-15328
狗的	-15329
玫瑰	-15330
班级	-15331
瓣膜	-15332
瓷砖	-15333
电信	-15334
电邮	-15335
眨眼	-15336
着火	-15337
碳酸	-15338
秒内	-15339
窗外	-15340
答复	-15341
答应	-15342
算术	-15343
粉笔	-15344
精心	-15345
纸板	-15346
维系	-15347
罗拉	-15348
而生	-15349
耕作	-15350
脚的	-15351
腐烂	-15352
自助	-15353
艾伦	-15354
螳螂	-15355
表皮	-15356
被困	-15357
要大	-15358
要想	-15359
触控	-15360
计数	-15361
论的	-15362
识字	-15363
说你	-15364
读出	-15365
读取	-15366
调控	-15367
质子	-15368
走下	-15369
赶紧	-15370
跑去	-15371
车道	-15372
载体	-15373
达菲	-15374
运河	-15375
进度	-15376
连串	-15377
遍了	-15378
那片	-15379
酋长	-15380
阳性	-15381
阿布	-15382
隔热	-15383
面具	-15384
音速	-15385
顶层	-15386
飞去	-15387
飞速	-15388
香肠	-15389
驾驭	-15390
骑行	-15391
骚扰	-15392
齿轮	-15393
2.0	-15394
2.5	-15395
ant	-15396
ero	-15397
ora	-15398
oug	-15399
▁BG	-15400
▁今日	-15401
▁今晚	-15402
▁他问	-15403
▁但愿	-15404
▁借助	-15405
▁公民	-15406
▁军队	-15407
▁几个	-15408
▁出于	-15409
▁加拿	-15410
▁包含	-15411
▁发明	-15412
▁发表	-15413
▁大学	-15414
▁天然	-15415
▁它和	-15416
▁快乐	-15417
▁快速	-15418
▁我给	-15419
▁投入	-15420
▁教授	-15421
▁早期	-15422
▁明显	-15423
▁模拟	-15424
▁测量	-15425
▁琼斯	-15426
▁社区	-15427
▁移动	-15428
▁美元	-15429
▁能让	-15430
▁蝙蝠	-15431
▁要不	-15432
▁这有	-15433
▁这片	-15434
▁这边	-15435
▁防止	-15436
▁黑人	-15437
一切的	-15438
一年的	-15439
不同了	-15440
不能被	-15441
东西的	-15442
丽莎白	-15443
了一半	-15444
了很久	-15445
五百万	-15446
今天要	-15447
他知道	-15448
伊甸园	-15449
会如何	-15450
会带来	-15451
体现了	-15452
体系的	-15453
作出的	-15454
便开始	-15455
做出来	-15456
光造影	-15457
公里的	-15458
农民们	-15459
冲突的	-15460
出生时	-15461
分布的	-15462
动物们	-15463
却不是	-15464
去学校	-15465
去解决	-15466
另一些	-15467
另一条	-15468
可以有	-15469
可塑性	-15470
可行性	-15471
可视化	-15472
合作用	-15473
同样也	-15474
听过的	-15475
和我在	-15476
回来的	-15477
固有的	-15478
在不同	-15479
在人类	-15480
在伦敦	-15481
在外面	-15482
在整个	-15483
地面上	-15484
好多了	-15485
学习了	-15486
宇航局	-15487
安装了	-15488
就无法	-15489
展现了	-15490
应有的	-15491
建一个	-15492
引发了	-15493
归属感	-15494
得多的	-15495
急诊室	-15496
性武器	-15497
恐龙的	-15498
慈悲心	-15499
我会说	-15500
我可能	-15501
我就想	-15502
我能够	-15503
才是最	-15504
技术来	-15505
抗抑郁	-15506
担心的	-15507
接受过	-15508
政客们	-15509
故事里	-15510
是一些	-15511
是一条	-15512
是很难	-15513
显示器	-15514
智慧和	-15515
更多地	-15516
最终的	-15517
有一段	-15518
有一群	-15519
有孩子	-15520
杀死了	-15521
杂货店	-15522
来临时	-15523
来处理	-15524
某一个	-15525
椅子上	-15526
正处于	-15527
氨基酸	-15528
治疗的	-15529
法律的	-15530
活力的	-15531
活动家	-15532
渡渡鸟	-15533
然后是	-15534
照片上	-15535
特拉津	-15536
现成的	-15537
生态学	-15538
用电脑	-15539
的一件	-15540
的会议	-15541
的全部	-15542
的内部	-15543
的博客	-15544
的年代	-15545
的思考	-15546
的报道	-15547
的次数	-15548
的物质	-15549
的痛苦	-15550
的观察	-15551
着眼于	-15552
立方体	-15553
第四个	-15554
索马里	-15555
线性的	-15556
经济上	-15557
维生素	-15558
罕默德	-15559
美人鱼	-15560
考虑的	-15561
而感到	-15562
聚集在	-15563
能改变	-15564
自己去	-15565
药物的	-15566
螺旋桨	-15567
行星上	-15568
观众席	-15569
规则的	-15570
角落里	-15571
讲到的	-15572
设计者	-15573
说出来	-15574
负面的	-15575
超出了	-15576
过多的	-15577
过时了	-15578
连接的	-15579
陪审团	-15580
面对面	-15581
食物和	-15582
1945	-15583
1994	-15584
2012	-15585
2500	-15586
AIMS	-15587
anis	-15588
arth	-15589
eBay	-15590
erry	-15591
ickr	-15592
rank	-15593
▁不论是	-15594
▁不过这	-15595
▁世界的	-15596
▁他已经	-15597
▁但我也	-15598
▁使我们	-15599
▁可以被	-15600
▁唯一的	-15601
▁因为有	-15602
▁大脑的	-15603
▁如果不	-15604
▁它将会	-15605
▁它必须	-15606
▁就好比	-15607
▁想一想	-15608
▁我保证	-15609
▁我几乎	-15610
▁我只想	-15611
▁我将会	-15612
▁我常常	-15613
▁是通过	-15614
▁来解决	-15615
▁第一条	-15616
▁第二点	-15617
▁而且他	-15618
▁蛋白质	-15619
▁说真的	-15620
▁这是对	-15621
▁进行了	-15622
▁都是由	-15623
一台电脑	-15624
上个世纪	-15625
与我们的	-15626
世界上有	-15627
个国家的	-15628
中的一员	-15629
也有一些	-15630
了解一下	-15631
人类学家	-15632
人造卫星	-15633
仍然可以	-15634
但是他们	-15635
你可以用	-15636
你的工作	-15637
做出来的	-15638
六十年代	-15639
关于这些	-15640
内心深处	-15641
到了这个	-15642
医疗系统	-15643
印象深刻	-15644
可以用来	-15645
可能会说	-15646
告诉你的	-15647
和其他的	-15648
回收利用	-15649
如何影响	-15650
如果你能	-15651
它是一种	-15652
寻找一个	-15653
就在我们	-15654
就是一种	-15655
就是如此	-15656
当我们在	-15657
很多方面	-15658
得出结论	-15659
想要什么	-15660
想象中的	-15661
我们喜欢	-15662
我的人生	-15663
我的父母	-15664
找到一种	-15665
整个系统	-15666
是因为它	-15667
更美好的	-15668
有一个小	-15669
演示一下	-15670
灾难性的	-15671
现在开始	-15672
班加罗尔	-15673
生物燃料	-15674
看到他们	-15675
知道自己	-15676
短时间内	-15677
科学技术	-15678
经济危机	-15679
能让我们	-15680
苹果公司	-15681
记录下来	-15682
讽刺的是	-15683
证据表明	-15684
该做什么	-15685
谈论的是	-15686
跨国公司	-15687
这个名字	-15688
这个研究	-15689
那样的话	-15690
随处可见	-15691
需要我们	-15692
非常容易	-15693
非洲大陆	-15694
首席执行	-15695
▁他们真的	-15696
▁你不可能	-15697
▁你不得不	-15698
▁取而代之	-15699
▁因为你们	-15700
▁因为当你	-15701
▁在他们的	-15702
▁如果你用	-15703
▁如果你要	-15704
▁如果它们	-15705
▁就是那些	-15706
▁当我们在	-15707
▁很多时候	-15708
▁成百上千	-15709
▁我们其实	-15710
▁我们对于	-15711
▁我们经常	-15712
▁我们都在	-15713
▁我现在要	-15714
▁我的同事	-15715
▁所以你们	-15716
▁然后你就	-15717
▁现在大家	-15718
▁而这正是	-15719
▁让我们来	-15720
▁还有许多	-15721
▁这些照片	-15722
▁这是什么	-15723
▁这是真的	-15724
一定程度上	-15725
不同的方法	-15726
他们的想法	-15727
以某种方式	-15728
半岛电视台	-15729
发生了变化	-15730
发生在我们	-15731
向大家介绍	-15732
团结在一起	-15733
宾夕法尼亚	-15734
展示给你们	-15735
巨大的变化	-15736
巨大的挑战	-15737
我们可以从	-15738
我们需要的	-15739
最好的朋友	-15740
有趣的东西	-15741
简单的方法	-15742
给你们看看	-15743
胰岛素抵抗	-15744
自己的生活	-15745
赛鲁士圆柱	-15746
这不是一个	-15747
高尔夫球车	-15748
▁David	-15749
▁我们的大脑	-15750
▁我开始思考	-15751
▁所以我觉得	-15752
▁有意思的是	-15753
▁让我告诉你	-15754
在这个世界上	-15755
是如何工作的	-15756
麻省理工学院	-15757
▁为什么会这样	-15758
▁我想告诉你们	-15759
59	-15760
78	-15761
?」	-15762
DA	-15763
ue	-15764
▁亿	-15765
▁吸	-15766
▁家	-15767
▁微	-15768
▁游	-15769
▁瞧	-15770
上加	-15771
下半	-15772
不易	-15773
两件	-15774
之多	-15775
乏味	-15776
书呆	-15777
书本	-15778
争辩	-15779
二极	-15780
五月	-15781
亲人	-15782
亲手	-15783
代言	-15784
优越	-15785
伪造	-15786
伯蒂	-15787
你用	-15788
全美	-15789
共处	-15790
典礼	-15791
内卢	-15792
写在	-15793
写字	-15794
农夫	-15795
出名	-15796
分半	-15797
分钱	-15798
别无	-15799
制服	-15800
刻意	-15801
动了	-15802
勃勃	-15803
去吧	-15804
发声	-15805
发放	-15806
发酵	-15807
叛乱	-15808
吉普	-15809
名是	-15810
和在	-15811
和高	-15812
哈利	-15813
喝酒	-15814
器材	-15815
四肢	-15816
园艺	-15817
图景	-15818
图象	-15819
在用	-15820
地域	-15821
场上	-15822
坚固	-15823
声响	-15824
外包	-15825
外语	-15826
多重	-15827
夺走	-15828
好笑	-15829
字幕	-15830
学着	-15831
学龄	-15832
宗旨	-15833
定时	-15834
室外	-15835
富人	-15836
尼泊	-15837
市政	-15838
年底	-15839
年青	-15840
开个	-15841
开罗	-15842
异议	-15843
弗朗	-15844
张力	-15845
形体	-15846
忙于	-15847
快点	-15848
总有	-15849
想问	-15850
成是	-15851
我家	-15852
戒指	-15853
房里	-15854
投射	-15855
抬起	-15856
拆除	-15857
拷贝	-15858
捕猎	-15859
排在	-15860
掠夺	-15861
搭配	-15862
摩西	-15863
撕开	-15864
放心	-15865
故乡	-15866
效仿	-15867
效力	-15868
日程	-15869
映射	-15870
是去	-15871
晚饭	-15872
更强	-15873
更远	-15874
木板	-15875
杂乱	-15876
查询	-15877
梅隆	-15878
欧元	-15879
死者	-15880
比利	-15881
民意	-15882
气氛	-15883
氛围	-15884
水泵	-15885
汉斯	-15886
沙粒	-15887
油砂	-15888
泰坦	-15889
派遣	-15890
浪潮	-15891
海域	-15892
海的	-15893
消逝	-15894
淋巴	-15895
清洗	-15896
湖泊	-15897
焚烧	-15898
爪子	-15899
牛的	-15900
特意	-15901
玛雅	-15902
现存	-15903
瑟夫	-15904
瓦西	-15905
疗程	-15906
痛恨	-15907
直面	-15908
相像	-15909
相近	-15910
石膏	-15911
科塔	-15912
秘鲁	-15913
称赞	-15914
空地	-15915
空闲	-15916
精通	-15917
纳森	-15918
维和	-15919
网球	-15920
美学	-15921
美食	-15922
羞辱	-15923
耶鲁	-15924
联想	-15925
肺炎	-15926
背包	-15927
臭氧	-15928
获胜	-15929
菲尔	-15930
营业	-15931
落到	-15932
蚁后	-15933
蠕虫	-15934
血清	-15935
行人	-15936
表征	-15937
衰落	-15938
被问	-15939
警示	-15940
讲完	-15941
论证	-15942
评判	-15943
误会	-15944
诱饵	-15945
读写	-15946
谁能	-15947
谋生	-15948
谚语	-15949
谦卑	-15950
贝奇	-15951
走去	-15952
走近	-15953
赶上	-15954
跑了	-15955
跳到	-15956
跳跃	-15957
身材	-15958
身高	-15959
躲在	-15960
转过	-15961
轮回	-15962
轮胎	-15963
过分	-15964
过往	-15965
迫使	-15966
通了	-15967
通话	-15968
那块	-15969
都行	-15970
钢丝	-15971
长在	-15972
长滩	-15973
闪电	-15974
阻挡	-15975
阿瑟	-15976
难忘	-15977
集会	-15978
震荡	-15979
韵律	-15980
顺着	-15981
预示	-15982
风车	-15983
饭店	-15984
马的	-15985
麦片	-15986
110	-15987
125	-15988
99%	-15989
And	-15990
FOX	-15991
ISA	-15992
Net	-15993
Ted	-15994
abb	-15995
ala	-15996
anb	-15997
orn	-15998
str	-15999
van	-16000
▁11	-16001
▁CO	-16002
▁of	-16003
▁两者	-16004
▁交通	-16005
▁享受	-16006
▁使它	-16007
▁假若	-16008
▁停止	-16009
▁则是	-16010
▁创作	-16011
▁化学	-16012
▁医学	-16013
▁反对	-16014
▁各个	-16015
▁天哪	-16016
▁它叫	-16017
▁属于	-16018
▁总结	-16019
▁想到	-16020
▁感受	-16021
▁感染	-16022
▁我以	-16023
▁我最	-16024
▁才是	-16025
▁把我	-16026
▁早上	-16027
▁是吧	-16028
▁格林	-16029
▁此刻	-16030
▁死于	-16031
▁演讲	-16032
▁独立	-16033
▁理论	-16034
▁用以	-16035
▁疟疾	-16036
▁知识	-16037
▁称为	-16038
▁统计	-16039
▁考虑	-16040
▁艾米	-16041
▁表达	-16042
▁输入	-16043
▁重要	-16044
一点是	-16045
一直是	-16046
一英里	-16047
不是个	-16048
不管你	-16049
不管是	-16050
中只有	-16051
中得到	-16052
为一体	-16053
也存在	-16054
习以为	-16055
了新的	-16056
了过来	-16057
些东西	-16058
他们很	-16059
他们用	-16060
他们还	-16061
众多的	-16062
会影响	-16063
伯蒂县	-16064
伽利略	-16065
位置上	-16066
何而来	-16067
作出了	-16068
做事情	-16069
做更多	-16070
做演讲	-16071
做生意	-16072
公平的	-16073
再回到	-16074
出发点	-16075
出来时	-16076
分享的	-16077
分钟里	-16078
到美国	-16079
区分开	-16080
医生们	-16081
千万别	-16082
卡塔尔	-16083
即使在	-16084
厨房里	-16085
去哪里	-16086
友好的	-16087
受伤的	-16088
可以使	-16089
吃什么	-16090
向世界	-16091
吓坏了	-16092
唯一能	-16093
喝咖啡	-16094
在你们	-16095
在其他	-16096
在空中	-16097
太阳光	-16098
奥地利	-16099
女人们	-16100
如何在	-16101
孩子在	-16102
它们都	-16103
安慰剂	-16104
完完全	-16105
实用的	-16106
家庭中	-16107
对他说	-16108
对环境	-16109
将这种	-16110
小型的	-16111
少量的	-16112
就这么	-16113
左右的	-16114
布莱恩	-16115
年后的	-16116
庸置疑	-16117
当你们	-16118
很危险	-16119
怎么想	-16120
怎么能	-16121
性疾病	-16122
性问题	-16123
情形下	-16124
我们让	-16125
我对此	-16126
我要说	-16127
房间的	-16128
所吸引	-16129
所有权	-16130
所用的	-16131
手中的	-16132
持久的	-16133
提升了	-16134
摄影机	-16135
支持的	-16136
政治上	-16137
数据和	-16138
新科技	-16139
无意中	-16140
是错的	-16141
更美好	-16142
有一百	-16143
有了个	-16144
有名的	-16145
有某种	-16146
有限的	-16147
本科生	-16148
权利的	-16149
歌颂爱	-16150
正式的	-16151
死去的	-16152
每一年	-16153
每件事	-16154
比现在	-16155
污染的	-16156
深深地	-16157
混乱的	-16158
渐渐地	-16159
灰色的	-16160
热内卢	-16161
然后你	-16162
现在有	-16163
番茄酱	-16164
的一刻	-16165
的一步	-16166
的心态	-16167
的愿望	-16168
的景象	-16169
的简单	-16170
的细节	-16171
的距离	-16172
的长度	-16173
的飞机	-16174
相关联	-16175
真的想	-16176
社会上	-16177
第三种	-16178
精神上	-16179
精神的	-16180
纯粹的	-16181
绝妙的	-16182
群体中	-16183
而且是	-16184
而我们	-16185
胰腺癌	-16186
自给自	-16187
英尺长	-16188
董事会	-16189
蒙特雷	-16190
被使用	-16191
西海岸	-16192
观众们	-16193
认知的	-16194
认识的	-16195
让我的	-16196
证实了	-16197
译者注	-16198
该怎么	-16199
说实话	-16200
请你们	-16201
跟你说	-16202
还有些	-16203
这个的	-16204
这些话	-16205
这幅图	-16206
这真是	-16207
适应性	-16208
透明度	-16209
长出来	-16210
长长的	-16211
问题呢	-16212
震惊了	-16213
驾驶员	-16214
1989	-16215
kype	-16216
▁不久前	-16217
▁两年前	-16218
▁主要是	-16219
▁他只是	-16220
▁但你们	-16221
▁你们会	-16222
▁做一个	-16223
▁其中有	-16224
▁即使你	-16225
▁可以把	-16226
▁在任何	-16227
▁在纽约	-16228
▁大规模	-16229
▁对那些	-16230
▁就是把	-16231
▁年轻人	-16232
▁建筑师	-16233
▁当一个	-16234
▁很容易	-16235
▁我不再	-16236
▁我们已	-16237
▁我只能	-16238
▁我妻子	-16239
▁我想到	-16240
▁我最后	-16241
▁我研究	-16242
▁我肯定	-16243
▁提供了	-16244
▁是这个	-16245
▁有两个	-16246
▁正因为	-16247
▁比我们	-16248
▁消费者	-16249
▁然后它	-16250
▁现在它	-16251
▁类似于	-16252
▁结果呢	-16253
▁而它们	-16254
▁这位是	-16255
▁这有点	-16256
▁那样的	-16257
一种叫做	-16258
中东地区	-16259
九十年代	-16260
他们开始	-16261
他自己的	-16262
做出反应	-16263
出了一个	-16264
动物身上	-16265
医疗服务	-16266
十分重要	-16267
协作消费	-16268
原因之一	-16269
发现一些	-16270
发现自己	-16271
发生的是	-16272
变成现实	-16273
只是为了	-16274
可以利用	-16275
可持续的	-16276
各不相同	-16277
同时也是	-16278
啦哩啦啦	-16279
在了一起	-16280
如何处理	-16281
孟加拉国	-16282
对于那些	-16283
屏幕上的	-16284
成为现实	-16285
我们之前	-16286
我们曾经	-16287
我们相信	-16288
我称之为	-16289
所造成的	-16290
把所有的	-16291
把注意力	-16292
把钱花在	-16293
政策制定	-16294
是相同的	-16295
是第一个	-16296
更多的是	-16297
有一件事	-16298
有价值的	-16299
有所作为	-16300
歌颂生命	-16301
正在做的	-16302
没人知道	-16303
现在这样	-16304
用他们的	-16305
的一本书	-16306
的主题是	-16307
的事情了	-16308
的第一天	-16309
直升飞机	-16310
种族屠杀	-16311
积极情绪	-16312
肢体语言	-16313
自己身上	-16314
裔美国人	-16315
认识的人	-16316
让我们来	-16317
这一现象	-16318
这个方法	-16319
这个机会	-16320
需要什么	-16321
非常令人	-16322
非常喜欢	-16323
非常相似	-16324
马上就要	-16325
▁2010	-16326
▁Romo	-16327
▁一个女人	-16328
▁于是我说	-16329
▁什么样的	-16330
▁他们喜欢	-16331
▁他们就是	-16332
▁但事实是	-16333
▁如果你看	-16334
▁很多人都	-16335
▁我们不仅	-16336
▁我们不想	-16337
▁我们还是	-16338
▁我想我们	-16339
▁所以人们	-16340
▁比如这个	-16341
▁然后开始	-16342
▁而是我们	-16343
▁艾德里安	-16344
▁这些事情	-16345
▁那么现在	-16346
一个巨大的	-16347
三分之一的	-16348
中的一部分	-16349
什么也没有	-16350
华盛顿特区	-16351
各种不同的	-16352
展示给大家	-16353
得到了一个	-16354
我也不知道	-16355
我们的研究	-16356
是怎么样的	-16357
更多的时间	-16358
更好的生活	-16359
没有人知道	-16360
生活在一起	-16361
的一张照片	-16362
的原因之一	-16363
简单的事情	-16364
类似的事情	-16365
诸如此类的	-16366
里约热内卢	-16367
非致命武器	-16368
首席执行官	-16369
▁但是当我们	-16370
▁如果你觉得	-16371
▁我们可以把	-16372
▁我们在这里	-16373
▁所以我们要	-16374
▁而不仅仅是	-16375
▁这不是一个	-16376
▁这对我来说	-16377
▁这张照片是	-16378
▁顺便提一下	-16379
,6	-16380
.)	-16381
52	-16382
9%	-16383
SE	-16384
be	-16385
ct	-16386
ka	-16387
uk	-16388
――	-16389
▁乘	-16390
▁事	-16391
▁交	-16392
▁冰	-16393
▁千	-16394
▁变	-16395
▁性	-16396
▁毛	-16397
▁祝	-16398
▁首	-16399
一瓶	-16400
万到	-16401
万名	-16402
下周	-16403
不开	-16404
专心	-16405
丝绸	-16406
严厉	-16407
为她	-16408
主妇	-16409
之大	-16410
乐曲	-16411
也都	-16412
买的	-16413
了在	-16414
从一	-16415
他又	-16416
他对	-16417
他将	-16418
代夫	-16419
代币	-16420
会用	-16421
传奇	-16422
传教	-16423
你都	-16424
倒退	-16425
借此	-16426
先知	-16427
公约	-16428
列颠	-16429
刚从	-16430
利桑	-16431
到此	-16432
前途	-16433
动荡	-16434
勉强	-16435
募集	-16436
午夜	-16437
协定	-16438
单个	-16439
卫报	-16440
印尼	-16441
去听	-16442
参赛	-16443
发症	-16444
发自	-16445
只好	-16446
召开	-16447
台湾	-16448
吃到	-16449
各处	-16450
各州	-16451
后续	-16452
向后	-16453
向着	-16454
听的	-16455
听闻	-16456
周前	-16457
命中	-16458
咀嚼	-16459
哈哈	-16460
哥们	-16461
固醇	-16462
圆点	-16463
在新	-16464
在有	-16465
在水	-16466
埃尔	-16467
城里	-16468
士尼	-16469
外来	-16470
天里	-16471
夫妻	-16472
失效	-16473
嬉皮	-16474
孕妇	-16475
它对	-16476
定理	-16477
尤为	-16478
就从	-16479
屈服	-16480
屏气	-16481
岁到	-16482
左侧	-16483
布局	-16484
干脆	-16485
并肩	-16486
开到	-16487
弄清	-16488
张开	-16489
张贴	-16490
强力	-16491
强化	-16492
当她	-16493
忙着	-16494
总数	-16495
情人	-16496
感同	-16497
感触	-16498
我先	-16499
我给	-16500
或不	-16501
战火	-16502
所得	-16503
执照	-16504
投弹	-16505
拍打	-16506
招呼	-16507
拼写	-16508
推行	-16509
搅拌	-16510
摇篮	-16511
摸索	-16512
收回	-16513
改编	-16514
放着	-16515
时段	-16516
是会	-16517
暴龙	-16518
更早	-16519
最小	-16520
期的	-16521
杆菌	-16522
柏拉	-16523
柠檬	-16524
横渡	-16525
死在	-16526
每位	-16527
毛病	-16528
气囊	-16529
气管	-16530
没被	-16531
洞里	-16532
澳洲	-16533
点亮	-16534
点钟	-16535
热水	-16536
照相	-16537
特色	-16538
犯人	-16539
独处	-16540
独角	-16541
狭窄	-16542
玩乐	-16543
环球	-16544
生动	-16545
画布	-16546
留着	-16547
登记	-16548
的在	-16549
的山	-16550
盗版	-16551
盟友	-16552
确是	-16553
祈求	-16554
神庙	-16555
稀奇	-16556
穿行	-16557
突起	-16558
童话	-16559
简历	-16560
管它	-16561
粉色	-16562
粘土	-16563
糖的	-16564
素的	-16565
红利	-16566
红外	-16567
红点	-16568
纳入	-16569
纳尔	-16570
罗毕	-16571
翻倍	-16572
而成	-16573
自觉	-16574
船的	-16575
芭比	-16576
范式	-16577
莫扎	-16578
蓝光	-16579
蓬勃	-16580
薯条	-16581
血统	-16582
行进	-16583
被关	-16584
视作	-16585
触角	-16586
计时	-16587
访者	-16588
证词	-16589
诱导	-16590
贝壳	-16591
责备	-16592
账单	-16593
赤脚	-16594
起伏	-16595
跟他	-16596
跳下	-16597
身受	-16598
辍学	-16599
近乎	-16600
近了	-16601
还想	-16602
这头	-16603
这笔	-16604
这股	-16605
迫切	-16606
造物	-16607
道格	-16608
遗留	-16609
配置	-16610
采纳	-16611
里根	-16612
钻探	-16613
长官	-16614
闪闪	-16615
闻到	-16616
阵营	-16617
阻力	-16618
阻塞	-16619
阿姨	-16620
露脊	-16621
非得	-16622
韧性	-16623
顶上	-16624
飞向	-16625
高层	-16626
黎明	-16627
App	-16628
Mat	-16629
ann	-16630
eah	-16631
ean	-16632
edd	-16633
enb	-16634
ham	-16635
iam	-16636
ier	-16637
ire	-16638
reg	-16639
rey	-16640
une	-16641
▁14	-16642
▁70	-16643
▁Jo	-16644
▁SJ	-16645
▁Sm	-16646
▁de	-16647
▁in	-16648
▁人体	-16649
▁他要	-16650
▁以致	-16651
▁伦敦	-16652
▁你可	-16653
▁促使	-16654
▁再说	-16655
▁反之	-16656
▁呈现	-16657
▁在最	-16658
▁坚持	-16659
▁塑料	-16660
▁它使	-16661
▁就得	-16662
▁年轻	-16663
▁彻底	-16664
▁恢复	-16665
▁成本	-16666
▁我一	-16667
▁我总	-16668
▁我看	-16669
▁抱歉	-16670
▁放弃	-16671
▁数量	-16672
▁是他	-16673
▁是啊	-16674
▁来看	-16675
▁正确	-16676
▁漫画	-16677
▁眼睛	-16678
▁科勒	-16679
▁联系	-16680
▁覆盖	-16681
▁说服	-16682
▁说道	-16683
▁贝索	-16684
▁跨越	-16685
▁重点	-16686
▁随便	-16687
一次性	-16688
下一次	-16689
不可知	-16690
不可见	-16691
不能够	-16692
与一个	-16693
与世界	-16694
世上最	-16695
世界观	-16696
中学习	-16697
为世界	-16698
为中心	-16699
也包括	-16700
也应该	-16701
了一块	-16702
了一次	-16703
了那些	-16704
二进制	-16705
于我们	-16706
人来说	-16707
会更好	-16708
会遇到	-16709
伯克利	-16710
但是它	-16711
例子是	-16712
保存在	-16713
全都是	-16714
几内亚	-16715
到哪里	-16716
到最后	-16717
前苏联	-16718
医生的	-16719
卫生巾	-16720
去上学	-16721
发现它	-16722
口语诗	-16723
和世界	-16724
和政府	-16725
和未来	-16726
和网络	-16727
和行为	-16728
哥白尼	-16729
回家了	-16730
国家中	-16731
圣保罗	-16732
在一些	-16733
在今天	-16734
地认为	-16735
基贝拉	-16736
堪萨斯	-16737
外面的	-16738
多余的	-16739
多的人	-16740
大使馆	-16741
大家伙	-16742
大约在	-16743
天生的	-16744
太空中	-16745
她是个	-16746
妇女们	-16747
妇女和	-16748
它将会	-16749
安德鲁	-16750
封闭的	-16751
就能够	-16752
巧妙的	-16753
帮他们	-16754
底部的	-16755
开源的	-16756
引人注	-16757
当前的	-16758
很成功	-16759
心中的	-16760
忍不住	-16761
意识地	-16762
我们才	-16763
我们被	-16764
我想象	-16765
我把它	-16766
我记得	-16767
所以你	-16768
手术室	-16769
打破了	-16770
把信息	-16771
把椅子	-16772
推出了	-16773
提醒你	-16774
操作的	-16775
收集到	-16776
政府和	-16777
时间了	-16778
昆虫的	-16779
是那些	-16780
是需要	-16781
更快乐	-16782
更深入	-16783
有很大	-16784
橡皮泥	-16785
比以往	-16786
比赛中	-16787
比较好	-16788
永远都	-16789
沉迷于	-16790
没有了	-16791
演化的	-16792
爱上了	-16793
瓶子里	-16794
电视剧	-16795
电路板	-16796
的一座	-16797
的人工	-16798
的作者	-16799
的区别	-16800
的原理	-16801
的后果	-16802
的地位	-16803
的小镇	-16804
的希望	-16805
的思维	-16806
的成绩	-16807
的条件	-16808
的案例	-16809
的潜力	-16810
的用户	-16811
的画面	-16812
的节目	-16813
的象征	-16814
的需要	-16815
目击者	-16816
看作是	-16817
着迷于	-16818
知道他	-16819
私人的	-16820
第二大	-16821
经验的	-16822
维度的	-16823
老师的	-16824
而改变	-16825
自以为	-16826
被动的	-16827
角色的	-16828
让一个	-16829
说服力	-16830
趋向于	-16831
达尔富	-16832
运用在	-16833
这的确	-16834
这真的	-16835
这笔钱	-16836
造一个	-16837
造就了	-16838
遇到过	-16839
那一年	-16840
颗恒星	-16841
马萨诸	-16842
鼓掌声	-16843
SETI	-16844
ling	-16845
▁80%	-16846
▁Kat	-16847
▁一切都	-16848
▁乌尔曼	-16849
▁于是在	-16850
▁从这里	-16851
▁他说他	-16852
▁但真正	-16853
▁你们能	-16854
▁你肯定	-16855
▁墨西哥	-16856
▁如果要	-16857
▁它不会	-16858
▁它们能	-16859
▁它是个	-16860
▁将它们	-16861
▁工程师	-16862
▁并开始	-16863
▁我仍然	-16864
▁我完全	-16865
▁我对此	-16866
▁我要说	-16867
▁我还想	-16868
▁我选择	-16869
▁所以从	-16870
▁所以呢	-16871
▁是时候	-16872
▁来实现	-16873
▁每当我	-16874
▁现在在	-16875
▁相信我	-16876
▁至少在	-16877
▁艺术家	-16878
▁让它们	-16879
▁这句话	-16880
▁这是你	-16881
▁这首歌	-16882
▁非洲的	-16883
一样的人	-16884
万美元的	-16885
下一代的	-16886
不一样了	-16887
不信由你	-16888
个性化的	-16889
中看到的	-16890
也可能是	-16891
习以为常	-16892
交响乐团	-16893
他们必须	-16894
他们知道	-16895
他们身上	-16896
他的儿子	-16897
任何人都	-16898
你不知道	-16899
你是不是	-16900
做出决定	-16901
允许我们	-16902
公立学校	-16903
其实不是	-16904
兹勒先生	-16905
再也没有	-16906
博物馆里	-16907
可以实现	-16908
同情心的	-16909
国家安全	-16910
在世界上	-16911
在这样的	-16912
地球上最	-16913
塞尔维亚	-16914
大不了的	-16915
头脑风暴	-16916
奥克福德	-16917
如果你的	-16918
如果有人	-16919
尝试一下	-16920
就是为了	-16921
就知道了	-16922
年代后期	-16923
很多时间	-16924
很多问题	-16925
得到这些	-16926
惊奇的是	-16927
我们就是	-16928
我们总是	-16929
我很高兴	-16930
我的同事	-16931
我第一次	-16932
截然不同	-16933
找到这些	-16934
技术人员	-16935
把它放到	-16936
整个宇宙	-16937
是不可能	-16938
是在一个	-16939
有一些人	-16940
有了这些	-16941
有的时候	-16942
来的时候	-16943
核反应堆	-16944
死亡人数	-16945
段时间里	-16946
毫无意义	-16947
治疗癌症	-16948
活生生的	-16949
消费者的	-16950
生命中最	-16951
生命周期	-16952
生物材料	-16953
的大规模	-16954
的帮助下	-16955
的死亡率	-16956
真的很棒	-16957
知识产权	-16958
短期记忆	-16959
石油公司	-16960
精神病院	-16961
自然界中	-16962
航空航天	-16963
解放出来	-16964
讽刺意味	-16965
该怎么做	-16966
购物中心	-16967
这个事情	-16968
这个区域	-16969
这个家伙	-16970
这种事情	-16971
通过这个	-16972
道德问题	-16973
ipcar	-16974
ratch	-16975
▁2007	-16976
▁2009	-16977
▁什么时候	-16978
▁他们中的	-16979
▁他们可能	-16980
▁他们应该	-16981
▁他们来自	-16982
▁你看到的	-16983
▁只有这样	-16984
▁只要我们	-16985
▁同时我也	-16986
▁因为我是	-16987
▁因为这种	-16988
▁因为那些	-16989
▁因为那是	-16990
▁就会发现	-16991
▁当我开始	-16992
▁当我看到	-16993
▁我不需要	-16994
▁我们做了	-16995
▁我们在这	-16996
▁我们当然	-16997
▁我们怎样	-16998
▁我们才能	-16999
▁我们曾经	-17000
▁我们最终	-17001
▁我只是想	-17002
▁或者一个	-17003
▁所以今天	-17004
▁正是因为	-17005
▁而不只是	-17006
▁而且这些	-17007
▁这不仅仅	-17008
▁这个就是	-17009
▁这个方法	-17010
▁这个网站	-17011
▁这些动物	-17012
▁这些是我	-17013
▁这些细胞	-17014
▁这是一场	-17015
▁这是其中	-17016
▁这样他们	-17017
▁这真的是	-17018
人们的生活	-17019
仅仅是一个	-17020
出来的时候	-17021
创建了一个	-17022
基本上就是	-17023
学到的东西	-17024
实实在在的	-17025
我们为什么	-17026
我们的经济	-17027
所有的事情	-17028
斯坦福大学	-17029
有什么意义	-17030
激动人心的	-17031
百分之五十	-17032
的工作人员	-17033
的工作方式	-17034
的问题在于	-17035
逆转录病毒	-17036
▁他们不知道	-17037
▁但是事实上	-17038
▁因为我们在	-17039
▁在座的各位	-17040
▁如果我们要	-17041
▁我们不应该	-17042
▁我们把这些	-17043
▁所以你可以	-17044
▁所以我们就	-17045
▁这里有一些	-17046
会是什么样子	-17047
联系在一起的	-17048
▁亚当奥克福德	-17049
▁女士们先生们	-17050
▁如果你是一个	-17051
▁所以我们必须	-17052
▁这样我们就能	-17053
▁Facebook	-17054
,,	-17055
.2	-17056
41	-17057
67	-17058
7%	-17059
EC	-17060
IP	-17061
me	-17062
ox	-17063
ts	-17064
▁y	-17065
▁停	-17066
▁印	-17067
▁抑	-17068
▁穷	-17069
▁较	-17070
一丝	-17071
一方	-17072
一棵	-17073
万一	-17074
三四	-17075
上都	-17076
下巴	-17077
下滑	-17078
不利	-17079
两可	-17080
丰田	-17081
为其	-17082
为它	-17083
为这	-17084
丽尔	-17085
了对	-17086
争执	-17087
仰望	-17088
休假	-17089
伟业	-17090
伽罗	-17091
余生	-17092
你真	-17093
修斯	-17094
假死	-17095
假说	-17096
偏僻	-17097
停顿	-17098
充气	-17099
全心	-17100
公顷	-17101
共通	-17102
兼容	-17103
兽医	-17104
内涵	-17105
再也	-17106
再看	-17107
列车	-17108
利昂	-17109
剥削	-17110
力度	-17111
加深	-17112
加索	-17113
助理	-17114
升温	-17115
卓琴	-17116
即是	-17117
却被	-17118
厄尔	-17119
厌烦	-17120
去见	-17121
可悲	-17122
后就	-17123
后者	-17124
告别	-17125
和不	-17126
和对	-17127
和新	-17128
哈马	-17129
唱诗	-17130
喂食	-17131
喷洒	-17132
围栏	-17133
图示	-17134
圣母	-17135
地中	-17136
地外	-17137
垄断	-17138
基准	-17139
填写	-17140
复发	-17141
夏季	-17142
外向	-17143
大叫	-17144
天呐	-17145
天敌	-17146
头绪	-17147
头鲸	-17148
夸大	-17149
契尼	-17150
好啊	-17151
妓女	-17152
委托	-17153
威利	-17154
字面	-17155
学徒	-17156
宁静	-17157
守护	-17158
官司	-17159
室友	-17160
小额	-17161
尼诺	-17162
屏蔽	-17163
山丘	-17164
巨人	-17165
幼稚	-17166
弦琴	-17167
很早	-17168
德华	-17169
快地	-17170
恒温	-17171
我这	-17172
战役	-17173
找了	-17174
找回	-17175
把水	-17176
捉摸	-17177
捷径	-17178
掌上	-17179
撇子	-17180
攀岩	-17181
攀爬	-17182
文艺	-17183
无止	-17184
时就	-17185
曝光	-17186
有何	-17187
末端	-17188
来听	-17189
查找	-17190
格言	-17191
格里	-17192
模棱	-17193
模特	-17194
歇尔	-17195
此事	-17196
步入	-17197
残骸	-17198
母牛	-17199
每晚	-17200
汲取	-17201
河里	-17202
油轮	-17203
淘金	-17204
游牧	-17205
湿地	-17206
激增	-17207
点点	-17208
熟知	-17209
爱国	-17210
狗狗	-17211
狠狠	-17212
率的	-17213
王蛇	-17214
玩儿	-17215
珍妮	-17216
珍珠	-17217
瓶盖	-17218
甲虫	-17219
瘟疫	-17220
白痴	-17221
白血	-17222
的多	-17223
皇后	-17224
睁开	-17225
矩阵	-17226
祸首	-17227
离家	-17228
稀有	-17229
粗略	-17230
精致	-17231
素食	-17232
纳契	-17233
罪魁	-17234
罹患	-17235
老天	-17236
老爸	-17237
聘请	-17238
能使	-17239
脱口	-17240
脱落	-17241
草甸	-17242
药的	-17243
萦绕	-17244
萨克	-17245
萨里	-17246
蝌蚪	-17247
街角	-17248
补偿	-17249
补助	-17250
装在	-17251
装箱	-17252
观赏	-17253
规章	-17254
解脱	-17255
记号	-17256
讲演	-17257
讲解	-17258
讲课	-17259
诉说	-17260
谈过	-17261
象牙	-17262
赚了	-17263
赚到	-17264
赞扬	-17265
超声	-17266
跨度	-17267
轻重	-17268
过得	-17269
迷恋	-17270
透镜	-17271
道而	-17272
道菜	-17273
那又	-17274
邮票	-17275
郁闷	-17276
金额	-17277
错过	-17278
镜像	-17279
长了	-17280
问世	-17281
阶梯	-17282
随心	-17283
领带	-17284
飞来	-17285
高出	-17286
高地	-17287
鲍鱼	-17288
,19	-17289
Bri	-17290
eth	-17291
ond	-17292
ros	-17293
▁13	-17294
▁Ma	-17295
▁RG	-17296
▁一台	-17297
▁不停	-17298
▁不如	-17299
▁二十	-17300
▁五个	-17301
▁人工	-17302
▁依然	-17303
▁依靠	-17304
▁其一	-17305
▁刘旭	-17306
▁即将	-17307
▁去看	-17308
▁反正	-17309
▁吸引	-17310
▁和对	-17311
▁圣经	-17312
▁失去	-17313
▁它从	-17314
▁它让	-17315
▁年龄	-17316
▁心脏	-17317
▁患有	-17318
▁情感	-17319
▁想法	-17320
▁承认	-17321
▁提取	-17322
▁教师	-17323
▁数以	-17324
▁无线	-17325
▁明年	-17326
▁机械	-17327
▁极其	-17328
▁气候	-17329
▁法国	-17330
▁离开	-17331
▁等于	-17332
▁罗宾	-17333
▁而她	-17334
▁要想	-17335
▁觉得	-17336
▁试验	-17337
▁距离	-17338
▁这能	-17339
▁透过	-17340
▁金融	-17341
▁降低	-17342
▁集中	-17343
▁项目	-17344
一整天	-17345
一瞬间	-17346
一起去	-17347
一首歌	-17348
上传到	-17349
上升到	-17350
上面有	-17351
下降到	-17352
不在于	-17353
不够的	-17354
不平衡	-17355
不见了	-17356
不认为	-17357
不重要	-17358
两年内	-17359
个星期	-17360
个月的	-17361
中寻找	-17362
为单位	-17363
也是最	-17364
也随之	-17365
了一本	-17366
亚利桑	-17367
些时间	-17368
人类和	-17369
什么也	-17370
他们去	-17371
他们把	-17372
传播到	-17373
体系中	-17374
你一定	-17375
你是个	-17376
停留在	-17377
储存在	-17378
儿子的	-17379
关系到	-17380
养蜂人	-17381
写博客	-17382
决定性	-17383
几百个	-17384
出租车	-17385
出这个	-17386
前列腺	-17387
功能性	-17388
加入到	-17389
加速器	-17390
十年来	-17391
单纯的	-17392
南部的	-17393
原因的	-17394
原有的	-17395
去创造	-17396
变革的	-17397
口哨声	-17398
另一组	-17399
各式各	-17400
和女人	-17401
和服务	-17402
唱诗班	-17403
国会议	-17404
国务卿	-17405
在不断	-17406
在自己	-17407
在街上	-17408
在这条	-17409
在这片	-17410
地工作	-17411
地改变	-17412
场战争	-17413
外交家	-17414
大公司	-17415
太小了	-17416
头脑中	-17417
她已经	-17418
学术界	-17419
实时的	-17420
对照组	-17421
就需要	-17422
尼尔森	-17423
尼泊尔	-17424
巴拉克	-17425
巴拉维	-17426
希特勒	-17427
年长的	-17428
广告牌	-17429
当时在	-17430
很多次	-17431
很擅长	-17432
很漂亮	-17433
很糟糕	-17434
德国人	-17435
心协力	-17436
忽视了	-17437
想做的	-17438
意志力	-17439
成人的	-17440
我们先	-17441
我们已	-17442
我其实	-17443
我女儿	-17444
我就要	-17445
我所能	-17446
拍摄了	-17447
挑战是	-17448
排放的	-17449
收到的	-17450
文化和	-17451
新泽西	-17452
新鲜的	-17453
方向盘	-17454
时每刻	-17455
时间去	-17456
是这些	-17457
替代品	-17458
有一台	-17459
有个人	-17460
有关系	-17461
有智慧	-17462
有这样	-17463
本地的	-17464
来代替	-17465
来参加	-17466
来衡量	-17467
来说说	-17468
极高的	-17469
架飞机	-17470
每一种	-17471
每分钟	-17472
比起来	-17473
没有用	-17474
活下去	-17475
游泳池	-17476
源代码	-17477
激烈的	-17478
烤面包	-17479
牛仔裤	-17480
猜怎么	-17481
猴子们	-17482
环保的	-17483
班卓琴	-17484
理解它	-17485
生产者	-17486
生命之	-17487
电影里	-17488
男性的	-17489
留下来	-17490
登革热	-17491
百万个	-17492
的一块	-17493
的一部	-17494
的人中	-17495
的动机	-17496
的各种	-17497
的味道	-17498
的地下	-17499
的地点	-17500
的实际	-17501
的对话	-17502
的开端	-17503
的感受	-17504
的控制	-17505
的时机	-17506
的智慧	-17507
的标志	-17508
的法律	-17509
的背后	-17510
的记忆	-17511
的趋势	-17512
的这种	-17513
的都是	-17514
相对的	-17515
看世界	-17516
看成是	-17517
看的话	-17518
看着它	-17519
确实有	-17520
科技和	-17521
第三方	-17522
糟糕了	-17523
糟透了	-17524
紫色的	-17525
红外线	-17526
能通过	-17527
脑袋里	-17528
航天器	-17529
芥末酱	-17530
行动的	-17531
被视为	-17532
计算的	-17533
让孩子	-17534
设备的	-17535
设计中	-17536
谈论它	-17537
象征着	-17538
走过去	-17539
身后的	-17540
还有人	-17541
还活着	-17542
这其中	-17543
这是你	-17544
这条路	-17545
这确实	-17546
违法的	-17547
通用的	-17548
道路上	-17549
都一样	-17550
都会被	-17551
都是很	-17552
里兰卡	-17553
集体的	-17554
非常不	-17555
领导的	-17556
风险的	-17557
驱动力	-17558
1800	-17559
Alex	-17560
bert	-17561
iPad	-17562
▁and	-17563
▁与我们	-17564
▁也可能	-17565
▁他没有	-17566
▁他知道	-17567
▁但后来	-17568
▁但至少	-17569
▁你想要	-17570
▁六个月	-17571
▁可持续	-17572
▁大家好	-17573
▁奥巴马	-17574
▁对这些	-17575
▁就像你	-17576
▁很简单	-17577
▁成为了	-17578
▁我从没	-17579
▁我们曾	-17580
▁我就在	-17581
▁我本来	-17582
▁我来自	-17583
▁我爸爸	-17584
▁我还在	-17585
▁我问他	-17586
▁接着我	-17587
▁每一种	-17588
▁每年有	-17589
▁现如今	-17590
▁目的是	-17591
▁相同的	-17592
▁而且也	-17593
▁而当你	-17594
▁自闭症	-17595
▁请大家	-17596
▁请记住	-17597
▁这些事	-17598
▁这当然	-17599
▁这部分	-17600
▁那不是	-17601
▁那个人	-17602
▁那你就	-17603
▁里面有	-17604
一段视频	-17605
万亿美元	-17606
不是很好	-17607
世界级的	-17608
两个星期	-17609
个小时的	-17610
为人知的	-17611
也很重要	-17612
也有很多	-17613
人们开始	-17614
人口增长	-17615
什么样子	-17616
从中学到	-17617
从哪里来	-17618
他们只是	-17619
任何其他	-17620
会告诉你	-17621
会有一个	-17622
但是我们	-17623
住的地方	-17624
保护我们	-17625
做任何事	-17626
做出改变	-17627
健康状况	-17628
冰山一角	-17629
制药公司	-17630
北卡罗来	-17631
卫生保健	-17632
变得如此	-17633
只不过是	-17634
和阿富汗	-17635
团结起来	-17636
在做什么	-17637
在美国的	-17638
基里巴斯	-17639
如果你是	-17640
宇宙飞船	-17641
完全一样	-17642
就会发现	-17643
并不存在	-17644
开始考虑	-17645
得到一些	-17646
意大利的	-17647
我们只能	-17648
我们这些	-17649
我们通常	-17650
我并没有	-17651
我想说的	-17652
我的声音	-17653
担心的是	-17654
搜索结果	-17655
斐波纳契	-17656
是世界上	-17657
是免费的	-17658
是另一个	-17659
是可行的	-17660
显微镜下	-17661
有些事情	-17662
有些时候	-17663
模棱两可	-17664
毋庸置疑	-17665
每一件事	-17666
汽车座椅	-17667
浪费时间	-17668
环境问题	-17669
甚至可以	-17670
生物科技	-17671
用我们的	-17672
电话号码	-17673
的土地上	-17674
的方法来	-17675
相互联系	-17676
眼镜王蛇	-17677
知道他们	-17678
神经元的	-17679
移动电话	-17680
站在那里	-17681
竞争对手	-17682
竭尽全力	-17683
纳米贴片	-17684
绝大部分	-17685
罪魁祸首	-17686
而产生的	-17687
而是一个	-17688
肯尼亚的	-17689
能够改变	-17690
自我复制	-17691
自然资源	-17692
英尺高的	-17693
视而不见	-17694
计划生育	-17695
认知能力	-17696
越来越大	-17697
达赖喇嘛	-17698
还在继续	-17699
这个例子	-17700
这个建筑	-17701
这很重要	-17702
这真的是	-17703
这篇文章	-17704
连在一起	-17705
那么大的	-17706
那么重要	-17707
都是为了	-17708
都是非常	-17709
重新开始	-17710
问题在于	-17711
阿特拉津	-17712
马萨诸塞	-17713
Steve	-17714
▁一个叫做	-17715
▁世界各地	-17716
▁也许你会	-17717
▁他们通过	-17718
▁以及他们	-17719
▁但当我们	-17720
▁但我们的	-17721
▁但是今天	-17722
▁全世界的	-17723
▁其中包括	-17724
▁即使是在	-17725
▁只有一个	-17726
▁因为那里	-17727
▁在全世界	-17728
▁如果你有	-17729
▁如果你问	-17730
▁就是为了	-17731
▁帮助他们	-17732
▁并且可以	-17733
▁当你看到	-17734
▁想像一下	-17735
▁感谢大家	-17736
▁我们中的	-17737
▁我们也在	-17738
▁我们以为	-17739
▁我们每天	-17740
▁我在那里	-17741
▁我想谈谈	-17742
▁是我们的	-17743
▁有一件事	-17744
▁有些时候	-17745
▁然后它们	-17746
▁直到现在	-17747
▁能让我们	-17748
▁这些故事	-17749
▁这是人类	-17750
▁这有点像	-17751
▁那是我们	-17752
不同的东西	-17753
世界范围内	-17754
了一个问题	-17755
二氧化碳的	-17756
向你们介绍	-17757
在这个国家	-17758
实际上就是	-17759
对他们来说	-17760
巴拉维契尼	-17761
恐怖主义的	-17762
我们也可以	-17763
我们可以把	-17764
我们得到了	-17765
我们所有的	-17766
我们的政府	-17767
我们的文化	-17768
我们的祖先	-17769
所有的一切	-17770
数以千计的	-17771
有什么东西	-17772
正在发生的	-17773
珠穆朗玛峰	-17774
生态系统的	-17775
的事情之一	-17776
自己的身体	-17777
这个问题上	-17778
这是我们的	-17779
这样的方式	-17780
阿姆斯特丹	-17781
Flickr	-17782
indows	-17783
▁因为他们的	-17784
▁我们可能会	-17785
▁我们把这个	-17786
▁我最喜欢的	-17787
▁所以我们想	-17788
▁然后我开始	-17789
▁那么为什么	-17790
国民生产总值	-17791
是一个巨大的	-17792
▁但更重要的是	-17793
▁我可以告诉你	-17794
▁德里克巴拉维契尼	-17795
,1	-17796
76	-17797
96	-17798
AC	-17799
HA	-17800
US	-17801
ge	-17802
▁何	-17803
▁促	-17804
▁偷	-17805
▁列	-17806
▁德	-17807
▁普	-17808
▁皮	-17809
▁纵	-17810
▁轻	-17811
一两	-17812
一体	-17813
一双	-17814
七岁	-17815
三岁	-17816
上层	-17817
上空	-17818
下台	-17819
下游	-17820
下落	-17821
下车	-17822
不懈	-17823
不顾	-17824
东尼	-17825
两人	-17826
两国	-17827
两大	-17828
两极	-17829
中断	-17830
主任	-17831
之手	-17832
也用	-17833
书面	-17834
交织	-17835
人来	-17836
仿真	-17837
企图	-17838
伤亡	-17839
体上	-17840
体外	-17841
你还	-17842
侵权	-17843
信片	-17844
僧侣	-17845
克兰	-17846
入睡	-17847
入胜	-17848
八千	-17849
公海	-17850
公认	-17851
六千	-17852
再多	-17853
冒犯	-17854
冰洋	-17855
凯特	-17856
凶手	-17857
出人	-17858
出身	-17859
切成	-17860
前线	-17861
加剧	-17862
勒冈	-17863
十月	-17864
十足	-17865
升降	-17866
占地	-17867
卡斯	-17868
即可	-17869
卷入	-17870
原生	-17871
双臂	-17872
反击	-17873
反面	-17874
变大	-17875
可控	-17876
台灯	-17877
向往	-17878
呵呵	-17879
和手	-17880
和有	-17881
嘴唇	-17882
围着	-17883
图纸	-17884
图解	-17885
境内	-17886
壁垒	-17887
复印	-17888
外壳	-17889
多余	-17890
多米	-17891
大批	-17892
太难	-17893
奴役	-17894
好啦	-17895
娶我	-17896
嫌疑	-17897
它和	-17898
安然	-17899
定价	-17900
家门	-17901
寺庙	-17902
寿司	-17903
尽了	-17904
山姆	-17905
岸边	-17906
巢穴	-17907
巨额	-17908
帮派	-17909
常态	-17910
幕后	-17911
干涸	-17912
年初	-17913
年度	-17914
广大	-17915
底的	-17916
建了	-17917
弄得	-17918
弹拨	-17919
彩虹	-17920
往返	-17921
很差	-17922
徘徊	-17923
悉尼	-17924
想看	-17925
愈合	-17926
成群	-17927
扇门	-17928
手党	-17929
才行	-17930
托拉	-17931
抬高	-17932
抽出	-17933
拍下	-17934
授课	-17935
排行	-17936
揭开	-17937
收取	-17938
教材	-17939
敢于	-17940
文盲	-17941
斯塔	-17942
斯尼	-17943
斯托	-17944
无一	-17945
无罪	-17946
日历	-17947
日志	-17948
时所	-17949
时钟	-17950
是和	-17951
晤士	-17952
更低	-17953
更改	-17954
望着	-17955
本该	-17956
机上	-17957
材质	-17958
根深	-17959
此处	-17960
死掉	-17961
民权	-17962
沉淀	-17963
沉重	-17964
沙拉	-17965
河中	-17966
油画	-17967
海峡	-17968
消融	-17969
涌入	-17970
淀粉	-17971
深思	-17972
满满	-17973
演进	-17974
火花	-17975
点了	-17976
然大	-17977
照着	-17978
片刻	-17979
玻色	-17980
琐碎	-17981
瓦尔	-17982
瓦的	-17983
生于	-17984
生化	-17985
用呢	-17986
电灯	-17987
男友	-17988
疗效	-17989
疲力	-17990
白鲨	-17991
的正	-17992
盈余	-17993
看护	-17994
眼泪	-17995
码头	-17996
神殿	-17997
福音	-17998
秒的	-17999
移居	-18000
穿透	-18001
简要	-18002
精髓	-18003
紊乱	-18004
素质	-18005
纳多	-18006
纸片	-18007
维珍	-18008
编译	-18009
缺点	-18010
美满	-18011
聚合	-18012
肠道	-18013
肺癌	-18014
背叛	-18015
胶囊	-18016
腹泻	-18017
膀胱	-18018
自传	-18019
自学	-18020
自尊	-18021
航海	-18022
节点	-18023
若干	-18024
苦苦	-18025
蜂类	-18026
血流	-18027
行李	-18028
被打	-18029
裂变	-18030
西欧	-18031
视图	-18032
计量	-18033
试管	-18034
诗意	-18035
话筒	-18036
话语	-18037
说吧	-18038
质感	-18039
贩卖	-18040
贴近	-18041
超人	-18042
跨过	-18043
跳进	-18044
辞职	-18045
还好	-18046
这家	-18047
这本	-18048
远了	-18049
远景	-18050
退化	-18051
透彻	-18052
那会	-18053
邻近	-18054
重申	-18055
金丝	-18056
钞票	-18057
镇压	-18058
间隙	-18059
附着	-18060
雪橇	-18061
雷斯	-18062
霍金	-18063
静脉	-18064
预兆	-18065
颇具	-18066
颞叶	-18067
飞的	-18068
餐桌	-18069
馆长	-18070
鲜明	-18071
鸡尾	-18072
黄瓜	-18073
,15	-18074
450	-18075
RNA	-18076
Tom	-18077
age	-18078
ank	-18079
anz	-18080
are	-18081
ave	-18082
ene	-18083
ide	-18084
ies	-18085
ont	-18086
ree	-18087
vel	-18088
▁17	-18089
▁MO	-18090
▁Sc	-18091
▁一家	-18092
▁一张	-18093
▁不但	-18094
▁不到	-18095
▁不好	-18096
▁不必	-18097
▁从未	-18098
▁他为	-18099
▁他所	-18100
▁他能	-18101
▁以防	-18102
▁企业	-18103
▁但又	-18104
▁使你	-18105
▁分子	-18106
▁单单	-18107
▁和在	-18108
▁回家	-18109
▁回顾	-18110
▁多少	-18111
▁她把	-18112
▁它对	-18113
▁它把	-18114
▁寻求	-18115
▁将要	-18116
▁小孩	-18117
▁展现	-18118
▁工业	-18119
▁当作	-18120
▁忽然	-18121
▁扫描	-18122
▁提升	-18123
▁援助	-18124
▁明白	-18125
▁是不	-18126
▁更有	-18127
▁最为	-18128
▁有天	-18129
▁模型	-18130
▁爸爸	-18131
▁网站	-18132
▁老鼠	-18133
▁而其	-18134
▁自动	-18135
▁蜘蛛	-18136
▁规模	-18137
▁记忆	-18138
▁说的	-18139
▁谁会	-18140
▁赋予	-18141
▁走到	-18142
▁足够	-18143
▁软件	-18144
▁迅速	-18145
▁过度	-18146
▁速度	-18147
▁邀请	-18148
▁那位	-18149
▁那将	-18150
▁重复	-18151
▁颜色	-18152
▁马丁	-18153
▁高度	-18154
▁麦克	-18155
一个是	-18156
一小段	-18157
三件事	-18158
上学的	-18159
不值得	-18160
不及待	-18161
不可以	-18162
东西了	-18163
个基因	-18164
中世纪	-18165
中发现	-18166
中我们	-18167
中获得	-18168
为这些	-18169
买一个	-18170
买不起	-18171
买了一	-18172
了一倍	-18173
了一年	-18174
了一遍	-18175
了世界	-18176
了这种	-18177
他们从	-18178
但不是	-18179
位女士	-18180
体验到	-18181
你也会	-18182
你所知	-18183
你要是	-18184
假如你	-18185
公斤的	-18186
关联的	-18187
出版商	-18188
分布图	-18189
到自己	-18190
加州的	-18191
劳伦斯	-18192
十分的	-18193
南美洲	-18194
印刷机	-18195
却可以	-18196
厌倦了	-18197
去工作	-18198
发光的	-18199
只剩下	-18200
叫什么	-18201
可以和	-18202
后来的	-18203
听不到	-18204
周期表	-18205
和发展	-18206
和它们	-18207
和食物	-18208
在它的	-18209
在路上	-18210
埃及人	-18211
增加到	-18212
士兵们	-18213
复制品	-18214
大教堂	-18215
太大的	-18216
奥斯卡	-18217
好东西	-18218
好玩的	-18219
妻子的	-18220
对未来	-18221
小伙子	-18222
少数人	-18223
就够了	-18224
就好比	-18225
就成了	-18226
就是把	-18227
尼莱坞	-18228
展示过	-18229
工具和	-18230
干净的	-18231
并发症	-18232
幸运地	-18233
座头鲸	-18234
廉价的	-18235
建筑业	-18236
当然的	-18237
当这些	-18238
很少的	-18239
很神奇	-18240
得不错	-18241
得来的	-18242
微妙的	-18243
想想看	-18244
愉快的	-18245
感知的	-18246
感觉很	-18247
成本的	-18248
我以为	-18249
我做了	-18250
我是否	-18251
我的确	-18252
我终于	-18253
或者不	-18254
手术的	-18255
批评家	-18256
承包商	-18257
抗药性	-18258
抽象的	-18259
持续地	-18260
接触过	-18261
控制着	-18262
改造成	-18263
数以万	-18264
方方面	-18265
早发现	-18266
明确地	-18267
更快的	-18268
更接近	-18269
更有趣	-18270
最令人	-18271
有一颗	-18272
有人会	-18273
有必要	-18274
有生命	-18275
有组织	-18276
来学习	-18277
来形容	-18278
来思考	-18279
来找我	-18280
棉花糖	-18281
模拟器	-18282
正在做	-18283
母亲和	-18284
每年的	-18285
比赛的	-18286
没人会	-18287
洛伊德	-18288
潜水员	-18289
灭绝的	-18290
灵长类	-18291
点时间	-18292
热气球	-18293
父亲的	-18294
特有的	-18295
玩耍的	-18296
现在你	-18297
用你的	-18298
由一个	-18299
甲壳虫	-18300
男孩子	-18301
画出来	-18302
百分百	-18303
的原则	-18304
的女士	-18305
的平台	-18306
的平方	-18307
的年龄	-18308
的意见	-18309
的报告	-18310
的服务	-18311
的现状	-18312
的男孩	-18313
的英雄	-18314
的要求	-18315
的责任	-18316
的资料	-18317
直观的	-18318
相信的	-18319
知道她	-18320
神奇了	-18321
空间站	-18322
第一台	-18323
第二种	-18324
算得上	-18325
篇关于	-18326
纪念馆	-18327
组成了	-18328
美国最	-18329
者之一	-18330
能真正	-18331
自下而	-18332
自由派	-18333
莫斯科	-18334
表现的	-18335
被剥夺	-18336
被邀请	-18337
让那些	-18338
设计成	-18339
试试看	-18340
请记住	-18341
跟别人	-18342
辆汽车	-18343
过滤器	-18344
还包括	-18345
这一代	-18346
这一年	-18347
这可以	-18348
这幅画	-18349
这样就	-18350
逻辑的	-18351
里没有	-18352
阶段的	-18353
阻止了	-18354
陆地上	-18355
非常地	-18356
验证码	-18357
1993	-18358
8000	-18359
9/11	-18360
9·11	-18361
ARPA	-18362
outh	-18363
▁一系列	-18364
▁从我的	-18365
▁他们很	-18366
▁他发现	-18367
▁会发现	-18368
▁伴随着	-18369
▁但事实	-18370
▁你希望	-18371
▁同情心	-18372
▁和他的	-18373
▁因此这	-18374
▁在一次	-18375
▁在当时	-18376
▁大家看	-18377
▁太阳能	-18378
▁它们被	-18379
▁它就像	-18380
▁它需要	-18381
▁就像我	-18382
▁并将其	-18383
▁当你们	-18384
▁意识到	-18385
▁我们以	-18386
▁我们做	-18387
▁我们称	-18388
▁我可能	-18389
▁我怀疑	-18390
▁我想以	-18391
▁我把这	-18392
▁我热爱	-18393
▁我继续	-18394
▁我能够	-18395
▁我问她	-18396
▁所以就	-18397
▁所以要	-18398
▁是这些	-18399
▁是那些	-18400
▁最重要	-18401
▁生命的	-18402
▁生物学	-18403
▁看一下	-18404
▁真的很	-18405
▁第三点	-18406
▁第三种	-18407
▁第二次	-18408
▁考虑到	-18409
▁自然界	-18410
▁要是你	-18411
▁让这些	-18412
▁这不仅	-18413
▁这将是	-18414
▁这张是	-18415
▁进一步	-18416
一个小时	-18417
一个想法	-18418
一个机会	-18419
一个项目	-18420
不会发生	-18421
不再需要	-18422
不可或缺	-18423
与其他人	-18424
为什么我	-18425
为自己的	-18426
也就是说	-18427
五分之一	-18428
亚利桑那	-18429
人生中的	-18430
他们不会	-18431
他们喜欢	-18432
他告诉我	-18433
以色列人	-18434
传递信息	-18435
你可以从	-18436
你必须要	-18437
你有没有	-18438
你的手机	-18439
其他事情	-18440
到处都有	-18441
加入我们	-18442
半个小时	-18443
发生在我	-18444
另一个人	-18445
可以看出	-18446
各个角落	-18447
周围的人	-18448
四分之三	-18449
在全世界	-18450
在实验室	-18451
在这里的	-18452
垃圾食品	-18453
城市规划	-18454
基因组学	-18455
外交政策	-18456
如何使用	-18457
如果你把	-18458
存活下来	-18459
实际情况	-18460
对它进行	-18461
将我们的	-18462
就在这个	-18463
工作机会	-18464
年前开始	-18465
并不那么	-18466
开始进行	-18467
引人入胜	-18468
当你看到	-18469
当我开始	-18470
很多人的	-18471
总的来说	-18472
恐龙化石	-18473
感到惊讶	-18474
感同身受	-18475
成为我们	-18476
我们也会	-18477
我们来看	-18478
我们都会	-18479
我的世界	-18480
我看到了	-18481
所有那些	-18482
打电话给	-18483
拯救世界	-18484
指数增长	-18485
收集数据	-18486
政府部门	-18487
文艺复兴	-18488
无线电波	-18489
是否可以	-18490
是有限的	-18491
最古老的	-18492
最高法院	-18493
某种原因	-18494
正确的事	-18495
没有关系	-18496
治疗方案	-18497
泰坦尼克	-18498
海洋中的	-18499
现实生活	-18500
生物能源	-18501
电脑程序	-18502
病人身上	-18503
百分之二	-18504
的一群人	-18505
知道的是	-18506
研究结果	-18507
确实存在	-18508
种族隔离	-18509
移植手术	-18510
纳米技术	-18511
经常发生	-18512
经济模式	-18513
结果就是	-18514
联合国的	-18515
聚到一起	-18516
解决所有	-18517
讨论一下	-18518
这个地区	-18519
这个孩子	-18520
这个时代	-18521
这个现象	-18522
这个结果	-18523
这么多人	-18524
这些产品	-18525
这些图片	-18526
这些细胞	-18527
这座城市	-18528
这是一件	-18529
这是不是	-18530
这是因为	-18531
这种说法	-18532
进入这个	-18533
迫不及待	-18534
遍布全球	-18535
遗传信息	-18536
都来自于	-18537
重新思考	-18538
错误记忆	-18539
长时间的	-18540
长的时间	-18541
间的关系	-18542
随着时间	-18543
需要一些	-18544
革命性的	-18545
cymat	-18546
ebast	-18547
▁1000	-18548
▁三分之一	-18549
▁今天我们	-18550
▁从那时起	-18551
▁他们不想	-18552
▁他们不能	-18553
▁他们非常	-18554
▁任何一个	-18555
▁但是我也	-18556
▁但是我要	-18557
▁但是那些	-18558
▁你会得到	-18559
▁你可以说	-18560
▁几个星期	-18561
▁可是我们	-18562
▁因为没有	-18563
▁在不同的	-18564
▁如果这个	-18565
▁它们没有	-18566
▁它看上去	-18567
▁它让我们	-18568
▁很有可能	-18569
▁成千上万	-18570
▁我今天想	-18571
▁我们也有	-18572
▁我们就是	-18573
▁我们或许	-18574
▁我们最近	-18575
▁我们真正	-18576
▁我找到了	-18577
▁我的故事	-18578
▁我给大家	-18579
▁或者他们	-18580
▁或者至少	-18581
▁澳大利亚	-18582
▁让我们先	-18583
▁设想一下	-18584
▁谢谢各位	-18585
▁这个例子	-18586
▁这些技术	-18587
▁这可能是	-18588
▁这很重要	-18589
▁这样你就	-18590
▁这正是我	-18591
▁通过一个	-18592
▁那为什么	-18593
一样的东西	-18594
一遍又一遍	-18595
了一个新的	-18596
伊拉克战争	-18597
会怎么样呢	-18598
全球范围内	-18599
告诉了我们	-18600
在世界各地	-18601
复杂的问题	-18602
学到了什么	-18603
就是我们的	-18604
巴基斯坦的	-18605
希格斯玻色	-18606
我们并没有	-18607
我们的未来	-18608
我们能不能	-18609
我的第一个	-18610
拍摄的照片	-18611
有什么影响	-18612
有什么样的	-18613
深远的影响	-18614
理所当然的	-18615
的一个例子	-18616
的问题就是	-18617
组合在一起	-18618
给你们一个	-18619
英尺的地方	-18620
这个问题的	-18621
这样的想法	-18622
高速公路上	-18623
anisha	-18624
▁Earth	-18625
▁你就会发现	-18626
▁各种各样的	-18627
▁在世界各地	-18628
▁如果你可以	-18629
▁如果你是个	-18630
▁如果我们在	-18631
▁如果我们把	-18632
▁当我们开始	-18633
▁我们可以从	-18634
▁我并不是说	-18635
人与人之间的	-18636
八字胡十一月	-18637
在这个星球上	-18638
基础设施建设	-18639
核磁共振成像	-18640
艾滋病病毒的	-18641
这样一个问题	-18642
▁我们怎样才能	-18643
▁所以我们现在	-18644
▁现在我们可以	-18645
到底发生了什么	-18646
ebastian	-18647
anbanisha	-18648
54	-18649
Br	-18650
CP	-18651
DI	-18652
va	-18653
▁供	-18654
▁康	-18655
▁引	-18656
▁提	-18657
▁河	-18658
▁爬	-18659
▁胡	-18660
▁足	-18661
一处	-18662
一枚	-18663
一栋	-18664
万能	-18665
三周	-18666
上讲	-18667
不光	-18668
不绝	-18669
不觉	-18670
不适	-18671
丑闻	-18672
世间	-18673
中毒	-18674
为零	-18675
主观	-18676
之情	-18677
争吵	-18678
争端	-18679
事事	-18680
互助	-18681
五倍	-18682
亦然	-18683
人机	-18684
亿万	-18685
他妈	-18686
他想	-18687
付款	-18688
令你	-18689
份额	-18690
优美	-18691
会再	-18692
位的	-18693
低廉	-18694
低温	-18695
体力	-18696
作坊	-18697
使他	-18698
便捷	-18699
信贷	-18700
修剪	-18701
假想	-18702
假期	-18703
做起	-18704
傲慢	-18705
傻瓜	-18706
光一	-18707
光子	-18708
六百	-18709
兰花	-18710
共进	-18711
养家	-18712
再见	-18713
减低	-18714
减半	-18715
减去	-18716
几句	-18717
几张	-18718
几条	-18719
凯利	-18720
出错	-18721
分发	-18722
分流	-18723
初次	-18724
到位	-18725
到那	-18726
制止	-18727
剩余	-18728
剪刀	-18729
加斯	-18730
勒菩	-18731
化肥	-18732
医治	-18733
十四	-18734
半夜	-18735
华达	-18736
卖掉	-18737
卡特	-18738
却说	-18739
厄瓜	-18740
去读	-18741
友谊	-18742
双赢	-18743
反向	-18744
反驳	-18745
发性	-18746
取悦	-18747
受精	-18748
受苦	-18749
变小	-18750
口罩	-18751
古董	-18752
叫他	-18753
可真	-18754
各行	-18755
各项	-18756
吉奥	-18757
同在	-18758
和弦	-18759
和美	-18760
喀麦	-18761
回声	-18762
图里	-18763
在冰	-18764
地将	-18765
地把	-18766
地步	-18767
坐的	-18768
境况	-18769
境的	-18770
增多	-18771
壁画	-18772
多彩	-18773
夜空	-18774
大力	-18775
大把	-18776
大笔	-18777
大门	-18778
天谢	-18779
太久	-18780
好转	-18781
妇人	-18782
妨碍	-18783
嬉戏	-18784
学说	-18785
完蛋	-18786
定罪	-18787
宜家	-18788
密特	-18789
对么	-18790
对折	-18791
小屋	-18792
就想	-18793
层中	-18794
履行	-18795
山峰	-18796
巴厘	-18797
带头	-18798
带的	-18799
帮人	-18800
平滑	-18801
幼年	-18802
度和	-18803
建起	-18804
弱点	-18805
微波	-18806
德曼	-18807
忠于	-18808
急性	-18809
总能	-18810
惊慌	-18811
惠特	-18812
慢了	-18813
懂了	-18814
成堆	-18815
房车	-18816
手可	-18817
抓到	-18818
抓狂	-18819
拆开	-18820
拨款	-18821
指甲	-18822
挣钱	-18823
振作	-18824
描写	-18825
握住	-18826
搞得	-18827
摄取	-18828
摆在	-18829
支票	-18830
整齐	-18831
斜坡	-18832
日的	-18833
易于	-18834
是可	-18835
杜克	-18836
板的	-18837
枯竭	-18838
查阅	-18839
核酸	-18840
格尼	-18841
格莱	-18842
植被	-18843
椰菜	-18844
模范	-18845
正要	-18846
步调	-18847
死人	-18848
殆尽	-18849
毁坏	-18850
每当	-18851
毕生	-18852
毫秒	-18853
气流	-18854
沃伦	-18855
油漆	-18856
波音	-18857
流血	-18858
海外	-18859
海马	-18860
涨落	-18861
游荡	-18862
游说	-18863
源源	-18864
潜到	-18865
潮汐	-18866
热点	-18867
热能	-18868
照料	-18869
燃油	-18870
牌子	-18871
牢牢	-18872
牧场	-18873
独白	-18874
球手	-18875
瓶颈	-18876
生不	-18877
用上	-18878
电器	-18879
电气	-18880
界定	-18881
疲惫	-18882
白的	-18883
的就	-18884
的树	-18885
的爱	-18886
的石	-18887
的脑	-18888
相差	-18889
看我	-18890
真好	-18891
着他	-18892
着想	-18893
矫正	-18894
短缺	-18895
硬化	-18896
科特	-18897
租赁	-18898
稀释	-18899
空虚	-18900
简陋	-18901
管弦	-18902
紧凑	-18903
纬度	-18904
纯洁	-18905
纹理	-18906
细致	-18907
绘图	-18908
绷带	-18909
缅甸	-18910
编纂	-18911
而知	-18912
脚印	-18913
脚手	-18914
脚踏	-18915
腐蚀	-18916
自恋	-18917
落实	-18918
蒙古	-18919
虚假	-18920
血红	-18921
行车	-18922
表层	-18923
被我	-18924
西蒙	-18925
记下	-18926
语气	-18927
误差	-18928
请来	-18929
调动	-18930
豆腐	-18931
贝利	-18932
贫富	-18933
走着	-18934
走走	-18935
走运	-18936
起义	-18937
超乎	-18938
越少	-18939
跑道	-18940
路标	-18941
踏入	-18942
轿车	-18943
较低	-18944
辨认	-18945
边形	-18946
达姆	-18947
过剩	-18948
违法	-18949
迪拜	-18950
送去	-18951
送给	-18952
遇上	-18953
遗迹	-18954
那头	-18955
邻里	-18956
郊外	-18957
采购	-18958
金子	-18959
钱来	-18960
长颈	-18961
门外	-18962
陈旧	-18963
霉素	-18964
霍普	-18965
露营	-18966
颁布	-18967
领会	-18968
领土	-18969
领地	-18970
飞了	-18971
饱受	-18972
骨折	-18973
高尚	-18974
龙头	-18975
"、"	-18976
,40	-18977
--"	-18978
ate	-18979
ini	-18980
net	-18981
ola	-18982
rot	-18983
——"	-18984
▁24	-18985
▁Ad	-18986
▁Ge	-18987
▁IM	-18988
▁JH	-18989
▁一份	-18990
▁一块	-18991
▁一对	-18992
▁一本	-18993
▁一段	-18994
▁一部	-18995
▁中东	-18996
▁产品	-18997
▁他和	-18998
▁他曾	-18999
▁价值	-19000
▁会被	-19001
▁使之	-19002
▁保留	-19003
▁保证	-19004
▁做的	-19005
▁免费	-19006
▁可口	-19007
▁合成	-19008
▁培养	-19009
▁多亏	-19010
▁大的	-19011
▁它以	-19012
▁实在	-19013
▁就拿	-19014
▁巴西	-19015
▁并能	-19016
▁庆祝	-19017
▁成了	-19018
▁我妈	-19019
▁我常	-19020
▁打个	-19021
▁把这	-19022
▁担心	-19023
▁收入	-19024
▁放进	-19025
▁文字	-19026
▁是要	-19027
▁有种	-19028
▁来做	-19029
▁激发	-19030
▁物理	-19031
▁猜猜	-19032
▁社交	-19033
▁精神	-19034
▁维持	-19035
▁街道	-19036
▁询问	-19037
▁财富	-19038
▁购买	-19039
▁跟我	-19040
▁这本	-19041
▁这部	-19042
▁那会	-19043
▁随时	-19044
▁马克	-19045
▁马特	-19046
一天的	-19047
一条线	-19048
下水道	-19049
不再有	-19050
不对劲	-19051
中的人	-19052
乐观的	-19053
书中的	-19054
了一套	-19055
了她的	-19056
人行道	-19057
仅有的	-19058
从你的	-19059
他开始	-19060
他当时	-19061
任务是	-19062
会有人	-19063
会认为	-19064
会议室	-19065
似乎是	-19066
伽罗瓦	-19067
你也许	-19068
你们要	-19069
你和我	-19070
你喜欢	-19071
你的车	-19072
你相信	-19073
你看见	-19074
做一次	-19075
做准备	-19076
做法是	-19077
催化剂	-19078
克利夫	-19079
克拉克	-19080
关联性	-19081
具有的	-19082
冒出来	-19083
农产品	-19084
冲突后	-19085
分半钟	-19086
创伤后	-19087
利用的	-19088
制度的	-19089
制造者	-19090
北半球	-19091
北美洲	-19092
单细胞	-19093
南非的	-19094
卡内基	-19095
却不能	-19096
反复复	-19097
反应是	-19098
发电站	-19099
可怕了	-19100
右上角	-19101
右手边	-19102
各方面	-19103
吹口哨	-19104
和保护	-19105
和分析	-19106
和动物	-19107
和家人	-19108
和所有	-19109
喀麦隆	-19110
四个人	-19111
因如此	-19112
在一块	-19113
在当时	-19114
在这边	-19115
地看着	-19116
城市化	-19117
壮观的	-19118
复一年	-19119
复活节	-19120
多伦多	-19121
多数人	-19122
大大的	-19123
奥尔良	-19124
好极了	-19125
如何让	-19126
妇女的	-19127
它如何	-19128
对他的	-19129
对你说	-19130
对社会	-19131
将一个	-19132
将会有	-19133
尝试用	-19134
就变成	-19135
就是说	-19136
崩溃了	-19137
巴黎的	-19138
带回来	-19139
帮助的	-19140
平等的	-19141
广大的	-19142
开发了	-19143
开发商	-19144
弥勒菩	-19145
很严重	-19146
得很快	-19147
思维的	-19148
成立的	-19149
我们应	-19150
我们没	-19151
我是在	-19152
我研究	-19153
我那时	-19154
所代表	-19155
找到我	-19156
拍照片	-19157
排泄物	-19158
推特上	-19159
提供给	-19160
摧毁了	-19161
教他们	-19162
数学的	-19163
数据点	-19164
整个人	-19165
文化里	-19166
新产品	-19167
新方法	-19168
方形的	-19169
无人机	-19170
明信片	-19171
星期前	-19172
星系团	-19173
更糟糕	-19174
有一套	-19175
有关于	-19176
有办法	-19177
有好处	-19178
有过的	-19179
有这么	-19180
期待着	-19181
本应该	-19182
杰克逊	-19183
核战争	-19184
根深蒂	-19185
棕色的	-19186
殖民地	-19187
母亲节	-19188
比那些	-19189
毕业后	-19190
水中的	-19191
水族馆	-19192
测试的	-19193
浪费了	-19194
淋巴结	-19195
温和的	-19196
游戏里	-19197
灵活的	-19198
然后就	-19199
爱滋病	-19200
理念是	-19201
瓦特的	-19202
甚至在	-19203
用什么	-19204
电影中	-19205
电脑里	-19206
疯狂了	-19207
百分点	-19208
的一代	-19209
的一只	-19210
的一边	-19211
的争论	-19212
的健康	-19213
的化学	-19214
的因素	-19215
的封面	-19216
的尝试	-19217
的形成	-19218
的总和	-19219
的患者	-19220
的房间	-19221
的手法	-19222
的测试	-19223
的症状	-19224
的老师	-19225
的行动	-19226
的表演	-19227
的观念	-19228
的阶段	-19229
真正在	-19230
真的能	-19231
短暂的	-19232
矿物质	-19233
究竟是	-19234
童年的	-19235
第一年	-19236
细胞中	-19237
细菌的	-19238
经过了	-19239
网上的	-19240
美金的	-19241
而努力	-19242
而易举	-19243
联系到	-19244
肩膀上	-19245
芯片上	-19246
花了一	-19247
英尺深	-19248
蒙大拿	-19249
西方的	-19250
要来了	-19251
要花费	-19252
诞生的	-19253
读到的	-19254
贫困的	-19255
走进去	-19256
转基因	-19257
过一些	-19258
过我的	-19259
这事儿	-19260
这些在	-19261
这些的	-19262
这才是	-19263
进去了	-19264
追求的	-19265
追随者	-19266
都不同	-19267
都可能	-19268
都存在	-19269
都这样	-19270
长颈鹿	-19271
阿基米	-19272
集装箱	-19273
鸡尾酒	-19274
黑暗的	-19275
1600	-19276
1968	-19277
1991	-19278
Emma	-19279
FOXO	-19280
TEDx	-19281
ence	-19282
hryn	-19283
mail	-19284
oint	-19285
ower	-19286
wart	-19287
▁300	-19288
▁一直在	-19289
▁上面有	-19290
▁不一定	-19291
▁不过我	-19292
▁也包括	-19293
▁也是我	-19294
▁亚历山	-19295
▁他总是	-19296
▁以此来	-19297
▁但人们	-19298
▁但只有	-19299
▁你也会	-19300
▁全球化	-19301
▁到最后	-19302
▁却没有	-19303
▁去理解	-19304
▁因为从	-19305
▁在今天	-19306
▁在它的	-19307
▁它其实	-19308
▁对人类	-19309
▁就开始	-19310
▁就是用	-19311
▁就能够	-19312
▁很不幸	-19313
▁我们却	-19314
▁我们看	-19315
▁我回答	-19316
▁我坐在	-19317
▁我想先	-19318
▁我是指	-19319
▁我特别	-19320
▁我要你	-19321
▁或者你	-19322
▁所有人	-19323
▁有个人	-19324
▁来解释	-19325
▁然后呢	-19326
▁然后将	-19327
▁用这些	-19328
▁的一个	-19329
▁第一是	-19330
▁罗伯特	-19331
▁而且还	-19332
▁而你们	-19333
▁能不能	-19334
▁说不定	-19335
▁谢丽尔	-19336
▁转化为	-19337
▁这使我	-19338
▁这叫做	-19339
▁那么就	-19340
一个世界	-19341
一样重要	-19342
一部分人	-19343
不感兴趣	-19344
买了一个	-19345
乳腺密度	-19346
了一件事	-19347
了一会儿	-19348
事实上是	-19349
亲身经历	-19350
人工耳蜗	-19351
他们可能	-19352
他们应该	-19353
企业家们	-19354
传播开来	-19355
作为结束	-19356
你不需要	-19357
做些事情	-19358
做得很好	-19359
做的更好	-19360
健康问题	-19361
充满希望	-19362
光合作用	-19363
公共服务	-19364
几个月后	-19365
创造出了	-19366
加州理工	-19367
十九世纪	-19368
千年发展	-19369
发现他们	-19370
变成一种	-19371
另一件事	-19372
可以让你	-19373
可以达到	-19374
同性婚姻	-19375
和工程师	-19376
回到过去	-19377
因为人们	-19378
坐在这里	-19379
塞尔吉奥	-19380
多样化的	-19381
如此重要	-19382
它自己的	-19383
实际上在	-19384
就会出现	-19385
就能看到	-19386
希格斯场	-19387
年轻人的	-19388
并不总是	-19389
影响我们	-19390
怎么才能	-19391
情报机构	-19392
意义重大	-19393
意义非凡	-19394
感受到了	-19395
我们并不	-19396
我们还在	-19397
我们这里	-19398
我找到了	-19399
我指的是	-19400
我的梦想	-19401
持续下去	-19402
放在这里	-19403
数学家们	-19404
斯里兰卡	-19405
新的技术	-19406
无法理解	-19407
是一个人	-19408
是很大的	-19409
是我们所	-19410
智能材料	-19411
更倾向于	-19412
有可能是	-19413
有可能的	-19414
本身就是	-19415
来自哪里	-19416
气候变暖	-19417
特别是在	-19418
独一无二	-19419
环境保护	-19420
环顾四周	-19421
理解这个	-19422
甚至没有	-19423
生存下去	-19424
用户界面	-19425
的一个人	-19426
的价值观	-19427
的大多数	-19428
的计算机	-19429
直立行走	-19430
碳纳米管	-19431
突然之间	-19432
站起来说	-19433
等等等等	-19434
简直就是	-19435
绝对不会	-19436
继续前进	-19437
自己动手	-19438
血管增生	-19439
视频游戏	-19440
觉得这是	-19441
认为这些	-19442
讨论的是	-19443
让每个人	-19444
设计师们	-19445
话说回来	-19446
这一领域	-19447
这个视频	-19448
这些数字	-19449
这张地图	-19450
这栋建筑	-19451
这种行为	-19452
这项运动	-19453
进入一个	-19454
通过观察	-19455
遇到一个	-19456
遗传密码	-19457
都是关于	-19458
都有可能	-19459
重新审视	-19460
闭上眼睛	-19461
阿拉巴马	-19462
随心所欲	-19463
需要做的	-19464
非常小的	-19465
非常棒的	-19466
非常漂亮	-19467
非常糟糕	-19468
oseph	-19469
▁2001	-19470
▁Hill	-19471
▁NASA	-19472
▁一旦我们	-19473
▁人们总是	-19474
▁从根本上	-19475
▁他们现在	-19476
▁但是这种	-19477
▁你们现在	-19478
▁你的身体	-19479
▁关于这个	-19480
▁因为他的	-19481
▁在每一个	-19482
▁如你所见	-19483
▁如果大家	-19484
▁如果我的	-19485
▁它并不是	-19486
▁它意味着	-19487
▁完全没有	-19488
▁就在我们	-19489
▁当我还是	-19490
▁我们也会	-19491
▁我们做的	-19492
▁我们只能	-19493
▁我们将要	-19494
▁我们目前	-19495
▁我们试图	-19496
▁我的意思	-19497
▁我说的是	-19498
▁最后一点	-19499
▁现在他们	-19500
▁简而言之	-19501
▁经济学家	-19502
▁绝大多数	-19503
▁美国国家	-19504
▁这个设计	-19505
▁这是一幅	-19506
▁这是来自	-19507
▁这有一个	-19508
▁这种现象	-19509
▁遗憾的是	-19510
▁那么这个	-19511
一个小故事	-19512
一张幻灯片	-19513
不同的颜色	-19514
了不起的人	-19515
他们的朋友	-19516
任何一个人	-19517
你看到的是	-19518
使我们能够	-19519
做这些事情	-19520
其他的事情	-19521
几乎所有的	-19522
[...]
