<pad>	0
<unk>	0
<s>	0
</s>	0
▁t	-0
▁th	-1
▁a	-2
in	-3
▁w	-4
▁the	-5
re	-6
▁o	-7
▁s	-8
at	-9
nd	-10
er	-11
ou	-12
is	-13
▁c	-14
it	-15
▁b	-16
ing	-17
▁m	-18
▁h	-19
en	-20
▁to	-21
on	-22
▁p	-23
▁f	-24
an	-25
es	-26
▁d	-27
▁of	-28
ll	-29
or	-30
▁in	-31
▁I	-32
▁and	-33
▁l	-34
ed	-35
ar	-36
▁y	-37
▁that	-38
▁g	-39
om	-40
as	-41
ic	-42
▁you	-43
le	-44
ve	-45
al	-46
▁we	-47
▁n	-48
▁wh	-49
ow	-50
▁A	-51
▁is	-52
us	-53
▁e	-54
▁it	-55
ut	-56
▁be	-57
ion	-58
ot	-59
et	-60
▁T	-61
▁re	-62
▁ha	-63
ct	-64
▁on	-65
ent	-66
ld	-67
ver	-68
▁And	-69
ay	-70
id	-71
▁Th	-72
all	-73
se	-74
▁this	-75
im	-76
▁S	-77
ig	-78
st	-79
ro	-80
ere	-81
▁st	-82
ur	-83
ch	-84
ly	-85
ke	-86
ce	-87
▁for	-88
if	-89
▁was	-90
ra	-91
▁do	-92
▁W	-93
▁an	-94
ir	-95
oo	-96
ally	-97
▁are	-98
ith	-99
op	-100
▁-	-101
▁--	-102
th	-103
▁have	-104
▁with	-105
am	-106
▁ab	-107
▁k	-108
▁they	-109
▁u	-110
▁se	-111
▁can	-112
out	-113
▁B	-114
ation	-115
▁as	-116
▁mo	-117
ht	-118
▁go	-119
▁So	-120
▁what	-121
▁li	-122
▁so	-123
very	-124
ad	-125
▁he	-126
▁com	-127
▁wor	-128
▁at	-129
ould	-130
ill	-131
▁about	-132
▁sh	-133
▁me	-134
▁ne	-135
ant	-136
▁not	-137
ter	-138
il	-139
▁all	-140
ge	-141
ul	-142
ust	-143
ol	-144
▁The	-145
▁j	-146
▁fr	-147
▁ex	-148
use	-149
▁som	-150
ers	-151
▁pro	-152
ight	-153
▁r	-154
▁ch	-155
▁there	-156
▁"	-157
▁or	-158
▁de	-159
▁pe	-160
▁my	-161
ear	-162
art	-163
ople	-164
▁It	-165
pp	-166
um	-167
ck	-168
▁one	-169
▁like	-170
ure	-171
▁We	-172
▁con	-173
▁people	-174
ess	-175
ate	-176
▁kn	-177
▁N	-178
est	-179
ive	-180
ca	-181
▁ma	-182
▁from	-183
ies	-184
ity	-185
nt	-186
ect	-187
ind	-188
ble	-189
ist	-190
qu	-191
▁out	-192
▁know	-193
ink	-194
▁but	-195
▁int	-196
▁just	-197
ook	-198
▁thing	-199
▁al	-200
rou	-201
▁te	-202
▁us	-203
▁our	-204
▁H	-205
▁v	-206
un	-207
cause	-208
▁very	-209
▁M	-210
ide	-211
▁sp	-212
▁them	-213
▁see	-214
and	-215
▁these	-216
▁C	-217
▁But	-218
▁up	-219
▁if	-220
ort	-221
▁get	-222
▁tr	-223
os	-224
▁think	-225
ie	-226
ich	-227
▁who	-228
▁going	-229
her	-230
▁pl	-231
▁Y	-232
▁act	-233
▁by	-234
▁1	-235
el	-236
▁some	-237
ci	-238
ain	-239
one	-240
▁when	-241
▁because	-242
▁year	-243
▁had	-244
iv	-245
▁your	-246
▁sa	-247
og	-248
em	-249
▁which	-250
▁more	-251
our	-252
▁im	-253
▁tim	-254
▁would	-255
od	-256
ine	-257
▁look	-258
▁really	-259
▁were	-260
▁want	-261
ually	-262
ast	-263
ame	-264
."	-265
▁ta	-266
▁comp	-267
▁how	-268
▁su	-269
ment	-270
▁O	-271
ood	-272
▁work	-273
▁their	-274
ard	-275
gh	-276
▁here	-277
▁Wh	-278
ous	-279
act	-280
ack	-281
▁en	-282
iz	-283
ap	-284
▁way	-285
hing	-286
reat	-287
ose	-288
▁then	-289
▁E	-290
▁This	-291
▁world	-292
▁You	-293
▁le	-294
ther	-295
ab	-296
▁time	-297
ore	-298
▁has	-299
are	-300
ans	-301
▁actually	-302
▁per	-303
▁don	-304
▁say	-305
▁every	-306
ong	-307
ag	-308
▁exp	-309
▁into	-310
▁qu	-311
itt	-312
▁P	-313
ild	-314
▁will	-315
ace	-316
▁could	-317
▁things	-318
▁ev	-319
▁D	-320
res	-321
ud	-322
▁now	-323
▁fe	-324
ions	-325
▁where	-326
▁years	-327
▁man	-328
▁co	-329
▁other	-330
▁did	-331
▁L	-332
ence	-333
age	-334
alk	-335
▁ag	-336
▁Now	-337
▁G	-338
▁somet	-339
00	-340
ff	-341
▁They	-342
iff	-343
▁no	-344
ach	-345
▁happ	-346
nder	-347
▁any	-348
ical	-349
▁make	-350
▁F	-351
▁been	-352
▁diff	-353
▁said	-354
▁cl	-355
▁tw	-356
▁In	-357
ice	-358
pt	-359
▁need	-360
▁than	-361
so	-362
▁start	-363
red	-364
▁something	-365
▁un	-366
▁right	-367
▁part	-368
ri	-369
▁bu	-370
irst	-371
▁2	-372
own	-373
▁over	-374
▁kind	-375
▁got	-376
ia	-377
▁R	-378
ry	-379
ree	-380
ign	-381
ory	-382
▁dis	-383
▁imp	-384
▁po	-385
ittle	-386
uch	-387
▁back	-388
▁two	-389
ome	-390
▁little	-391
round	-392
ell	-393
▁ar	-394
ite	-395
▁much	-396
orm	-397
▁pr	-398
olog	-399
ife	-400
▁call	-401
ens	-402
ount	-403
ip	-404
▁first	-405
▁differe	-406
ass	-407
▁those	-408
▁lot	-409
▁ro	-410
sel	-411
ater	-412
ang	-413
cent	-414
ound	-415
ep	-416
▁new	-417
▁also	-418
ue	-419
ber	-420
ple	-421
▁cont	-422
▁talk	-423
▁That	-424
ght	-425
▁spe	-426
way	-427
ac	-428
▁lo	-429
ody	-430
ult	-431
▁ac	-432
vel	-433
ving	-434
ves	-435
▁most	-436
king	-437
▁under	-438
▁des	-439
▁ph	-440
▁life	-441
▁bet	-442
▁she	-443
rain	-444
ated	-445
▁sy	-446
▁only	-447
ru	-448
co	-449
▁his	-450
▁res	-451
able	-452
▁day	-453
▁take	-454
▁J	-455
ations	-456
ms	-457
ick	-458
▁even	-459
▁different	-460
other	-461
▁good	-462
▁ad	-463
▁am	-464
int	-465
rough	-466
du	-467
ish	-468
▁hum	-469
▁does	-470
▁bl	-471
▁around	-472
▁put	-473
▁down	-474
▁many	-475
▁There	-476
ire	-477
ase	-478
ict	-479
ph	-480
▁ide	-481
▁through	-482
▁show	-483
pl	-484
▁What	-485
pe	-486
ance	-487
▁real	-488
▁pre	-489
▁her	-490
ial	-491
ents	-492
ank	-493
urn	-494
ob	-495
▁He	-496
cess	-497
▁comm	-498
▁use	-499
▁off	-500
▁U	-501
ark	-502
▁being	-503
▁tell	-504
form	-505
▁happen	-506
ange	-507
ak	-508
▁thou	-509
ade	-510
ors	-511
chn	-512
▁same	-513
ress	-514
▁too	-515
▁try	-516
ject	-517
ary	-518
wn	-519
▁doing	-520
▁come	-521
▁fact	-522
▁em	-523
xt	-524
ath	-525
▁proble	-526
▁fl	-527
ars	-528
ether	-529
per	-530
▁inc	-531
stem	-532
ric	-533
be	-534
ne	-535
day	-536
▁sm	-537
▁big	-538
▁may	-539
ys	-540
ically	-541
row	-542
▁great	-543
▁gen	-544
▁techn	-545
ful	-546
ning	-547
ual	-548
he	-549
ting	-550
ool	-551
▁three	-552
▁wr	-553
▁If	-554
tern	-555
▁count	-556
ible	-557
▁pers	-558
▁br	-559
▁well	-560
ile	-561
ib	-562
ces	-563
▁find	-564
▁percent	-565
illion	-566
ology	-567
▁called	-568
▁ra	-569
▁system	-570
ved	-571
ord	-572
▁sur	-573
▁build	-574
body	-575
thing	-576
▁bec	-577
ons	-578
ower	-579
▁Ch	-580
▁human	-581
▁child	-582
fter	-583
iver	-584
▁let	-585
fore	-586
▁gu	-587
▁stud	-588
▁tra	-589
self	-590
te	-591
▁app	-592
igh	-593
ious	-594
▁sim	-595
▁dec	-596
▁again	-597
▁Well	-598
▁made	-599
nds	-600
▁long	-601
ics	-602
▁inv	-603
▁exper	-604
▁ind	-605
ition	-606
▁fo	-607
▁own	-608
▁quest	-609
erest	-610
mer	-611
ating	-612
we	-613
ren	-614
▁import	-615
▁rem	-616
▁K	-617
▁should	-618
▁sc	-619
▁lear	-620
▁bel	-621
cial	-622
ize	-623
les	-624
ft	-625
ew	-626
ub	-627
▁underst	-628
000	-629
oss	-630
▁why	-631
▁play	-632
ty	-633
▁cour	-634
av	-635
▁design	-636
▁bas	-637
▁interest	-638
▁thought	-639
ction	-640
▁mean	-641
▁Be	-642
ates	-643
▁after	-644
▁didn	-645
▁last	-646
▁turn	-647
▁today	-648
ities	-649
▁person	-650
?"	-651
con	-652
▁end	-653
▁important	-654
ian	-655
▁feel	-656
▁idea	-657
▁ob	-658
▁rel	-659
▁ask	-660
▁brain	-661
▁went	-662
,000	-663
▁car	-664
▁started	-665
▁creat	-666
▁hel	-667
ied	-668
ull	-669
▁exam	-670
▁inst	-671
▁change	-672
▁bit	-673
▁trans	-674
ough	-675
▁its	-676
gan	-677
▁him	-678
▁sch	-679
ution	-680
▁sort	-681
ise	-682
▁3	-683
▁course	-684
▁give	-685
▁point	-686
▁sci	-687
ese	-688
ail	-689
▁gl	-690
▁before	-691
▁wom	-692
▁understand	-693
als	-694
▁gra	-695
▁another	-696
▁ins	-697
ular	-698
▁Thank	-699
▁story	-700
▁produ	-701
ility	-702
▁ke	-703
▁problem	-704
▁never	-705
▁St	-706
▁better	-707
ros	-708
▁might	-709
ven	-710
ave	-711
lic	-712
▁kid	-713
▁ele	-714
▁inter	-715
ists	-716
old	-717
ily	-718
▁able	-719
kes	-720
ost	-721
▁help	-722
ert	-723
▁belie	-724
und	-725
erg	-726
▁few	-727
▁cons	-728
▁came	-729
▁19	-730
uc	-731
▁tog	-732
▁plan	-733
▁ago	-734
▁coll	-735
▁together	-736
ense	-737
ix	-738
▁power	-739
▁ent	-740
▁still	-741
▁bo	-742
velop	-743
▁art	-744
▁next	-745
oth	-746
▁fam	-747
▁school	-748
▁sl	-749
▁found	-750
▁place	-751
▁pol	-752
▁mon	-753
▁num	-754
atch	-755
▁mod	-756
▁high	-757
▁sol	-758
ited	-759
▁comple	-760
▁Af	-761
ng	-762
▁10	-763
ween	-764
ward	-765
▁each	-766
▁water	-767
▁imag	-768
ather	-769
alth	-770
▁used	-771
▁technology	-772
▁commun	-773
▁pat	-774
ience	-775
▁ter	-776
read	-777
ork	-778
▁Because	-779
▁develop	-780
▁learn	-781
▁ser	-782
▁cr	-783
cy	-784
▁between	-785
▁20	-786
meric	-787
▁question	-788
▁comput	-789
▁four	-790
iss	-791
ram	-792
ized	-793
▁ext	-794
,"	-795
▁stu	-796
▁looking	-797
▁dat	-798
▁done	-799
ways	-800
▁When	-801
▁example	-802
▁small	-803
▁cell	-804
ures	-805
ness	-806
▁whole	-807
cond	-808
▁read	-809
ific	-810
▁min	-811
oc	-812
ably	-813
▁op	-814
▁light	-815
▁old	-816
▁att	-817
ah	-818
oney	-819
▁love	-820
▁partic	-821
▁cre	-822
▁Americ	-823
az	-824
▁cent	-825
▁doesn	-826
▁grow	-827
ute	-828
cept	-829
▁met	-830
ets	-831
ings	-832
▁eff	-833
▁fin	-834
arch	-835
▁med	-836
ered	-837
ced	-838
formation	-839
▁care	-840
ative	-841
iness	-842
▁la	-843
conom	-844
▁data	-845
▁ear	-846
▁wanted	-847
▁move	-848
ger	-849
▁mom	-850
▁V	-851
▁rec	-852
▁dr	-853
▁million	-854
▁How	-855
ross	-856
▁children	-857
▁trying	-858
here	-859
ote	-860
▁bi	-861
▁expl	-862
▁always	-863
▁Afric	-864
▁lar	-865
▁nat	-866
selves	-867
▁reas	-868
▁el	-869
▁econom	-870
▁sk	-871
▁word	-872
▁far	-873
▁ed	-874
▁beh	-875
▁poss	-876
▁away	-877
50	-878
ird	-879
ope	-880
▁money	-881
▁book	-882
▁working	-883
gin	-884
▁giv	-885
▁ever	-886
cer	-887
ural	-888
▁less	-889
ands	-890
▁hard	-891
▁live	-892
▁str	-893
▁gener	-894
▁supp	-895
▁project	-896
▁pict	-897
ational	-898
▁believe	-899
▁mus	-900
vers	-901
▁cap	-902
ruct	-903
▁doll	-904
▁chang	-905
▁sub	-906
▁rep	-907
ments	-908
▁five	-909
▁country	-910
ont	-911
▁bus	-912
▁Un	-913
▁kids	-914
ock	-915
▁information	-916
nect	-917
nce	-918
▁prob	-919
▁maybe	-920
▁health	-921
▁inf	-922
ism	-923
▁Ind	-924
▁run	-925
▁cor	-926
▁space	-927
▁open	-928
ps	-929
▁thinking	-930
▁vis	-931
▁resp	-932
▁organ	-933
▁4	-934
air	-935
▁using	-936
atter	-937
alf	-938
▁everything	-939
▁hand	-940
ries	-941
▁took	-942
aces	-943
ergy	-944
▁anim	-945
▁women	-946
▁One	-947
led	-948
ract	-949
▁interesting	-950
▁food	-951
▁form	-952
▁cou	-953
▁second	-954
▁means	-955
oy	-956
▁mind	-957
▁create	-958
▁pres	-959
▁stuff	-960
▁getting	-961
iron	-962
▁enough	-963
▁number	-964
▁fun	-965
▁process	-966
▁home	-967
▁left	-968
▁teach	-969
gg	-970
▁sense	-971
▁As	-972
▁quite	-973
its	-974
vern	-975
▁sing	-976
aut	-977
▁fut	-978
▁pub	-979
▁spec	-980
▁head	-981
▁energy	-982
▁become	-983
▁best	-984
▁wo	-985
hip	-986
ten	-987
ital	-988
▁probably	-989
ention	-990
▁These	-991
▁frie	-992
ks	-993
ouse	-994
ever	-995
▁comes	-996
iew	-997
ines	-998
▁acc	-999
▁future	-1000
▁happened	-1001
▁eng	-1002
▁reg	-1003
▁compan	-1004
▁mark	-1005
▁walk	-1006
▁talking	-1007
lear	-1008
▁begin	-1009
▁building	-1010
iting	-1011
▁lead	-1012
▁prog	-1013
ues	-1014
ident	-1015
▁dollars	-1016
▁Here	-1017
▁elect	-1018
▁month	-1019
▁grou	-1020
▁room	-1021
▁univer	-1022
ertain	-1023
sw	-1024
▁My	-1025
▁times	-1026
reen	-1027
▁war	-1028
▁dem	-1029
▁making	-1030
▁ca	-1031
▁pie	-1032
▁set	-1033
ories	-1034
li	-1035
tty	-1036
▁govern	-1037
▁connect	-1038
ogra	-1039
▁without	-1040
▁side	-1041
▁coming	-1042
▁half	-1043
▁cur	-1044
▁body	-1045
▁sign	-1046
▁contro	-1047
cus	-1048
▁answ	-1049
ient	-1050
ner	-1051
▁else	-1052
▁She	-1053
▁pretty	-1054
kay	-1055
▁pop	-1056
▁beaut	-1057
▁conf	-1058
▁dist	-1059
▁env	-1060
▁anything	-1061
▁keep	-1062
▁bad	-1063
▁Is	-1064
lf	-1065
▁social	-1066
▁moment	-1067
ond	-1068
▁Africa	-1069
▁add	-1070
▁Chin	-1071
ake	-1072
▁glob	-1073
▁hist	-1074
ety	-1075
▁top	-1076
rib	-1077
imes	-1078
olution	-1079
ts	-1080
▁reason	-1081
▁air	-1082
▁wee	-1083
ately	-1084
▁phys	-1085
▁says	-1086
▁model	-1087
me	-1088
▁An	-1089
▁told	-1090
ember	-1091
▁allow	-1092
▁bring	-1093
▁across	-1094
▁gr	-1095
▁goes	-1096
▁def	-1097
▁ty	-1098
ices	-1099
idd	-1100
▁pass	-1101
▁200	-1102
▁sound	-1103
▁New	-1104
▁environ	-1105
▁fig	-1106
▁job	-1107
▁happens	-1108
▁saw	-1109
▁business	-1110
▁particular	-1111
uring	-1112
▁simple	-1113
▁hope	-1114
▁such	-1115
▁stand	-1116
▁countries	-1117
der	-1118
▁educ	-1119
▁For	-1120
▁makes	-1121
▁young	-1122
▁Let	-1123
▁lives	-1124
▁All	-1125
▁science	-1126
▁phot	-1127
▁rese	-1128
▁picture	-1129
▁living	-1130
▁ey	-1131
▁opp	-1132
▁wonder	-1133
ided	-1134
ince	-1135
▁seen	-1136
where	-1137
ying	-1138
ash	-1139
ots	-1140
arth	-1141
▁matter	-1142
▁hour	-1143
▁soci	-1144
ograph	-1145
ott	-1146
▁stop	-1147
ortun	-1148
▁later	-1149
▁computer	-1150
▁six	-1151
▁eas	-1152
▁case	-1153
▁char	-1154
▁asked	-1155
▁experience	-1156
▁sit	-1157
▁having	-1158
▁basically	-1159
▁val	-1160
io	-1161
▁cult	-1162
ization	-1163
man	-1164
▁scient	-1165
ead	-1166
most	-1167
▁rob	-1168
▁days	-1169
pr	-1170
▁No	-1171
▁prot	-1172
ime	-1173
irl	-1174
▁cam	-1175
▁ways	-1176
llow	-1177
▁effect	-1178
gs	-1179
ilt	-1180
iter	-1181
▁research	-1182
▁level	-1183
▁complete	-1184
ins	-1185
▁family	-1186
▁mem	-1187
▁thous	-1188
ken	-1189
▁aut	-1190
▁planet	-1191
▁det	-1192
▁col	-1193
▁rest	-1194
▁music	-1195
ality	-1196
▁Se	-1197
▁single	-1198
▁mor	-1199
aps	-1200
▁inside	-1201
▁share	-1202
▁bre	-1203
▁list	-1204
▁Earth	-1205
ulation	-1206
▁problems	-1207
▁billion	-1208
▁environment	-1209
itive	-1210
▁ideas	-1211
▁saying	-1212
angu	-1213
▁cells	-1214
ED	-1215
ught	-1216
▁certain	-1217
▁global	-1218
orn	-1219
▁both	-1220
▁prof	-1221
▁pain	-1222
▁guy	-1223
▁mach	-1224
▁vide	-1225
▁watch	-1226
▁contin	-1227
▁par	-1228
▁hu	-1229
▁amaz	-1230
▁test	-1231
▁wrong	-1232
ready	-1233
▁langu	-1234
▁hear	-1235
▁yet	-1236
▁polit	-1237
▁ref	-1238
▁incred	-1239
med	-1240
▁equ	-1241
▁mil	-1242
▁sure	-1243
▁disco	-1244
▁looked	-1245
ants	-1246
▁dise	-1247
ivid	-1248
▁almost	-1249
ov	-1250
▁within	-1251
rop	-1252
osed	-1253
ury	-1254
less	-1255
▁dev	-1256
▁suc	-1257
▁once	-1258
▁looks	-1259
unch	-1260
▁while	-1261
▁che	-1262
▁stre	-1263
▁lab	-1264
▁loc	-1265
▁city	-1266
▁dire	-1267
▁answer	-1268
▁possible	-1269
▁age	-1270
▁self	-1271
▁public	-1272
▁heart	-1273
▁already	-1274
arent	-1275
side	-1276
ield	-1277
▁cost	-1278
ene	-1279
work	-1280
ior	-1281
pect	-1282
▁remember	-1283
▁'	-1284
▁beautif	-1285
▁product	-1286
▁whether	-1287
▁[	-1288
▁figure	-1289
allen	-1290
▁news	-1291
utes	-1292
▁nothing	-1293
▁true	-1294
▁heard	-1295
▁wa	-1296
aterial	-1297
▁unt	-1298
▁exact	-1299
▁history	-1300
lish	-1301
ases	-1302
▁fil	-1303
▁TED	-1304
▁exc	-1305
▁treat	-1306
Wh	-1307
uck	-1308
▁amazing	-1309
▁control	-1310
▁fore	-1311
de	-1312
eah	-1313
▁state	-1314
▁30	-1315
▁sw	-1316
ages	-1317
▁kill	-1318
▁Or	-1319
ware	-1320
▁cond	-1321
▁large	-1322
undred	-1323
▁Al	-1324
▁ass	-1325
ivity	-1326
▁class	-1327
iddle	-1328
▁piece	-1329
▁myself	-1330
▁often	-1331
land	-1332
▁couple	-1333
▁imagine	-1334
▁OK	-1335
▁months	-1336
▁community	-1337
vious	-1338
▁line	-1339
▁mag	-1340
▁cancer	-1341
▁everybody	-1342
▁works	-1343
▁50	-1344
▁group	-1345
▁Why	-1346
ling	-1347
ering	-1348
▁built	-1349
▁beautiful	-1350
▁must	-1351
▁men	-1352
▁individ	-1353
▁girl	-1354
▁United	-1355
▁hundred	-1356
▁someone	-1357
aster	-1358
▁face	-1359
▁net	-1360
▁market	-1361
▁material	-1362
▁night	-1363
▁Intern	-1364
▁vir	-1365
imate	-1366
▁front	-1367
▁challen	-1368
▁quick	-1369
bs	-1370
▁100	-1371
ush	-1372
▁aff	-1373
▁experim	-1374
..	-1375
ier	-1376
ired	-1377
ex	-1378
atic	-1379
▁incre	-1380
▁6	-1381
▁entire	-1382
▁full	-1383
▁video	-1384
▁iss	-1385
▁order	-1386
▁follow	-1387
▁places	-1388
▁pay	-1389
oice	-1390
▁India	-1391
▁spend	-1392
▁government	-1393
▁words	-1394
▁individual	-1395
▁adv	-1396
▁ret	-1397
▁sec	-1398
▁tre	-1399
get	-1400
▁9	-1401
ron	-1402
omes	-1403
▁dra	-1404
▁decided	-1405
▁education	-1406
▁result	-1407
▁di	-1408
bers	-1409
to	-1410
▁kinds	-1411
▁wasn	-1412
▁somebody	-1413
ane	-1414
ians	-1415
▁land	-1416
ructure	-1417
▁pos	-1418
▁species	-1419
▁isn	-1420
▁itself	-1421
up	-1422
▁abs	-1423
▁completely	-1424
▁cra	-1425
▁until	-1426
outh	-1427
▁happening	-1428
▁universe	-1429
br	-1430
▁inn	-1431
▁nature	-1432
aper	-1433
ives	-1434
▁name	-1435
▁view	-1436
▁language	-1437
cle	-1438
ined	-1439
▁tool	-1440
▁train	-1441
▁const	-1442
line	-1443
▁God	-1444
▁taking	-1445
...	-1446
▁exactly	-1447
▁huge	-1448
▁though	-1449
▁engine	-1450
▁past	-1451
▁States	-1452
cing	-1453
▁study	-1454
▁z	-1455
▁deep	-1456
▁Every	-1457
▁became	-1458
▁sca	-1459
▁deal	-1460
▁gets	-1461
ature	-1462
▁behav	-1463
ctor	-1464
▁game	-1465
▁focus	-1466
▁minutes	-1467
acter	-1468
▁America	-1469
▁students	-1470
ats	-1471
▁object	-1472
▁Internet	-1473
▁free	-1474
▁wind	-1475
▁woman	-1476
▁success	-1477
▁ourselves	-1478
ional	-1479
dd	-1480
etic	-1481
▁house	-1482
ogn	-1483
▁complex	-1484
▁stories	-1485
ream	-1486
ters	-1487
▁since	-1488
▁themselves	-1489
▁fund	-1490
ental	-1491
▁turns	-1492
▁rather	-1493
end	-1494
▁fly	-1495
▁close	-1496
▁along	-1497
▁mar	-1498
▁oce	-1499
▁Then	-1500
urs	-1501
ision	-1502
face	-1503
▁ones	-1504
▁Do	-1505
itting	-1506
▁Fr	-1507
▁friends	-1508
▁7	-1509
▁law	-1510
▁bott	-1511
▁learned	-1512
ability	-1513
▁mother	-1514
ames	-1515
▁meas	-1516
▁oil	-1517
▁won	-1518
▁guys	-1519
▁knew	-1520
uro	-1521
▁At	-1522
▁av	-1523
gest	-1524
▁meet	-1525
▁created	-1526
ien	-1527
▁...	-1528
▁invest	-1529
▁third	-1530
▁amount	-1531
▁company	-1532
omet	-1533
▁ris	-1534
▁hours	-1535
ption	-1536
▁society	-1537
cl	-1538
▁indust	-1539
▁Okay	-1540
▁animals	-1541
ibly	-1542
ator	-1543
▁questions	-1544
cc	-1545
▁China	-1546
cul	-1547
▁15	-1548
▁prov	-1549
▁liter	-1550
ivers	-1551
▁mass	-1552
▁couldn	-1553
icult	-1554
▁disease	-1555
▁8	-1556
▁worked	-1557
▁present	-1558
▁Ar	-1559
▁least	-1560
att	-1561
▁math	-1562
▁hold	-1563
▁early	-1564
aw	-1565
haps	-1566
▁var	-1567
▁lots	-1568
▁clear	-1569
▁collect	-1570
ming	-1571
▁arch	-1572
sy	-1573
▁aud	-1574
ral	-1575
▁Sh	-1576
▁mic	-1577
▁gave	-1578
▁expect	-1579
wards	-1580
▁Can	-1581
▁Some	-1582
▁pred	-1583
▁sometimes	-1584
app	-1585
▁bab	-1586
▁everyone	-1587
▁relations	-1588
▁shap	-1589
▁hy	-1590
▁York	-1591
▁area	-1592
▁rad	-1593
istic	-1594
▁opportun	-1595
▁happy	-1596
eg	-1597
The	-1598
ium	-1599
ted	-1600
▁speak	-1601
▁program	-1602
▁innov	-1603
ones	-1604
thers	-1605
▁mess	-1606
▁field	-1607
▁5	-1608
olved	-1609
▁against	-1610
ee	-1611
▁sens	-1612
▁interact	-1613
▁outside	-1614
▁difficult	-1615
ples	-1616
▁cir	-1617
▁oper	-1618
▁difference	-1619
▁rev	-1620
▁ill	-1621
▁Br	-1622
▁norm	-1623
▁learning	-1624
▁thousands	-1625
▁Pe	-1626
▁cut	-1627
▁mot	-1628
▁beginning	-1629
ially	-1630
▁listen	-1631
▁dru	-1632
▁extra	-1633
▁systems	-1634
▁typ	-1635
vered	-1636
▁appro	-1637
fect	-1638
▁parent	-1639
▁wonderful	-1640
not	-1641
▁seven	-1642
▁terms	-1643
aking	-1644
▁technolog	-1645
▁step	-1646
▁green	-1647
▁century	-1648
▁moving	-1649
▁death	-1650
▁natural	-1651
▁network	-1652
▁American	-1653
▁instead	-1654
▁taken	-1655
▁bro	-1656
▁pattern	-1657
ither	-1658
illions	-1659
erv	-1660
▁ve	-1661
▁dig	-1662
ination	-1663
▁middle	-1664
▁others	-1665
▁non	-1666
iqu	-1667
ider	-1668
▁eyes	-1669
▁team	-1670
▁behavior	-1671
ared	-1672
astic	-1673
ients	-1674
gen	-1675
ully	-1676
▁short	-1677
▁takes	-1678
ret	-1679
▁da	-1680
Well	-1681
▁leave	-1682
els	-1683
▁ant	-1684
▁explain	-1685
ides	-1686
▁recent	-1687
▁machine	-1688
▁population	-1689
▁tem	-1690
▁fail	-1691
verage	-1692
ove	-1693
olute	-1694
orth	-1695
▁black	-1696
▁exist	-1697
ential	-1698
▁18	-1699
▁red	-1700
▁eight	-1701
▁record	-1702
▁Eng	-1703
▁needs	-1704
▁during	-1705
▁pot	-1706
▁protect	-1707
▁sym	-1708
▁yourself	-1709
▁relationship	-1710
ey	-1711
▁miss	-1712
▁robot	-1713
▁support	-1714
ump	-1715
▁12	-1716
ero	-1717
ery	-1718
rew	-1719
▁fre	-1720
▁squ	-1721
utions	-1722
▁finally	-1723
inary	-1724
▁intell	-1725
▁obvious	-1726
▁seeing	-1727
aring	-1728
itions	-1729
jor	-1730
ased	-1731
▁easy	-1732
▁low	-1733
ern	-1734
▁hands	-1735
▁parts	-1736
ale	-1737
itch	-1738
▁culture	-1739
▁interested	-1740
▁occ	-1741
▁image	-1742
▁ocean	-1743
▁turned	-1744
▁sun	-1745
▁changed	-1746
▁tot	-1747
▁chem	-1748
▁given	-1749
▁buy	-1750
itect	-1751
▁communic	-1752
era	-1753
▁perhaps	-1754
▁ple	-1755
sych	-1756
xy	-1757
ude	-1758
▁dep	-1759
▁Euro	-1760
▁es	-1761
▁lim	-1762
▁began	-1763
▁reach	-1764
ply	-1765
▁size	-1766
▁colle	-1767
ror	-1768
▁perfect	-1769
ented	-1770
▁emot	-1771
▁fall	-1772
▁break	-1773
▁whatever	-1774
port	-1775
iving	-1776
▁leg	-1777
▁wall	-1778
▁Not	-1779
▁major	-1780
▁common	-1781
oh	-1782
▁arg	-1783
▁incl	-1784
▁jour	-1785
▁super	-1786
▁longer	-1787
▁absolute	-1788
▁cannot	-1789
year	-1790
▁ess	-1791
▁40	-1792
▁pick	-1793
▁Europe	-1794
▁behind	-1795
▁On	-1796
ource	-1797
▁quickly	-1798
▁impro	-1799
▁local	-1800
▁tried	-1801
▁event	-1802
▁access	-1803
fully	-1804
▁Just	-1805
▁simply	-1806
▁week	-1807
▁needed	-1808
bo	-1809
▁jo	-1810
▁gone	-1811
▁consum	-1812
elt	-1813
▁trad	-1814
ills	-1815
▁perform	-1816
▁cal	-1817
▁situ	-1818
▁friend	-1819
▁emb	-1820
idence	-1821
rought	-1822
▁paper	-1823
▁psych	-1824
▁economic	-1825
▁architect	-1826
ges	-1827
ledge	-1828
reme	-1829
▁eat	-1830
▁structure	-1831
NA	-1832
iol	-1833
▁sent	-1834
▁personal	-1835
▁powerful	-1836
▁famil	-1837
▁grand	-1838
▁People	-1839
▁special	-1840
orld	-1841
▁serv	-1842
▁pract	-1843
lt	-1844
▁surv	-1845
▁vers	-1846
▁spent	-1847
▁repres	-1848
▁realized	-1849
avor	-1850
▁dark	-1851
oph	-1852
osp	-1853
▁stay	-1854
▁cle	-1855
▁direct	-1856
▁photograph	-1857
▁father	-1858
▁scale	-1859
▁cities	-1860
▁evolution	-1861
▁feet	-1862
▁ability	-1863
▁conv	-1864
▁orig	-1865
▁measure	-1866
ule	-1867
▁Right	-1868
▁ground	-1869
ony	-1870
▁key	-1871
▁sum	-1872
▁known	-1873
▁surpr	-1874
▁democ	-1875
▁sitting	-1876
ison	-1877
▁May	-1878
▁yes	-1879
ising	-1880
▁relig	-1881
ilar	-1882
▁saf	-1883
▁press	-1884
▁recogn	-1885
You	-1886
lect	-1887
▁ident	-1888
▁surface	-1889
hood	-1890
rodu	-1891
ibility	-1892
ouch	-1893
▁pull	-1894
ler	-1895
▁blue	-1896
▁economy	-1897
ged	-1898
▁mult	-1899
ney	-1900
▁To	-1901
rent	-1902
▁feed	-1903
▁poor	-1904
▁requ	-1905
pped	-1906
▁post	-1907
▁media	-1908
▁film	-1909
ources	-1910
▁shows	-1911
▁experiment	-1912
▁incredible	-1913
▁cool	-1914
ological	-1915
▁parents	-1916
ode	-1917
▁lost	-1918
ton	-1919
▁civ	-1920
▁mole	-1921
▁blood	-1922
▁companies	-1923
▁political	-1924
ann	-1925
com	-1926
ike	-1927
ised	-1928
▁fear	-1929
hor	-1930
▁mov	-1931
▁humans	-1932
▁draw	-1933
▁fast	-1934
inal	-1935
▁foot	-1936
▁dream	-1937
uses	-1938
▁bottom	-1939
▁brought	-1940
oll	-1941
▁fish	-1942
▁value	-1943
▁either	-1944
ift	-1945
ards	-1946
▁dest	-1947
▁felt	-1948
▁nice	-1949
▁slow	-1950
▁travel	-1951
▁approach	-1952
ators	-1953
▁weeks	-1954
▁wouldn	-1955
izing	-1956
▁Tw	-1957
dden	-1958
▁ste	-1959
▁books	-1960
What	-1961
ument	-1962
▁bene	-1963
▁sudden	-1964
▁desc	-1965
▁write	-1966
bor	-1967
room	-1968
iversity	-1969
▁predict	-1970
▁cy	-1971
leep	-1972
▁DNA	-1973
▁obs	-1974
▁miles	-1975
iny	-1976
ole	-1977
ried	-1978
▁priv	-1979
▁animal	-1980
of	-1981
ext	-1982
▁del	-1983
▁born	-1984
sh	-1985
gle	-1986
▁Chr	-1987
▁serious	-1988
▁growth	-1989
▁strong	-1990
entially	-1991
▁opportunity	-1992
▁box	-1993
▁changes	-1994
▁soft	-1995
▁World	-1996
▁average	-1997
▁morning	-1998
▁starting	-1999
urb	-2000
ains	-2001
ived	-2002
▁opt	-2003
▁flow	-2004
▁feeling	-2005
▁ge	-2006
▁near	-2007
▁based	-2008
▁Z	-2009
vent	-2010
cially	-2011
▁technologies	-2012
▁die	-2013
▁enc	-2014
▁win	-2015
eng	-2016
▁areas	-2017
▁force	-2018
▁wrote	-2019
▁growing	-2020
▁respons	-2021
▁electric	-2022
▁developed	-2023
uth	-2024
▁har	-2025
cious	-2026
▁redu	-2027
ression	-2028
▁Re	-2029
▁extreme	-2030
▁knowledge	-2031
▁attention	-2032
oon	-2033
ored	-2034
▁bar	-2035
▁send	-2036
▁stra	-2037
▁fight	-2038
erm	-2039
ances	-2040
▁reality	-2041
▁cop	-2042
▁literally	-2043
▁insp	-2044
▁repl	-2045
▁phone	-2046
▁impact	-2047
▁physical	-2048
▁ap	-2049
▁tele	-2050
ala	-2051
▁deg	-2052
lu	-2053
▁thank	-2054
▁numbers	-2055
▁sho	-2056
ensive	-2057
▁challenge	-2058
▁hor	-2059
assion	-2060
▁giving	-2061
▁instit	-2062
▁pur	-2063
▁spread	-2064
▁vol	-2065
▁viol	-2066
▁profess	-2067
arr	-2068
▁fac	-2069
▁tools	-2070
▁center	-2071
ging	-2072
▁main	-2073
▁civil	-2074
zy	-2075
▁map	-2076
▁sex	-2077
▁crit	-2078
▁vill	-2079
▁gives	-2080
amp	-2081
▁favor	-2082
▁guess	-2083
▁realize	-2084
▁theory	-2085
▁forward	-2086
▁understanding	-2087
▁stat	-2088
▁seems	-2089
▁ast	-2090
▁hot	-2091
▁prin	-2092
▁neigh	-2093
▁intern	-2094
▁concept	-2095
▁playing	-2096
▁Man	-2097
▁rul	-2098
▁Yeah	-2099
▁touch	-2100
▁images	-2101
▁audience	-2102
bon	-2103
▁circ	-2104
aly	-2105
racy	-2106
par	-2107
imens	-2108
▁depe	-2109
▁text	-2110
▁white	-2111
▁visual	-2112
ustain	-2113
▁telling	-2114
eed	-2115
por	-2116
chie	-2117
▁dead	-2118
iod	-2119
▁sell	-2120
▁similar	-2121
anger	-2122
▁hosp	-2123
▁path	-2124
▁univers	-2125
▁scientists	-2126
▁fu	-2127
▁rock	-2128
erence	-2129
▁running	-2130
aged	-2131
▁comb	-2132
▁compet	-2133
▁English	-2134
ped	-2135
▁flo	-2136
▁ice	-2137
▁risk	-2138
▁road	-2139
▁talked	-2140
▁absolutely	-2141
▁sea	-2142
ggest	-2143
▁shape	-2144
head	-2145
ively	-2146
▁anyone	-2147
▁discovered	-2148
▁alone	-2149
▁avail	-2150
▁micro	-2151
▁proper	-2152
▁suggest	-2153
▁developing	-2154
icy	-2155
oud	-2156
ales	-2157
▁aren	-2158
▁rele	-2159
▁color	-2160
ateg	-2161
▁prop	-2162
▁benef	-2163
▁knows	-2164
▁stage	-2165
▁worth	-2166
▁showed	-2167
▁patients	-2168
▁leaders	-2169
▁patient	-2170
▁er	-2171
▁sil	-2172
▁development	-2173
amed	-2174
ploy	-2175
ified	-2176
▁ball	-2177
omen	-2178
▁affect	-2179
▁current	-2180
▁hundreds	-2181
iet	-2182
ration	-2183
▁climate	-2184
▁industry	-2185
▁—	-2186
ung	-2187
▁period	-2188
▁Chinese	-2189
▁intellig	-2190
▁ult	-2191
▁prom	-2192
▁type	-2193
▁mathem	-2194
▁track	-2195
▁meaning	-2196
▁produce	-2197
▁millions	-2198
acy	-2199
▁movement	-2200
ival	-2201
▁est	-2202
▁Our	-2203
▁suff	-2204
▁normal	-2205
pecially	-2206
▁sn	-2207
▁lif	-2208
▁wish	-2209
▁sleep	-2210
▁modern	-2211
▁incredibly	-2212
by	-2213
like	-2214
asing	-2215
ai	-2216
▁arr	-2217
▁fur	-2218
▁nuc	-2219
urity	-2220
▁soon	-2221
▁becomes	-2222
ug	-2223
▁South	-2224
▁issue	-2225
▁fire	-2226
▁seem	-2227
▁medic	-2228
▁creating	-2229
▁situation	-2230
Th	-2231
▁baby	-2232
▁save	-2233
▁recently	-2234
▁compassion	-2235
▁25	-2236
▁din	-2237
▁lay	-2238
▁rate	-2239
▁rich	-2240
▁cars	-2241
▁poll	-2242
▁haven	-2243
▁subject	-2244
▁computers	-2245
apt	-2246
ilities	-2247
▁device	-2248
▁bigger	-2249
▁includ	-2250
▁199	-2251
▁attack	-2252
▁fundam	-2253
▁reasons	-2254
▁available	-2255
▁tradition	-2256
▁flu	-2257
chan	-2258
▁achie	-2259
▁solution	-2260
ique	-2261
▁arm	-2262
▁imm	-2263
▁song	-2264
▁except	-2265
▁designed	-2266
ites	-2267
osph	-2268
▁tiny	-2269
▁table	-2270
▁pictures	-2271
iant	-2272
light	-2273
▁smart	-2274
▁truth	-2275
ency	-2276
▁sold	-2277
▁emerg	-2278
▁dou	-2279
▁camp	-2280
▁innovation	-2281
bit	-2282
put	-2283
▁De	-2284
arily	-2285
▁fair	-2286
▁games	-2287
▁street	-2288
▁sustain	-2289
abor	-2290
▁neur	-2291
▁putting	-2292
▁transform	-2293
Oh	-2294
ister	-2295
▁girls	-2296
nam	-2297
▁eye	-2298
▁hon	-2299
▁among	-2300
▁especially	-2301
oose	-2302
▁neg	-2303
▁react	-2304
ik	-2305
unt	-2306
ences	-2307
▁died	-2308
▁convers	-2309
▁bird	-2310
istan	-2311
wh	-2312
▁bed	-2313
▁vac	-2314
oring	-2315
▁lived	-2316
▁speed	-2317
▁involved	-2318
pre	-2319
vert	-2320
▁plant	-2321
▁necess	-2322
▁emp	-2323
▁drive	-2324
▁rules	-2325
▁towards	-2326
▁With	-2327
▁anybody	-2328
▁writing	-2329
yond	-2330
▁evidence	-2331
▁By	-2332
▁Com	-2333
▁lea	-2334
▁asking	-2335
▁carbon	-2336
pan	-2337
▁Ph	-2338
ades	-2339
▁bra	-2340
ishing	-2341
▁function	-2342
▁character	-2343
▁obviously	-2344
ify	-2345
▁60	-2346
▁defin	-2347
▁groups	-2348
ask	-2349
▁sounds	-2350
ned	-2351
▁dom	-2352
ished	-2353
▁clos	-2354
▁revolution	-2355
asc	-2356
▁Goo	-2357
▁sat	-2358
▁syn	-2359
▁screen	-2360
ief	-2361
ny	-2362
▁skin	-2363
▁schools	-2364
▁changing	-2365
▁resources	-2366
medi	-2367
ously	-2368
▁Inst	-2369
▁link	-2370
▁sever	-2371
▁chance	-2372
▁digital	-2373
▁medical	-2374
▁particularly	-2375
▁unf	-2376
▁solve	-2377
▁issues	-2378
▁software	-2379
umb	-2380
une	-2381
▁mechan	-2382
▁general	-2383
▁extraord	-2384
▁Oh	-2385
▁basic	-2386
▁trust	-2387
▁showing	-2388
▁gas	-2389
▁tend	-2390
▁beyond	-2391
▁mount	-2392
▁office	-2393
▁online	-2394
▁further	-2395
▁ce	-2396
used	-2397
▁Any	-2398
▁nine	-2399
▁examples	-2400
▁materials	-2401
pid	-2402
▁hit	-2403
▁prim	-2404
▁experien	-2405
▁ec	-2406
▁fa	-2407
idge	-2408
ma	-2409
ressed	-2410
▁block	-2411
▁positive	-2412
irth	-2413
pping	-2414
▁likely	-2415
▁princi	-2416
▁several	-2417
▁graph	-2418
▁certainly	-2419
oms	-2420
lict	-2421
▁Yes	-2422
▁onto	-2423
▁Maybe	-2424
▁wants	-2425
▁action	-2426
▁nobody	-2427
▁capital	-2428
IV	-2429
ows	-2430
▁aw	-2431
ground	-2432
▁voice	-2433
▁First	-2434
▁clean	-2435
▁trial	-2436
▁context	-2437
▁totally	-2438
▁ep	-2439
rast	-2440
▁log	-2441
oices	-2442
▁breat	-2443
▁starts	-2444
▁HIV	-2445
▁message	-2446
rest	-2447
▁Google	-2448
▁quality	-2449
▁scientific	-2450
eth	-2451
how	-2452
rate	-2453
▁div	-2454
▁movie	-2455
▁report	-2456
▁happiness	-2457
▁generation	-2458
aur	-2459
iar	-2460
icle	-2461
itten	-2462
▁Where	-2463
▁moved	-2464
▁bacter	-2465
▁choice	-2466
▁Of	-2467
itary	-2468
▁Brit	-2469
▁danger	-2470
▁walking	-2471
▁thousand	-2472
oke	-2473
book	-2474
fort	-2475
▁rain	-2476
▁effic	-2477
▁projects	-2478
▁af	-2479
usion	-2480
▁sequ	-2481
▁cross	-2482
▁solar	-2483
▁supposed	-2484
▁teachers	-2485
ips	-2486
▁Im	-2487
▁okay	-2488
▁memory	-2489
▁nuclear	-2490
▁student	-2491
▁check	-2492
▁vision	-2493
▁perspect	-2494
ires	-2495
view	-2496
▁fant	-2497
▁Joh	-2498
▁door	-2499
▁democracy	-2500
▁plants	-2501
▁everywhere	-2502
ev	-2503
the	-2504
akes	-2505
tend	-2506
▁adm	-2507
▁fix	-2508
▁mob	-2509
▁North	-2510
▁stick	-2511
▁biggest	-2512
▁chemical	-2513
▁exciting	-2514
▁potential	-2515
apan	-2516
ought	-2517
rible	-2518
▁depend	-2519
▁complic	-2520
ns	-2521
uly	-2522
▁Am	-2523
▁pu	-2524
antly	-2525
▁bunch	-2526
▁carry	-2527
▁passion	-2528
▁pa	-2529
▁mine	-2530
▁encou	-2531
▁store	-2532
▁Most	-2533
▁camera	-2534
cient	-2535
▁West	-2536
▁fill	-2537
▁safe	-2538
▁spir	-2539
▁stru	-2540
iction	-2541
▁ready	-2542
▁notice	-2543
▁search	-2544
▁activity	-2545
▁neighbor	-2546
come	-2547
more	-2548
▁farm	-2549
▁birth	-2550
lo	-2551
ina	-2552
▁16	-2553
▁push	-2554
▁Japan	-2555
▁security	-2556
▁connected	-2557
▁mal	-2558
▁son	-2559
igher	-2560
▁fing	-2561
▁aware	-2562
▁earli	-2563
▁separ	-2564
▁sorts	-2565
▁immedi	-2566
▁account	-2567
▁journey	-2568
▁village	-2569
▁individuals	-2570
onse	-2571
▁virt	-2572
▁earth	-2573
▁watching	-2574
▁represent	-2575
▁80	-2576
iger	-2577
▁dam	-2578
▁drug	-2579
▁grew	-2580
▁named	-2581
▁higher	-2582
▁national	-2583
met	-2584
mend	-2585
ring	-2586
osphere	-2587
▁introdu	-2588
▁discover	-2589
uit	-2590
▁rid	-2591
▁meant	-2592
▁peace	-2593
ruction	-2594
▁continue	-2595
▁extremely	-2596
▁essentially	-2597
▁11	-2598
▁meth	-2599
isions	-2600
▁temper	-2601
▁transl	-2602
▁particip	-2603
ran	-2604
ners	-2605
rial	-2606
▁dro	-2607
▁diag	-2608
▁appear	-2609
▁return	-2610
▁largest	-2611
.,	-2612
ze	-2613
ster	-2614
▁webs	-2615
▁disapp	-2616
▁hospital	-2617
▁suddenly	-2618
▁Ge	-2619
cuss	-2620
isms	-2621
▁code	-2622
▁magn	-2623
▁vari	-2624
▁buildings	-2625
lex	-2626
▁After	-2627
▁activ	-2628
▁allowed	-2629
▁favorite	-2630
rad	-2631
▁Cal	-2632
verty	-2633
▁lose	-2634
▁detail	-2635
▁larger	-2636
▁mathemat	-2637
▁response	-2638
▁sand	-2639
ission	-2640
▁moral	-2641
▁square	-2642
▁eventually	-2643
▁Pro	-2644
▁bom	-2645
ctors	-2646
▁somewhere	-2647
▁extraordinary	-2648
▁drugs	-2649
▁influ	-2650
▁minute	-2651
▁African	-2652
anc	-2653
▁oxy	-2654
▁faster	-2655
▁results	-2656
ids	-2657
▁14	-2658
▁Don	-2659
▁Look	-2660
▁cart	-2661
▁goal	-2662
▁rece	-2663
▁above	-2664
▁apart	-2665
▁points	-2666
▁distrib	-2667
joy	-2668
▁boy	-2669
▁clin	-2670
▁gala	-2671
▁crazy	-2672
▁ended	-2673
▁shown	-2674
▁remark	-2675
▁signific	-2676
erve	-2677
▁led	-2678
conds	-2679
oming	-2680
rated	-2681
useum	-2682
▁Even	-2683
▁cris	-2684
▁site	-2685
▁forms	-2686
▁reading	-2687
edom	-2688
▁ann	-2689
▁cause	-2690
▁trees	-2691
▁series	-2692
▁tar	-2693
▁role	-2694
▁adult	-2695
▁assum	-2696
▁waste	-2697
▁continu	-2698
mb	-2699
ops	-2700
ffic	-2701
▁wait	-2702
estern	-2703
▁infect	-2704
▁pieces	-2705
▁teacher	-2706
ture	-2707
▁jobs	-2708
▁collabor	-2709
rage	-2710
▁Who	-2711
▁fine	-2712
▁wife	-2713
▁source	-2714
▁electricity	-2715
▁dy	-2716
cape	-2717
▁War	-2718
urban	-2719
▁tells	-2720
ossible	-2721
▁brains	-2722
▁threat	-2723
▁improve	-2724
▁poverty	-2725
▁perspective	-2726
▁bal	-2727
▁bur	-2728
▁late	-2729
▁blind	-2730
▁labor	-2731
▁objects	-2732
We	-2733
rel	-2734
cise	-2735
▁Car	-2736
▁deb	-2737
▁East	-2738
▁concer	-2739
▁models	-2740
▁robots	-2741
▁college	-2742
▁consider	-2743
▁position	-2744
▁conditions	-2745
▁successful	-2746
nal	-2747
▁luck	-2748
▁pack	-2749
▁mention	-2750
▁written	-2751
▁complicated	-2752
▁Ag	-2753
▁Pr	-2754
ulate	-2755
▁phen	-2756
▁phil	-2757
▁enjoy	-2758
▁doctor	-2759
▁excited	-2760
▁studies	-2761
▁usually	-2762
others	-2763
▁prote	-2764
▁actual	-2765
▁detect	-2766
▁taught	-2767
nces	-2768
▁pen	-2769
atory	-2770
ining	-2771
odies	-2772
▁fram	-2773
▁mist	-2774
▁yeah	-2775
▁Those	-2776
▁worse	-2777
▁biology	-2778
▁conflict	-2779
▁page	-2780
▁town	-2781
▁killed	-2782
▁publish	-2783
▁straight	-2784
po	-2785
▁Ab	-2786
▁lands	-2787
▁molec	-2788
▁please	-2789
▁somehow	-2790
▁products	-2791
▁fundamental	-2792
No	-2793
itiz	-2794
▁genes	-2795
▁smaller	-2796
▁standing	-2797
men	-2798
▁17	-2799
eter	-2800
▁sky	-2801
▁burn	-2802
▁calcul	-2803
▁skills	-2804
▁content	-2805
ortunately	-2806
inct	-2807
▁fra	-2808
▁kept	-2809
▁older	-2810
▁indeed	-2811
▁policy	-2812
▁finding	-2813
rum	-2814
ulf	-2815
▁Le	-2816
▁fem	-2817
▁Like	-2818
▁upon	-2819
▁version	-2820
▁creative	-2821
zz	-2822
imb	-2823
sect	-2824
▁mis	-2825
▁heav	-2826
▁tree	-2827
▁Which	-2828
▁launch	-2829
izations	-2830
▁communities	-2831
ama	-2832
rap	-2833
onst	-2834
▁trou	-2835
▁minds	-2836
▁price	-2837
▁allows	-2838
▁respect	-2839
▁medicine	-2840
▁conscious	-2841
ays	-2842
for	-2843
rom	-2844
epend	-2845
▁enorm	-2846
▁lines	-2847
▁Christ	-2848
▁forest	-2849
▁anywhere	-2850
▁military	-2851
▁progress	-2852
▁impossible	-2853
ims	-2854
lam	-2855
inated	-2856
though	-2857
▁alive	-2858
▁cases	-2859
▁phenomen	-2860
ches	-2861
▁198	-2862
▁bank	-2863
▁afford	-2864
▁surger	-2865
▁Cl	-2866
▁Mar	-2867
▁cold	-2868
▁cook	-2869
▁star	-2870
▁glass	-2871
▁fantastic	-2872
▁kil	-2873
ounds	-2874
▁strange	-2875
▁training	-2876
!"	-2877
▁Q	-2878
▁cat	-2879
▁truly	-2880
▁beings	-2881
▁crisis	-2882
▁contrib	-2883
▁discuss	-2884
▁painting	-2885
▁including	-2886
▁port	-2887
▁citiz	-2888
▁throw	-2889
▁strateg	-2890
▁families	-2891
dom	-2892
▁TV	-2893
▁card	-2894
▁occur	-2895
▁spect	-2896
▁himself	-2897
▁critical	-2898
▁increase	-2899
▁patterns	-2900
oles	-2901
soci	-2902
▁whe	-2903
▁print	-2904
▁stars	-2905
▁author	-2906
▁provide	-2907
▁recognize	-2908
▁organization	-2909
fact	-2910
▁Act	-2911
▁purp	-2912
▁cover	-2913
▁forth	-2914
▁accept	-2915
▁colleag	-2916
▁seconds	-2917
▁decision	-2918
▁Americans	-2919
▁expensive	-2920
▁transport	-2921
▁increasing	-2922
ube	-2923
time	-2924
▁dog	-2925
▁swe	-2926
▁wild	-2927
▁choose	-2928
▁daught	-2929
▁conversation	-2930
go	-2931
▁veh	-2932
ables	-2933
▁Afgh	-2934
▁earlier	-2935
▁treatment	-2936
▁pig	-2937
▁roll	-2938
▁costs	-2939
▁trick	-2940
▁determ	-2941
▁famous	-2942
▁mental	-2943
▁prison	-2944
▁anymore	-2945
iven	-2946
▁sal	-2947
▁Somet	-2948
▁lower	-2949
▁engage	-2950
▁region	-2951
▁achieve	-2952
▁machines	-2953
lebr	-2954
ping	-2955
▁Tod	-2956
▁board	-2957
▁worry	-2958
▁effort	-2959
▁Another	-2960
▁healthy	-2961
▁architecture	-2962
▁Har	-2963
▁zero	-2964
▁cloud	-2965
▁remind	-2966
▁terror	-2967
▁waiting	-2968
▁90	-2969
rams	-2970
rect	-2971
▁eth	-2972
▁hop	-2973
thern	-2974
▁fasc	-2975
▁neurons	-2976
▁traditional	-2977
ana	-2978
let	-2979
▁13	-2980
▁Are	-2981
▁familiar	-2982
▁Sp	-2983
ribe	-2984
▁alg	-2985
▁ign	-2986
istics	-2987
▁urban	-2988
▁plastic	-2989
▁private	-2990
▁service	-2991
▁website	-2992
▁21	-2993
▁Sw	-2994
▁greater	-2995
▁direction	-2996
▁listening	-2997
▁magic	-2998
▁Afghan	-2999
▁employ	-3000
▁freedom	-3001
▁specific	-3002
▁decisions	-3003
▁therefore	-3004
▁production	-3005
uss	-3006
back	-3007
nter	-3008
▁ran	-3009
▁shot	-3010
ricult	-3011
▁floor	-3012
▁driving	-3013
▁explore	-3014
▁solutions	-3015
acity	-3016
iling	-3017
▁slight	-3018
▁bacteria	-3019
▁violence	-3020
fer	-3021
▁Go	-3022
rees	-3023
uted	-3024
▁cry	-3025
ently	-3026
▁fuel	-3027
▁jump	-3028
▁prep	-3029
▁rise	-3030
▁celebr	-3031
enn	-3032
oid	-3033
itude	-3034
orrow	-3035
▁legs	-3036
vision	-3037
▁beauty	-3038
▁unique	-3039
bol	-3040
iti	-3041
▁sou	-3042
right	-3043
▁term	-3044
▁virus	-3045
inating	-3046
▁multip	-3047
▁secret	-3048
▁genetic	-3049
ky	-3050
▁i	-3051
▁Ex	-3052
cies	-3053
sequ	-3054
▁lad	-3055
erman	-3056
▁stri	-3057
▁range	-3058
▁spirit	-3059
▁weight	-3060
ologists	-3061
▁clearly	-3062
▁physics	-3063
▁various	-3064
pro	-3065
eless	-3066
▁hair	-3067
▁finan	-3068
▁types	-3069
imately	-3070
▁levels	-3071
▁immediately	-3072
mic	-3073
▁sus	-3074
▁anal	-3075
▁optim	-3076
▁slide	-3077
▁saving	-3078
atically	-3079
▁invented	-3080
▁throughout	-3081
▁X	-3082
▁doc	-3083
▁hero	-3084
▁final	-3085
▁comfort	-3086
▁willing	-3087
▁Imag	-3088
▁crow	-3089
▁Today	-3090
▁integ	-3091
▁values	-3092
▁walked	-3093
▁becoming	-3094
oty	-3095
▁John	-3096
▁autom	-3097
▁drink	-3098
▁dynam	-3099
▁income	-3100
▁greatest	-3101
▁temperature	-3102
▁intelligence	-3103
▁environmental	-3104
▁international	-3105
iced	-3106
iles	-3107
▁Mars	-3108
itation	-3109
▁rights	-3110
▁oh	-3111
aria	-3112
▁uses	-3113
▁weap	-3114
▁manage	-3115
▁Western	-3116
▁address	-3117
▁express	-3118
▁teaching	-3119
ils	-3120
▁Bl	-3121
▁et	-3122
resh	-3123
▁Ste	-3124
▁City	-3125
▁task	-3126
▁agricult	-3127
▁hyd	-3128
▁web	-3129
▁struct	-3130
▁dangerous	-3131
▁following	-3132
60	-3133
▁atm	-3134
osing	-3135
▁dance	-3136
▁method	-3137
▁respond	-3138
airs	-3139
orry	-3140
▁exh	-3141
▁ord	-3142
board	-3143
ystem	-3144
▁vacc	-3145
▁broad	-3146
▁displ	-3147
▁weren	-3148
▁Indian	-3149
▁flying	-3150
▁condition	-3151
▁University	-3152
ript	-3153
▁thr	-3154
aging	-3155
▁loved	-3156
▁match	-3157
▁simpl	-3158
▁strugg	-3159
aries	-3160
▁anyway	-3161
▁wealth	-3162
▁survive	-3163
▁television	-3164
▁understood	-3165
▁institutions	-3166
bb	-3167
udd	-3168
ugh	-3169
urt	-3170
ceed	-3171
attle	-3172
▁blog	-3173
ashing	-3174
▁catch	-3175
▁Second	-3176
▁forget	-3177
▁massive	-3178
▁enormous	-3179
▁connection	-3180
▁neighborhood	-3181
▁Two	-3182
ained	-3183
prene	-3184
▁desp	-3185
▁park	-3186
reprene	-3187
▁bodies	-3188
▁stress	-3189
▁Imagine	-3190
▁relative	-3191
▁services	-3192
▁remarkable	-3193
▁engineering	-3194
amm	-3195
pes	-3196
▁Ad	-3197
ball	-3198
▁201	-3199
▁Mus	-3200
▁jud	-3201
▁mut	-3202
iation	-3203
▁apply	-3204
▁concl	-3205
▁oxygen	-3206
▁switch	-3207
▁infrast	-3208
▁standard	-3209
▁effective	-3210
eny	-3211
anda	-3212
eral	-3213
▁Ara	-3214
▁Sch	-3215
iring	-3216
▁Cent	-3217
▁rand	-3218
▁tiss	-3219
▁ahead	-3220
▁dimens	-3221
▁nation	-3222
▁popular	-3223
▁surgery	-3224
▁although	-3225
ID	-3226
itor	-3227
antic	-3228
▁insect	-3229
▁states	-3230
▁demonst	-3231
▁instance	-3232
SA	-3233
▁laws	-3234
▁career	-3235
▁invent	-3236
▁summer	-3237
▁directly	-3238
▁possibly	-3239
▁practice	-3240
▁religion	-3241
▁nut	-3242
▁Your	-3243
▁base	-3244
▁heat	-3245
▁rule	-3246
▁yell	-3247
▁gradu	-3248
▁artist	-3249
▁decade	-3250
▁forces	-3251
▁electron	-3252
arm	-3253
iding	-3254
ondon	-3255
▁Aust	-3256
▁below	-3257
▁motiv	-3258
▁commer	-3259
▁destro	-3260
▁useful	-3261
▁terrible	-3262
▁24	-3263
▁70	-3264
▁197	-3265
▁sad	-3266
▁copy	-3267
▁sick	-3268
▁shark	-3269
▁babies	-3270
▁police	-3271
▁random	-3272
▁meeting	-3273
▁diseases	-3274
cr	-3275
key	-3276
wise	-3277
▁aid	-3278
▁dad	-3279
▁London	-3280
▁describ	-3281
▁tremend	-3282
▁cultural	-3283
▁performance	-3284
How	-3285
ech	-3286
▁500	-3287
▁appl	-3288
▁decide	-3289
▁mobile	-3290
▁original	-3291
unk	-3292
aign	-3293
olve	-3294
▁dri	-3295
▁fit	-3296
▁pan	-3297
▁Char	-3298
▁German	-3299
▁associ	-3300
▁compon	-3301
▁physic	-3302
▁humanity	-3303
cks	-3304
▁Dr	-3305
ened	-3306
wood	-3307
▁dram	-3308
cience	-3309
▁Think	-3310
▁raise	-3311
▁trade	-3312
▁active	-3313
▁central	-3314
▁effects	-3315
▁capacity	-3316
▁politics	-3317
▁profound	-3318
uct	-3319
ancy	-3320
edia	-3321
▁hous	-3322
▁swim	-3323
ception	-3324
ologist	-3325
▁bought	-3326
▁causes	-3327
▁philos	-3328
▁consequ	-3329
▁National	-3330
▁atmosphere	-3331
▁Pl	-3332
▁ir	-3333
▁300	-3334
▁etc	-3335
▁sam	-3336
itted	-3337
▁hole	-3338
▁airpl	-3339
▁whose	-3340
▁evolved	-3341
▁streets	-3342
▁produced	-3343
▁programs	-3344
▁entreprene	-3345
ios	-3346
raq	-3347
aling	-3348
cules	-3349
iforn	-3350
▁drop	-3351
▁fold	-3352
▁supply	-3353
▁Californ	-3354
▁networks	-3355
▁pressure	-3356
▁speaking	-3357
iber	-3358
▁email	-3359
▁funny	-3360
▁radio	-3361
▁shoot	-3362
▁citizens	-3363
▁creativity	-3364
cell	-3365
ufact	-3366
▁Cong	-3367
ashion	-3368
▁quant	-3369
▁corner	-3370
▁mostly	-3371
▁spending	-3372
▁interview	-3373
▁experiments	-3374
load	-3375
▁mid	-3376
▁coff	-3377
▁twice	-3378
▁histor	-3379
▁societ	-3380
▁workers	-3381
▁surround	-3382
▁Afghanistan	-3383
▁infrastructure	-3384
oun	-3385
yle	-3386
▁Bra	-3387
▁fat	-3388
▁mix	-3389
▁tax	-3390
icles	-3391
inate	-3392
▁wood	-3393
▁Islam	-3394
▁symbol	-3395
▁purpose	-3396
▁trouble	-3397
▁California	-3398
5,	-3399
na	-3400
iers	-3401
atives	-3402
▁Again	-3403
▁smell	-3404
▁helped	-3405
▁focused	-3406
▁prevent	-3407
▁controll	-3408
▁published	-3409
▁iP	-3410
cles	-3411
izes	-3412
anced	-3413
▁Iraq	-3414
▁cust	-3415
▁total	-3416
▁played	-3417
▁doctors	-3418
▁conference	-3419
off	-3420
adem	-3421
ores	-3422
▁Per	-3423
▁Web	-3424
rical	-3425
▁gent	-3426
▁dying	-3427
▁closer	-3428
Why	-3429
amb	-3430
win	-3431
▁Par	-3432
istry	-3433
▁doub	-3434
▁liber	-3435
▁rough	-3436
▁notion	-3437
▁independ	-3438
▁slightly	-3439
▁molecules	-3440
▁biological	-3441
▁complexity	-3442
▁governments	-3443
ax	-3444
ked	-3445
ises	-3446
▁Dav	-3447
ement	-3448
rench	-3449
▁Many	-3450
▁wire	-3451
ervation	-3452
▁degrees	-3453
▁reflect	-3454
exic	-3455
ulner	-3456
▁laugh	-3457
▁mountain	-3458
▁communication	-3459
IDS	-3460
cope	-3461
arian	-3462
▁boys	-3463
▁oppos	-3464
▁pleas	-3465
▁honest	-3466
▁museum	-3467
▁shared	-3468
▁manufact	-3469
▁challenges	-3470
ening	-3471
itter	-3472
▁hall	-3473
▁tens	-3474
▁vict	-3475
▁birds	-3476
▁offic	-3477
▁Middle	-3478
▁flight	-3479
▁genome	-3480
▁devices	-3481
▁significant	-3482
▁Dar	-3483
▁His	-3484
▁ang	-3485
▁tum	-3486
lands	-3487
▁loss	-3488
▁corru	-3489
▁shock	-3490
▁belief	-3491
▁expand	-3492
▁deliver	-3493
▁financial	-3494
ipp	-3495
▁ut	-3496
ears	-3497
▁gene	-3498
▁paid	-3499
▁Mexic	-3500
▁basis	-3501
▁campaign	-3502
▁emotional	-3503
It	-3504
▁fort	-3505
▁stem	-3506
anging	-3507
▁10,000	-3508
▁aspect	-3509
▁coffee	-3510
▁eating	-3511
▁seemed	-3512
▁window	-3513
▁stopped	-3514
▁communicate	-3515
▁organizations	-3516
icon	-3517
▁hom	-3518
▁tun	-3519
▁metap	-3520
▁worst	-3521
▁applic	-3522
▁answers	-3523
▁bringing	-3524
▁daughter	-3525
ste	-3526
▁harm	-3527
▁climb	-3528
▁dinos	-3529
▁parad	-3530
▁visit	-3531
▁gentle	-3532
▁gotten	-3533
▁decades	-3534
▁markets	-3535
▁background	-3536
▁commercial	-3537
▁industrial	-3538
▁differences	-3539
▁Ro	-3540
hand	-3541
raid	-3542
rogen	-3543
▁lack	-3544
▁none	-3545
▁feels	-3546
▁hearing	-3547
▁scientist	-3548
0,	-3549
fl	-3550
gy	-3551
edd	-3552
▁CO	-3553
empt	-3554
isco	-3555
reet	-3556
▁pri	-3557
▁Great	-3558
▁afraid	-3559
▁breast	-3560
▁desert	-3561
▁noticed	-3562
▁surprising	-3563
▁tremendous	-3564
ray	-3565
otic	-3566
house	-3567
othes	-3568
ratic	-3569
▁From	-3570
▁reco	-3571
▁shop	-3572
▁terr	-3573
▁brand	-3574
▁cheap	-3575
▁altern	-3576
▁artists	-3577
▁organisms	-3578
irt	-3579
▁reb	-3580
▁Rich	-3581
▁race	-3582
▁vast	-3583
▁easily	-3584
▁volunt	-3585
▁vulner	-3586
▁journal	-3587
▁societies	-3588
yl	-3589
▁San	-3590
phone	-3591
▁Arab	-3592
▁agree	-3593
▁highly	-3594
▁reduce	-3595
▁helping	-3596
▁members	-3597
▁colleagues	-3598
af	-3599
ada	-3600
ira	-3601
▁Russ	-3602
▁mamm	-3603
▁diagn	-3604
▁enter	-3605
▁rapid	-3606
▁transm	-3607
▁Instead	-3608
▁creates	-3609
▁benefits	-3610
0.	-3611
▁$	-3612
reg	-3613
▁1.	-3614
term	-3615
vest	-3616
night	-3617
verse	-3618
▁conc	-3619
▁Chris	-3620
aced	-3621
reci	-3622
order	-3623
▁seas	-3624
▁broken	-3625
▁contact	-3626
▁malaria	-3627
▁sharing	-3628
▁studying	-3629
▁classroom	-3630
▁efficient	-3631
▁possibility	-3632
vey	-3633
▁hus	-3634
▁gold	-3635
▁plat	-3636
▁bread	-3637
▁fairly	-3638
▁resist	-3639
▁ancient	-3640
▁landscape	-3641
▁Sc	-3642
▁cogn	-3643
▁host	-3644
▁Niger	-3645
▁custom	-3646
▁choices	-3647
▁restaur	-3648
ec	-3649
ef	-3650
kn	-3651
aul	-3652
ued	-3653
▁gun	-3654
▁tom	-3655
▁Good	-3656
▁beat	-3657
aining	-3658
ography	-3659
▁advant	-3660
▁lights	-3661
▁inspired	-3662
▁necessarily	-3663
▁sustainable	-3664
val	-3665
▁Gu	-3666
▁Mc	-3667
▁Te	-3668
ford	-3669
orge	-3670
rael	-3671
▁fab	-3672
▁Face	-3673
▁More	-3674
▁mort	-3675
▁scan	-3676
▁David	-3677
▁magaz	-3678
▁mouth	-3679
▁party	-3680
▁shift	-3681
▁sector	-3682
▁yellow	-3683
▁attract	-3684
▁capture	-3685
▁traffic	-3686
▁designers	-3687
▁differently	-3688
edic	-3689
▁Mich	-3690
▁trip	-3691
▁analy	-3692
▁brill	-3693
▁crowd	-3694
▁batter	-3695
▁elements	-3696
▁structures	-3697
ami	-3698
▁En	-3699
urch	-3700
▁Fin	-3701
▁mos	-3702
▁ske	-3703
orith	-3704
▁Musl	-3705
▁rare	-3706
▁lucky	-3707
▁photo	-3708
▁tissue	-3709
▁missing	-3710
▁negative	-3711
hy	-3712
band	-3713
ander	-3714
arter	-3715
▁Very	-3716
▁Will	-3717
▁cred	-3718
▁wide	-3719
ording	-3720
▁subst	-3721
▁bridge	-3722
▁brings	-3723
▁fashion	-3724
▁foreign	-3725
▁planets	-3726
▁algorith	-3727
▁imagination	-3728
mark	-3729
thes	-3730
vity	-3731
▁bud	-3732
▁inj	-3733
based	-3734
dimens	-3735
osystem	-3736
▁Thanks	-3737
▁charge	-3738
▁spaces	-3739
▁addition	-3740
▁particles	-3741
▁relationships	-3742
do	-3743
inc	-3744
▁amb	-3745
▁ban	-3746
itely	-3747
▁bomb	-3748
▁puzz	-3749
▁repe	-3750
▁colors	-3751
▁consid	-3752
▁figured	-3753
▁moments	-3754
▁creatures	-3755
gra	-3756
gth	-3757
ses	-3758
cest	-3759
▁ing	-3760
▁bees	-3761
▁forg	-3762
icking	-3763
rength	-3764
▁1,000	-3765
▁mouse	-3766
▁passed	-3767
▁farmers	-3768
▁forever	-3769
▁knowing	-3770
▁partners	-3771
▁diversity	-3772
▁religious	-3773
mp	-3774
▁Tr	-3775
ooper	-3776
▁Iran	-3777
▁note	-3778
▁tast	-3779
▁dollar	-3780
▁target	-3781
▁mission	-3782
▁turning	-3783
▁Actually	-3784
▁argument	-3785
▁ecosystem	-3786
▁importantly	-3787
▁responsibility	-3788
roud	-3789
▁tit	-3790
▁Asia	-3791
▁cand	-3792
▁join	-3793
▁frequ	-3794
▁fully	-3795
▁tough	-3796
▁truck	-3797
connect	-3798
▁ancest	-3799
▁speech	-3800
▁concent	-3801
▁install	-3802
ification	-3803
▁platform	-3804
▁philosoph	-3805
▁opportunities	-3806
▁Mr	-3807
▁ju	-3808
▁ver	-3809
ifying	-3810
orders	-3811
▁double	-3812
▁nearly	-3813
▁correct	-3814
▁holding	-3815
▁accident	-3816
▁strength	-3817
dimensional	-3818
▁institution	-3819
ees	-3820
▁Ne	-3821
bert	-3822
ties	-3823
▁cru	-3824
▁seed	-3825
▁Austral	-3826
▁competition	-3827
cra	-3828
ica	-3829
zen	-3830
▁Ob	-3831
▁400	-3832
▁Nob	-3833
▁fro	-3834
idden	-3835
▁Bang	-3836
▁ship	-3837
ulated	-3838
▁accom	-3839
▁chick	-3840
lection	-3841
▁demand	-3842
ifically	-3843
▁emotions	-3844
▁sequence	-3845
la	-3846
ley	-3847
mon	-3848
rie	-3849
▁fol	-3850
iable	-3851
stein	-3852
ublic	-3853
icians	-3854
▁crash	-3855
▁noise	-3856
▁north	-3857
▁sorry	-3858
artment	-3859
▁French	-3860
▁Israel	-3861
▁events	-3862
▁master	-3863
▁photos	-3864
▁therap	-3865
▁balance	-3866
▁destroy	-3867
▁emotion	-3868
▁describe	-3869
▁suffering	-3870
ha	-3871
cked	-3872
pper	-3873
roll	-3874
ulpt	-3875
▁See	-3876
▁rot	-3877
▁wis	-3878
▁iron	-3879
isible	-3880
▁moves	-3881
▁proud	-3882
▁grandm	-3883
▁sculpt	-3884
ographic	-3885
▁appreci	-3886
▁leading	-3887
▁previous	-3888
▁phenomenon	-3889
▁150	-3890
▁joy	-3891
eared	-3892
using	-3893
▁hell	-3894
▁accur	-3895
▁habit	-3896
▁novel	-3897
▁talks	-3898
▁walls	-3899
▁female	-3900
▁microb	-3901
▁stream	-3902
▁British	-3903
▁element	-3904
▁Facebook	-3905
▁intellect	-3906
1,	-3907
8,	-3908
ager	-3909
▁hyp	-3910
celer	-3911
icity	-3912
itute	-3913
▁narr	-3914
▁shel	-3915
▁adapt	-3916
▁legal	-3917
▁maint	-3918
▁newsp	-3919
▁paint	-3920
▁quote	-3921
▁leaving	-3922
▁related	-3923
▁require	-3924
9,	-3925
vant	-3926
▁gar	-3927
▁Life	-3928
▁adop	-3929
itable	-3930
▁helps	-3931
▁stuck	-3932
▁easier	-3933
▁finger	-3934
▁signal	-3935
▁typical	-3936
▁weapons	-3937
▁entirely	-3938
▁metaphor	-3939
▁influence	-3940
ae	-3941
▁1,	-3942
oint	-3943
▁nor	-3944
▁unc	-3945
▁und	-3946
ulous	-3947
▁boat	-3948
▁core	-3949
▁coast	-3950
▁epide	-3951
▁grass	-3952
▁raised	-3953
▁slowly	-3954
▁prototy	-3955
▁Sometimes	-3956
▁childhood	-3957
▁necessary	-3958
▁definition	-3959
▁civilization	-3960
anes	-3961
▁tor	-3962
water	-3963
▁chim	-3964
▁male	-3965
▁seat	-3966
▁offer	-3967
▁degree	-3968
▁opened	-3969
▁billions	-3970
▁finished	-3971
▁brilliant	-3972
▁ultimately	-3973
▁experiences	-3974
7,	-3975
cket	-3976
▁Sun	-3977
▁alt	-3978
▁ble	-3979
erson	-3980
▁teen	-3981
▁bound	-3982
▁weird	-3983
▁benefit	-3984
▁counter	-3985
▁kilomet	-3986
▁matters	-3987
▁virtual	-3988
▁distance	-3989
▁perfectly	-3990
▁president	-3991
2,	-3992
IT	-3993
▁Ed	-3994
▁Me	-3995
ront	-3996
ysis	-3997
▁Aud	-3998
▁Big	-3999
▁Red	-4000
atell	-4001
ropri	-4002
▁disp	-4003
▁mill	-4004
▁poet	-4005
▁calls	-4006
▁faces	-4007
▁giant	-4008
▁prost	-4009
▁wheel	-4010
▁lesson	-4011
▁remote	-4012
▁symmet	-4013
▁Washing	-4014
▁attempt	-4015
▁equival	-4016
▁regular	-4017
▁replace	-4018
ibilities	-4019
▁opposite	-4020
▁cognitive	-4021
▁investment	-4022
▁ur	-4023
iest	-4024
olds	-4025
▁Gen	-4026
▁exch	-4027
▁rout	-4028
atures	-4029
▁surge	-4030
▁adults	-4031
▁caught	-4032
▁unlike	-4033
▁trained	-4034
▁creation	-4035
▁Everybody	-4036
▁Washington	-4037
set	-4038
▁Ha	-4039
▁Su	-4040
athy	-4041
uing	-4042
▁Min	-4043
▁org	-4044
▁Bill	-4045
▁Over	-4046
▁edge	-4047
▁hate	-4048
▁intu	-4049
▁moon	-4050
▁fresh	-4051
▁motor	-4052
▁prior	-4053
▁begins	-4054
▁bright	-4055
▁article	-4056
▁studied	-4057
▁concerned	-4058
▁interaction	-4059
▁mathematics	-4060
cop	-4061
This	-4062
oted	-4063
vere	-4064
▁Paul	-4065
▁frag	-4066
▁gard	-4067
▁argue	-4068
▁sister	-4069
▁Richard	-4070
▁capable	-4071
▁identity	-4072
▁advantage	-4073
▁consumption	-4074
▁responsible	-4075
▁professional	-4076
oom	-4077
tle	-4078
apse	-4079
gypt	-4080
▁App	-4081
▁Con	-4082
▁mir	-4083
▁soil	-4084
terday	-4085
▁brief	-4086
▁mosqu	-4087
▁closed	-4088
▁convin	-4089
▁satell	-4090
▁compared	-4091
▁separate	-4092
ok	-4093
cil	-4094
xies	-4095
▁Did	-4096
▁Gra	-4097
▁egg	-4098
inist	-4099
▁Kore	-4100
▁Once	-4101
▁coal	-4102
elling	-4103
▁avoid	-4104
▁chann	-4105
▁letter	-4106
▁transp	-4107
▁versus	-4108
▁However	-4109
▁artific	-4110
▁brother	-4111
▁despite	-4112
▁factory	-4113
▁failure	-4114
▁shouldn	-4115
▁believed	-4116
▁agriculture	-4117
ara	-4118
lin	-4119
lph	-4120
mar	-4121
engu	-4122
ured	-4123
alley	-4124
apers	-4125
▁Take	-4126
▁grad	-4127
▁held	-4128
▁king	-4129
▁dolph	-4130
▁pages	-4131
▁damage	-4132
▁incent	-4133
▁protein	-4134
▁airplane	-4135
▁construct	-4136
oop	-4137
▁NA	-4138
▁cla	-4139
▁cos	-4140
craft	-4141
illed	-4142
▁AIDS	-4143
▁bits	-4144
idents	-4145
▁Egypt	-4146
▁Franc	-4147
▁indic	-4148
▁leads	-4149
▁names	-4150
issions	-4151
oration	-4152
▁Darwin	-4153
▁inform	-4154
▁meters	-4155
▁pounds	-4156
▁theater	-4157
▁volunte	-4158
▁disaster	-4159
▁fighting	-4160
▁molecule	-4161
▁unfortunately	-4162
ino	-4163
zil	-4164
aked	-4165
▁Keny	-4166
▁empt	-4167
▁purs	-4168
▁chair	-4169
▁cycle	-4170
▁Mexico	-4171
▁corpor	-4172
ulations	-4173
▁Twitter	-4174
▁acceler	-4175
▁followed	-4176
▁investig	-4177
▁majority	-4178
▁discovery	-4179
▁mentioned	-4180
▁operating	-4181
▁constantly	-4182
▁Co	-4183
▁Fl	-4184
aker	-4185
enty	-4186
oses	-4187
▁tri	-4188
▁flat	-4189
▁foss	-4190
▁opin	-4191
▁spot	-4192
ctions	-4193
urally	-4194
▁click	-4195
▁steps	-4196
▁Brazil	-4197
▁failed	-4198
▁phones	-4199
▁display	-4200
▁highest	-4201
▁succeed	-4202
▁treated	-4203
▁warming	-4204
▁normally	-4205
▁surprise	-4206
▁invisible	-4207
▁languages	-4208
▁equivalent	-4209
▁principles	-4210
▁statistics	-4211
ius	-4212
▁Nor	-4213
▁nan	-4214
ortex	-4215
▁band	-4216
ensity	-4217
▁crime	-4218
▁round	-4219
▁precise	-4220
▁hopefully	-4221
add	-4222
now	-4223
rupt	-4224
▁Des	-4225
▁odd	-4226
▁exer	-4227
▁libr	-4228
▁load	-4229
▁tour	-4230
uments	-4231
▁faith	-4232
▁plane	-4233
▁south	-4234
▁attach	-4235
▁breath	-4236
▁dinner	-4237
▁extend	-4238
▁harder	-4239
▁husband	-4240
▁managed	-4241
▁organic	-4242
▁galaxies	-4243
▁planning	-4244
▁otherwise	-4245
▁principle	-4246
sc	-4247
gar	-4248
▁ax	-4249
onom	-4250
uros	-4251
throp	-4252
▁roof	-4253
▁tail	-4254
▁whom	-4255
▁diver	-4256
▁exhib	-4257
▁circle	-4258
▁reward	-4259
▁magazine	-4260
▁multiple	-4261
.'	-4262
If	-4263
iors	-4264
▁Res	-4265
▁bag	-4266
ength	-4267
essed	-4268
▁meat	-4269
rating	-4270
▁lunch	-4271
▁pengu	-4272
▁academ	-4273
▁dreams	-4274
▁paying	-4275
▁compare	-4276
▁insects	-4277
▁signals	-4278
▁document	-4279
▁property	-4280
▁economics	-4281
▁businesses	-4282
▁distribution	-4283
Yes	-4284
irm	-4285
▁Dan	-4286
▁den	-4287
▁arms	-4288
▁bone	-4289
▁gall	-4290
▁lapt	-4291
▁Three	-4292
▁layer	-4293
▁cooper	-4294
▁galaxy	-4295
▁wisdom	-4296
▁insight	-4297
▁survival	-4298
▁currently	-4299
▁corruption	-4300
▁fascinating	-4301
4,	-4302
uild	-4303
▁lat	-4304
▁shr	-4305
▁tox	-4306
▁Each	-4307
▁wave	-4308
iration	-4309
▁circum	-4310
▁exists	-4311
▁filled	-4312
▁thinks	-4313
▁drawing	-4314
▁weather	-4315
▁dimensions	-4316
▁university	-4317
my	-4318
oe	-4319
ato	-4320
rict	-4321
▁Bar	-4322
▁Hum	-4323
▁cro	-4324
▁dry	-4325
▁due	-4326
▁era	-4327
▁fle	-4328
▁pow	-4329
▁spl	-4330
agers	-4331
essel	-4332
known	-4333
▁Have	-4334
▁anti	-4335
▁disc	-4336
▁hasn	-4337
▁stim	-4338
itness	-4339
▁Green	-4340
▁grain	-4341
▁quiet	-4342
▁rural	-4343
▁shoes	-4344
▁deeply	-4345
▁implic	-4346
▁toward	-4347
▁limited	-4348
▁worried	-4349
▁resource	-4350
▁generations	-4351
▁intelligent	-4352
equ	-4353
roph	-4354
▁Bas	-4355
▁Col	-4356
▁fed	-4357
▁pet	-4358
▁abst	-4359
▁agre	-4360
▁reve	-4361
▁wear	-4362
ancing	-4363
thetic	-4364
▁embra	-4365
▁equal	-4366
instein	-4367
vention	-4368
▁commit	-4369
▁expert	-4370
▁fields	-4371
▁fourth	-4372
▁movies	-4373
▁origin	-4374
▁vehicle	-4375
▁contract	-4376
▁engineer	-4377
▁ordinary	-4378
▁seriously	-4379
oot	-4380
▁35	-4381
▁MIT	-4382
▁Rep	-4383
asion	-4384
print	-4385
▁tick	-4386
▁Times	-4387
▁grown	-4388
▁desire	-4389
▁explan	-4390
▁fellow	-4391
▁muscle	-4392
▁select	-4393
▁100,000	-4394
▁European	-4395
▁launched	-4396
▁described	-4397
gn	-4398
ox	-4399
iat	-4400
ume	-4401
▁Gl	-4402
gged	-4403
wide	-4404
▁Her	-4405
▁tal	-4406
▁bear	-4407
▁heads	-4408
▁vessel	-4409
▁justice	-4410
▁wearing	-4411
▁Einstein	-4412
▁everyday	-4413
▁engineers	-4414
▁grandmother	-4415
▁consciousness	-4416
bel	-4417
cipl	-4418
itan	-4419
ogen	-4420
▁hun	-4421
erves	-4422
ipped	-4423
▁fell	-4424
▁myth	-4425
▁limit	-4426
▁leader	-4427
▁oceans	-4428
▁unless	-4429
▁illness	-4430
▁Audience	-4431
▁strategy	-4432
▁collective	-4433
▁increasingly	-4434
Hey	-4435
imp	-4436
pet	-4437
aurs	-4438
cend	-4439
ocol	-4440
▁Pal	-4441
▁mig	-4442
iency	-4443
riage	-4444
▁Does	-4445
▁nerv	-4446
ipment	-4447
ipping	-4448
▁chain	-4449
▁grade	-4450
▁perce	-4451
entally	-4452
▁stupid	-4453
▁invited	-4454
▁designer	-4455
▁artificial	-4456
▁electrical	-4457
▁transformation	-4458
6,	-4459
care	-4460
vard	-4461
▁bul	-4462
▁tow	-4463
anted	-4464
icing	-4465
neath	-4466
▁blow	-4467
ildren	-4468
▁2,000	-4469
▁river	-4470
▁Street	-4471
▁advert	-4472
▁debate	-4473
▁gather	-4474
▁losing	-4475
▁England	-4476
▁dynamic	-4477
▁setting	-4478
▁station	-4479
▁feedback	-4480
▁soldiers	-4481
▁designing	-4482
▁equipment	-4483
▁essential	-4484
fish	-4485
semb	-4486
▁Pres	-4487
▁enem	-4488
▁soph	-4489
▁warm	-4490
▁Would	-4491
▁homes	-4492
▁scene	-4493
▁Canada	-4494
▁finish	-4495
▁micros	-4496
▁motion	-4497
▁sexual	-4498
▁shapes	-4499
▁married	-4500
▁mothers	-4501
▁surprised	-4502
▁researchers	-4503
au	-4504
ald	-4505
urd	-4506
place	-4507
uries	-4508
▁desk	-4509
▁gang	-4510
▁hadn	-4511
encies	-4512
▁awful	-4513
▁categ	-4514
▁folks	-4515
▁negot	-4516
▁saved	-4517
▁reform	-4518
▁cartoon	-4519
▁players	-4520
▁testing	-4521
▁according	-4522
▁intellectual	-4523
2.	-4524
ij	-4525
cale	-4526
▁Wik	-4527
lease	-4528
▁King	-4529
▁ants	-4530
▁astron	-4531
▁battle	-4532
▁illust	-4533
▁medium	-4534
▁voices	-4535
▁Britain	-4536
▁covered	-4537
▁opening	-4538
▁universal	-4539
▁yesterday	-4540
▁considered	-4541
ett	-4542
▁Sm	-4543
aled	-4544
▁Ben	-4545
▁agg	-4546
▁row	-4547
▁date	-4548
▁dots	-4549
▁peak	-4550
▁wond	-4551
acters	-4552
ession	-4553
▁heavy	-4554
▁holes	-4555
▁recon	-4556
osition	-4557
▁belong	-4558
▁replic	-4559
▁curious	-4560
▁appropri	-4561
▁emerging	-4562
▁Everything	-4563
▁associated	-4564
▁characters	-4565
aff	-4566
ago	-4567
That	-4568
▁smo	-4569
organ	-4570
▁auth	-4571
▁bull	-4572
▁pray	-4573
▁spin	-4574
▁infin	-4575
▁inner	-4576
▁lifet	-4577
▁sites	-4578
▁veget	-4579
akistan	-4580
▁island	-4581
▁leaves	-4582
▁picked	-4583
▁review	-4584
▁battery	-4585
▁conduct	-4586
▁nervous	-4587
▁roughly	-4588
▁Japanese	-4589
▁tomorrow	-4590
▁Australia	-4591
▁alternative	-4592
odes	-4593
▁poo	-4594
umber	-4595
▁acqu	-4596
▁grid	-4597
porary	-4598
▁empty	-4599
▁Anyway	-4600
▁dealing	-4601
▁letters	-4602
▁feelings	-4603
▁interface	-4604
▁producing	-4605
▁kilometers	-4606
▁independent	-4607
ym	-4608
hes	-4609
mber	-4610
estic	-4611
▁Park	-4612
▁lawy	-4613
▁vote	-4614
▁manip	-4615
▁sport	-4616
▁teeth	-4617
▁hidden	-4618
▁trials	-4619
▁Harvard	-4620
▁experts	-4621
▁sources	-4622
▁viruses	-4623
▁clinical	-4624
▁chemistry	-4625
▁continent	-4626
▁entertain	-4627
▁underneath	-4628
▁consequences	-4629
ux	-4630
igm	-4631
iot	-4632
zing	-4633
▁god	-4634
▁pal	-4635
▁pip	-4636
▁dial	-4637
▁evil	-4638
▁intr	-4639
▁liqu	-4640
lement	-4641
▁Kenya	-4642
▁Their	-4643
▁facts	-4644
▁flies	-4645
▁rates	-4646
▁George	-4647
▁caused	-4648
▁player	-4649
▁arrived	-4650
▁keeping	-4651
▁Pakistan	-4652
▁reaction	-4653
▁technical	-4654
▁importance	-4655
new	-4656
▁Je	-4657
abet	-4658
▁Sat	-4659
▁Sim	-4660
▁bee	-4661
▁pil	-4662
▁diet	-4663
▁qual	-4664
▁valu	-4665
ushing	-4666
▁Center	-4667
▁nations	-4668
▁partner	-4669
▁pleasure	-4670
▁struggle	-4671
▁emissions	-4672
▁sophistic	-4673
▁depression	-4674
▁expression	-4675
▁leadership	-4676
▁comfortable	-4677
rs	-4678
min	-4679
▁GP	-4680
▁Int	-4681
▁Rem	-4682
▁lie	-4683
▁pun	-4684
▁rat	-4685
▁ends	-4686
▁init	-4687
▁rein	-4688
▁weak	-4689
rument	-4690
▁camer	-4691
▁shall	-4692
▁budget	-4693
▁killing	-4694
▁Institute	-4695
▁experienced	-4696
▁specifically	-4697
▁entrepreneurs	-4698
ams	-4699
what	-4700
▁Cam	-4701
iques	-4702
▁2000	-4703
▁Last	-4704
▁NASA	-4705
▁flex	-4706
▁vent	-4707
▁clock	-4708
▁compl	-4709
▁daily	-4710
▁estab	-4711
▁liked	-4712
▁tumor	-4713
▁bottle	-4714
▁Nigeria	-4715
▁generate	-4716
▁hydrogen	-4717
▁chemicals	-4718
▁dinosaurs	-4719
▁molecular	-4720
▁mortality	-4721
▁instrument	-4722
▁restaurant	-4723
▁construction	-4724
▁possibilities	-4725
30	-4726
hi	-4727
lom	-4728
rog	-4729
▁cow	-4730
▁gap	-4731
▁hang	-4732
▁maps	-4733
▁poem	-4734
▁puts	-4735
▁horse	-4736
▁metal	-4737
▁School	-4738
▁factor	-4739
▁contain	-4740
▁mosquit	-4741
▁privile	-4742
▁circumst	-4743
▁identify	-4744
▁sentence	-4745
▁spectrum	-4746
▁thoughts	-4747
▁Francisco	-4748
▁components	-4749
hab	-4750
mit	-4751
▁45	-4752
▁ten	-4753
▁lect	-4754
▁shif	-4755
▁tank	-4756
▁frust	-4757
▁pregn	-4758
▁stood	-4759
▁sugar	-4760
▁fortun	-4761
▁fossil	-4762
▁houses	-4763
▁interp	-4764
▁sending	-4765
▁requires	-4766
▁carefully	-4767
▁relatively	-4768
▁connections	-4769
▁evolutionary	-4770
bur	-4771
zed	-4772
▁Mo	-4773
ests	-4774
gets	-4775
irty	-4776
mers	-4777
▁lic	-4778
▁nar	-4779
etics	-4780
▁chap	-4781
▁kick	-4782
▁soul	-4783
▁surf	-4784
ension	-4785
▁hyper	-4786
▁input	-4787
▁spoke	-4788
▁driver	-4789
▁sphere	-4790
▁variety	-4791
▁convince	-4792
▁exchange	-4793
▁convinced	-4794
▁encourage	-4795
▁organized	-4796
▁processes	-4797
1.	-4798
3,	-4799
Don	-4800
ael	-4801
bble	-4802
imin	-4803
▁196	-4804
▁Jew	-4805
▁Mil	-4806
▁arts	-4807
▁lies	-4808
▁recy	-4809
▁ride	-4810
▁coral	-4811
▁fewer	-4812
ressive	-4813
▁neuros	-4814
▁safety	-4815
▁sharks	-4816
▁status	-4817
▁Charles	-4818
▁cutting	-4819
▁perception	-4820
▁Atl	-4821
▁Lad	-4822
▁Pac	-4823
▁fal	-4824
lying	-4825
▁pure	-4826
▁tall	-4827
▁tons	-4828
▁colon	-4829
▁smile	-4830
▁steel	-4831
▁conver	-4832
▁credit	-4833
▁facing	-4834
▁Germany	-4835
▁calling	-4836
▁extract	-4837
▁expected	-4838
▁location	-4839
▁whenever	-4840
▁President	-4841
▁represents	-4842
▁transition	-4843
▁effectively	-4844
fit	-4845
bors	-4846
rary	-4847
rete	-4848
▁iPh	-4849
▁mel	-4850
▁gain	-4851
▁glam	-4852
▁shut	-4853
itchen	-4854
▁aging	-4855
▁honor	-4856
▁prove	-4857
▁solid	-4858
▁buying	-4859
▁compar	-4860
▁forgot	-4861
▁height	-4862
▁liquid	-4863
▁organs	-4864
▁promise	-4865
▁abstract	-4866
▁epidemic	-4867
▁received	-4868
▁disappear	-4869
▁generally	-4870
▁introduced	-4871
▁mathematical	-4872
alt	-4873
uff	-4874
cast	-4875
hold	-4876
▁Tur	-4877
▁Phil	-4878
▁trib	-4879
forest	-4880
▁antib	-4881
▁broke	-4882
▁serve	-4883
▁contem	-4884
▁applied	-4885
▁cameras	-4886
▁vaccine	-4887
▁affected	-4888
▁exercise	-4889
▁prepared	-4890
▁valuable	-4891
▁behaviors	-4892
▁introduce	-4893
▁vulnerable	-4894
uge	-4895
elly	-4896
life	-4897
▁Art	-4898
▁bow	-4899
▁gift	-4900
▁inev	-4901
▁lady	-4902
▁runs	-4903
▁Frank	-4904
▁goods	-4905
▁sight	-4906
▁users	-4907
▁assign	-4908
▁deeper	-4909
▁define	-4910
▁forced	-4911
▁former	-4912
▁mirror	-4913
▁details	-4914
▁primary	-4915
▁watched	-4916
▁analysis	-4917
▁cultures	-4918
▁election	-4919
▁lifetime	-4920
▁mistakes	-4921
▁existence	-4922
▁wondering	-4923
▁definitely	-4924
▁techniques	-4925
DP	-4926
bl	-4927
ta	-4928
ait	-4929
car	-4930
▁'9	-4931
▁99	-4932
▁194	-4933
▁vib	-4934
eline	-4935
isher	-4936
▁Coll	-4937
▁Swed	-4938
▁diss	-4939
▁reci	-4940
▁scen	-4941
▁unus	-4942
▁user	-4943
pected	-4944
▁eleph	-4945
▁invol	-4946
▁theme	-4947
▁toile	-4948
▁cortex	-4949
▁senses	-4950
▁winter	-4951
▁consist	-4952
▁consumer	-4953
▁trillion	-4954
▁practical	-4955
▁convention	-4956
▁protection	-4957
uls	-4958
down	-4959
cking	-4960
itals	-4961
orous	-4962
oting	-4963
▁Bank	-4964
▁biom	-4965
▁drag	-4966
▁hurt	-4967
▁wine	-4968
▁Wikip	-4969
▁added	-4970
▁chart	-4971
▁ideal	-4972
▁stock	-4973
▁waves	-4974
ulating	-4975
▁prefer	-4976
▁script	-4977
▁videos	-4978
chnology	-4979
▁opinion	-4980
▁rapidly	-4981
▁selling	-4982
▁Congress	-4983
▁graduate	-4984
▁neighbors	-4985
▁newspaper	-4986
▁satellite	-4987
▁efficiency	-4988
▁properties	-4989
▁situations	-4990
RI	-4991
Look	-4992
▁Dem	-4993
▁mer	-4994
▁que	-4995
▁bran	-4996
▁plus	-4997
▁reef	-4998
▁resc	-4999
▁silk	-5000
▁Other	-5001
▁Steve	-5002
▁atoms	-5003
▁occup	-5004
▁ought	-5005
▁blocks	-5006
▁ingred	-5007
▁pulled	-5008
▁autonom	-5009
▁centers	-5010
▁gravity	-5011
▁radical	-5012
▁release	-5013
▁vehicles	-5014
▁professor	-5015
▁radiation	-5016
ham	-5017
ita	-5018
mas	-5019
osh	-5020
cont	-5021
ingu	-5022
olly	-5023
over	-5024
▁Bab	-5025
▁Gal	-5026
ament	-5027
ework	-5028
▁deli	-5029
▁pros	-5030
▁suit	-5031
▁thin	-5032
▁unit	-5033
▁3,000	-5034
▁reven	-5035
▁ridic	-5036
▁risks	-5037
itarian	-5038
▁acting	-5039
▁spring	-5040
▁instrum	-5041
▁suppose	-5042
▁unusual	-5043
▁framework	-5044
▁movements	-5045
▁percentage	-5046
▁transportation	-5047
ss	-5048
za	-5049
▁II	-5050
icip	-5051
rian	-5052
road	-5053
umps	-5054
▁spo	-5055
alled	-5056
▁clip	-5057
▁hits	-5058
▁mile	-5059
▁pian	-5060
▁wake	-5061
▁estim	-5062
▁trend	-5063
▁analog	-5064
▁regard	-5065
▁kitchen	-5066
▁reprodu	-5067
▁Wikipedia	-5068
▁employees	-5069
▁establish	-5070
▁photographs	-5071
eal	-5072
orb	-5073
ula	-5074
abol	-5075
atin	-5076
▁dip	-5077
aters	-5078
lines	-5079
vable	-5080
▁diam	-5081
▁impl	-5082
▁initi	-5083
▁keeps	-5084
▁sides	-5085
▁Valley	-5086
▁aftern	-5087
▁garden	-5088
▁length	-5089
▁Michael	-5090
▁chicken	-5091
▁reverse	-5092
▁carrying	-5093
▁marriage	-5094
▁official	-5095
▁ultimate	-5096
▁computing	-5097
▁typically	-5098
▁management	-5099
▁profession	-5100
▁environments	-5101
▁presentation	-5102
▁sophisticated	-5103
80	-5104
Do	-5105
log	-5106
osis	-5107
▁phr	-5108
▁rom	-5109
▁sla	-5110
point	-5111
▁Alex	-5112
▁Also	-5113
▁Comm	-5114
▁Mont	-5115
▁Stan	-5116
▁fake	-5117
▁myst	-5118
▁tape	-5119
▁Could	-5120
▁false	-5121
▁minim	-5122
▁mistake	-5123
▁advanced	-5124
▁increased	-5125
▁worldwide	-5126
▁democratic	-5127
▁personally	-5128
▁politicians	-5129
▁technological	-5130
▁75	-5131
▁Gh	-5132
pher	-5133
▁Dep	-5134
▁Tom	-5135
▁cha	-5136
abled	-5137
enced	-5138
iture	-5139
▁1960	-5140
▁hide	-5141
▁orch	-5142
▁ring	-5143
▁unex	-5144
▁beach	-5145
▁member	-5146
▁solved	-5147
▁Pacific	-5148
▁discipl	-5149
▁encoura	-5150
▁lessons	-5151
▁internal	-5152
▁gentlemen	-5153
▁activities	-5154
▁discussion	-5155
▁combination	-5156
uel	-5157
xim	-5158
Yeah	-5159
anta	-5160
▁mak	-5161
gment	-5162
▁Gree	-5163
▁Thom	-5164
▁capt	-5165
▁cere	-5166
arrass	-5167
▁driven	-5168
▁hoping	-5169
▁negoti	-5170
▁studio	-5171
volution	-5172
▁dropped	-5173
▁fingers	-5174
▁victims	-5175
▁occurred	-5176
▁proteins	-5177
▁wireless	-5178
▁afternoon	-5179
▁interpret	-5180
▁invention	-5181
▁marketing	-5182
▁traveling	-5183
▁productive	-5184
▁destruction	-5185
▁circumstances	-5186
yn	-5187
ras	-5188
spe	-5189
▁CE	-5190
▁El	-5191
Okay	-5192
▁Air	-5193
▁GDP	-5194
▁Yet	-5195
▁asp	-5196
riend	-5197
▁YouT	-5198
▁5,000	-5199
▁cards	-5200
▁signs	-5201
▁sweet	-5202
▁sympt	-5203
▁taste	-5204
▁upper	-5205
▁corres	-5206
▁depends	-5207
▁factors	-5208
▁however	-5209
▁singing	-5210
▁visible	-5211
▁witness	-5212
abilities	-5213
▁infected	-5214
▁somewhat	-5215
▁embarrass	-5216
▁interests	-5217
▁explanation	-5218
uh	-5219
asks	-5220
foot	-5221
oons	-5222
▁GPS	-5223
▁Law	-5224
▁Rob	-5225
▁rhy	-5226
▁rub	-5227
▁club	-5228
▁cure	-5229
▁dogs	-5230
▁furn	-5231
▁pump	-5232
▁remo	-5233
▁wars	-5234
▁claim	-5235
▁goals	-5236
▁boring	-5237
▁iPhone	-5238
▁patent	-5239
▁season	-5240
▁YouTube	-5241
▁burning	-5242
▁closely	-5243
▁falling	-5244
▁musical	-5245
▁quantum	-5246
▁Republic	-5247
▁sunlight	-5248
▁naturally	-5249
▁economists	-5250
▁processing	-5251
▁psychology	-5252
▁collaboration	-5253
yr	-5254
bre	-5255
esh	-5256
adic	-5257
aren	-5258
cers	-5259
uary	-5260
whel	-5261
xide	-5262
▁Ant	-5263
▁adj	-5264
erved	-5265
icago	-5266
oston	-5267
▁decl	-5268
▁gras	-5269
▁hung	-5270
▁joke	-5271
▁nurs	-5272
ternal	-5273
▁curve	-5274
▁dedic	-5275
▁domin	-5276
▁notes	-5277
▁skill	-5278
▁tests	-5279
▁topic	-5280
▁drives	-5281
▁pollen	-5282
▁remain	-5283
▁severe	-5284
▁string	-5285
▁thanks	-5286
▁chimpan	-5287
▁defined	-5288
▁engaged	-5289
▁feature	-5290
▁flowers	-5291
▁operate	-5292
▁collapse	-5293
▁creature	-5294
▁recorded	-5295
▁ancestors	-5296
▁hospitals	-5297
▁mountains	-5298
▁healthcare	-5299
▁innovative	-5300
▁literature	-5301
St	-5302
500	-5303
que	-5304
ania	-5305
▁nur	-5306
akers	-5307
clear	-5308
▁Four	-5309
▁bare	-5310
▁cast	-5311
▁fert	-5312
▁sees	-5313
▁snow	-5314
▁frank	-5315
▁prime	-5316
▁refer	-5317
▁roads	-5318
▁satis	-5319
eration	-5320
ptember	-5321
▁Boston	-5322
▁Health	-5323
▁fabric	-5324
▁sample	-5325
▁worlds	-5326
▁Chicago	-5327
▁courage	-5328
▁figures	-5329
▁outcome	-5330
▁reached	-5331
▁therapy	-5332
▁organism	-5333
▁overwhel	-5334
▁relevant	-5335
▁mechanism	-5336
▁collection	-5337
8.	-5338
can	-5339
oly	-5340
ris	-5341
▁Sa	-5342
cred	-5343
keys	-5344
rows	-5345
tail	-5346
▁Mon	-5347
▁Pol	-5348
▁ped	-5349
▁scr	-5350
ended	-5351
▁Come	-5352
▁bike	-5353
▁exec	-5354
▁jail	-5355
▁shad	-5356
▁Found	-5357
▁Since	-5358
▁coord	-5359
▁renew	-5360
▁split	-5361
▁stone	-5362
▁stret	-5363
▁teles	-5364
ription	-5365
▁assist	-5366
▁bubble	-5367
▁church	-5368
▁formed	-5369
▁option	-5370
▁amounts	-5371
▁command	-5372
▁comment	-5373
▁empathy	-5374
▁intense	-5375
▁accurate	-5376
▁administ	-5377
▁astronom	-5378
▁birthday	-5379
▁dramatic	-5380
▁presence	-5381
▁released	-5382
▁required	-5383
▁subjects	-5384
▁September	-5385
▁awareness	-5386
▁foundation	-5387
▁appropriate	-5388
▁Ac	-5389
▁ru	-5390
aser	-5391
ifth	-5392
▁600	-5393
▁Jer	-5394
▁Los	-5395
▁Mic	-5396
▁pin	-5397
allel	-5398
gging	-5399
scale	-5400
▁Amaz	-5401
▁Five	-5402
▁ears	-5403
▁lens	-5404
▁sets	-5405
▁Women	-5406
▁films	-5407
▁frame	-5408
▁horiz	-5409
▁whist	-5410
▁rocket	-5411
▁evening	-5412
▁tonight	-5413
▁existing	-5414
▁measured	-5415
▁messages	-5416
▁paradigm	-5417
▁rational	-5418
▁operation	-5419
▁passionate	-5420
▁exploration	-5421
▁participate	-5422
alu	-5423
▁2.	-5424
berg	-5425
hour	-5426
eness	-5427
▁Ange	-5428
▁Part	-5429
▁bill	-5430
▁disg	-5431
▁isol	-5432
▁vert	-5433
owered	-5434
▁humor	-5435
▁illeg	-5436
▁pitch	-5437
▁recom	-5438
▁title	-5439
▁Muslim	-5440
▁advent	-5441
▁critic	-5442
▁deploy	-5443
▁flower	-5444
▁poetry	-5445
▁Science	-5446
▁channel	-5447
▁include	-5448
▁library	-5449
▁quarter	-5450
▁swimming	-5451
▁continued	-5452
▁sensitive	-5453
▁mathematic	-5454
▁meaningful	-5455
▁fundamentally	-5456
ola	-5457
tech	-5458
uits	-5459
▁Day	-5460
▁nav	-5461
being	-5462
▁eggs	-5463
▁gest	-5464
▁loud	-5465
▁mira	-5466
▁nose	-5467
▁zoom	-5468
stream	-5469
▁Korea	-5470
▁error	-5471
▁hotel	-5472
▁memor	-5473
▁polic	-5474
▁thick	-5475
▁Thomas	-5476
▁clever	-5477
▁divide	-5478
▁inject	-5479
▁laptop	-5480
▁survey	-5481
▁options	-5482
▁remains	-5483
▁transpl	-5484
▁penguins	-5485
▁Basically	-5486
▁reference	-5487
▁behavioral	-5488
▁laboratory	-5489
▁resistance	-5490
▁potentially	-5491
▁manufacturing	-5492
20	-5493
5.	-5494
My	-5495
But	-5496
itz	-5497
ota	-5498
rat	-5499
sec	-5500
▁Qu	-5501
bage	-5502
▁Ber	-5503
▁bes	-5504
▁san	-5505
force	-5506
sters	-5507
▁Port	-5508
▁bath	-5509
▁busy	-5510
▁chip	-5511
▁milk	-5512
▁pair	-5513
▁perm	-5514
▁cents	-5515
▁doubt	-5516
▁resil	-5517
▁Nobody	-5518
▁handle	-5519
▁interf	-5520
▁relate	-5521
inations	-5522
▁Project	-5523
▁circuit	-5524
▁decline	-5525
▁fishing	-5526
▁apparent	-5527
▁combined	-5528
▁constant	-5529
▁features	-5530
▁microbes	-5531
▁wherever	-5532
▁explained	-5533
▁footprint	-5534
▁functions	-5535
▁protected	-5536
▁selection	-5537
▁distributed	-5538
▁educational	-5539
▁applications	-5540
/1	-5541
Is	-5542
ih	-5543
son	-5544
uce	-5545
▁250	-5546
▁dot	-5547
icide	-5548
▁Gulf	-5549
▁bicy	-5550
▁elev	-5551
▁obst	-5552
▁outc	-5553
athers	-5554
iosity	-5555
isters	-5556
source	-5557
▁label	-5558
▁shell	-5559
▁teams	-5560
▁deaths	-5561
▁fright	-5562
▁immune	-5563
▁storyt	-5564
▁Perhaps	-5565
▁frankly	-5566
▁funding	-5567
▁regions	-5568
▁surgeon	-5569
▁narrative	-5570
▁technique	-5571
▁controlled	-5572
▁electronic	-5573
▁physically	-5574
PA	-5575
agn	-5576
cal	-5577
▁py	-5578
▁Che	-5579
▁Unf	-5580
▁ens	-5581
▁rig	-5582
▁Bush	-5583
▁nest	-5584
▁tube	-5585
astern	-5586
father	-5587
herent	-5588
illing	-5589
making	-5590
▁James	-5591
▁Paris	-5592
▁State	-5593
▁Russia	-5594
▁lifest	-5595
▁pocket	-5596
▁clothes	-5597
▁combine	-5598
▁harvest	-5599
▁memories	-5600
▁stronger	-5601
▁tracking	-5602
▁transfer	-5603
▁determine	-5604
▁implement	-5605
▁increases	-5606
▁religions	-5607
▁conclusion	-5608
▁philosophy	-5609
▁challenging	-5610
▁instruments	-5611
nes	-5612
iled	-5613
onym	-5614
▁Pat	-5615
▁gay	-5616
▁rit	-5617
iters	-5618
▁army	-5619
▁trig	-5620
▁Apple	-5621
▁admit	-5622
▁expon	-5623
▁plate	-5624
▁polio	-5625
▁rooms	-5626
▁France	-5627
▁clouds	-5628
▁explos	-5629
▁papers	-5630
▁perman	-5631
▁accompl	-5632
▁breathe	-5633
▁collaps	-5634
▁cooking	-5635
▁dancing	-5636
▁largely	-5637
▁overall	-5638
▁concrete	-5639
▁wondered	-5640
▁providing	-5641
▁algorithms	-5642
▁inspiration	-5643
▁Unfortunately	-5644
In	-5645
gl	-5646
fin	-5647
nda	-5648
oos	-5649
sum	-5650
ctic	-5651
lock	-5652
rors	-5653
▁Sec	-5654
▁mad	-5655
▁bell	-5656
▁flag	-5657
▁ment	-5658
▁mere	-5659
▁Union	-5660
▁lying	-5661
▁pharm	-5662
▁remove	-5663
▁empower	-5664
▁extinct	-5665
▁monkeys	-5666
▁parking	-5667
▁robotic	-5668
▁younger	-5669
▁director	-5670
▁horrible	-5671
▁hypothes	-5672
▁pollution	-5673
▁terrorism	-5674
▁mechanical	-5675
70	-5676
ums	-5677
appy	-5678
ille	-5679
▁Cop	-5680
▁Jim	-5681
▁Nat	-5682
▁mim	-5683
▁golf	-5684
▁hunt	-5685
▁mush	-5686
▁neut	-5687
▁prem	-5688
▁tent	-5689
ounced	-5690
▁bombs	-5691
▁chose	-5692
▁falls	-5693
▁multi	-5694
▁polar	-5695
▁shame	-5696
inction	-5697
▁advice	-5698
▁diplom	-5699
▁actions	-5700
▁metabol	-5701
▁unknown	-5702
connected	-5703
▁occasion	-5704
▁villages	-5705
▁component	-5706
▁entertainment	-5707
bal	-5708
▁Ah	-5709
erge	-5710
▁Eth	-5711
▁Mal	-5712
▁sen	-5713
▁uns	-5714
▁vag	-5715
▁van	-5716
itors	-5717
▁firm	-5718
▁flew	-5719
▁pill	-5720
▁poly	-5721
▁scar	-5722
▁zone	-5723
rition	-5724
▁About	-5725
▁Count	-5726
▁Never	-5727
▁While	-5728
▁boxes	-5729
▁dress	-5730
▁insur	-5731
▁logic	-5732
▁piano	-5733
▁plans	-5734
▁staff	-5735
▁storm	-5736
▁Museum	-5737
▁correl	-5738
▁desper	-5739
▁linked	-5740
▁owners	-5741
▁puzzle	-5742
▁ritual	-5743
▁scared	-5744
aneously	-5745
▁carried	-5746
▁earthqu	-5747
▁concepts	-5748
▁confront	-5749
▁instruct	-5750
▁measuring	-5751
▁spiritual	-5752
▁statement	-5753
▁Foundation	-5754
3.	-5755
AR	-5756
asm	-5757
nel	-5758
▁Ug	-5759
▁Jul	-5760
▁gut	-5761
stand	-5762
uting	-5763
▁Mart	-5764
▁atom	-5765
▁elim	-5766
▁Democ	-5767
▁breed	-5768
▁depth	-5769
▁knock	-5770
▁navig	-5771
▁neuro	-5772
▁rhyth	-5773
▁scary	-5774
▁Please	-5775
▁stayed	-5776
▁volume	-5777
etically	-5778
▁careful	-5779
▁classes	-5780
▁designs	-5781
▁existed	-5782
▁records	-5783
▁vessels	-5784
▁violent	-5785
▁windows	-5786
▁equation	-5787
▁Something	-5788
▁collected	-5789
▁identical	-5790
▁presented	-5791
▁appreciate	-5792
▁directions	-5793
▁greenhouse	-5794
▁transformed	-5795
och	-5796
oes	-5797
amin	-5798
rets	-5799
▁Haw	-5800
▁Jan	-5801
▁Lib	-5802
▁ben	-5803
▁tab	-5804
usive	-5805
▁Only	-5806
▁grab	-5807
▁lung	-5808
▁till	-5809
profit	-5810
▁Obama	-5811
▁barri	-5812
▁bones	-5813
▁cyber	-5814
▁decre	-5815
▁enemy	-5816
▁globe	-5817
▁honey	-5818
unclear	-5819
▁prices	-5820
▁slides	-5821
▁suffer	-5822
▁whales	-5823
▁proport	-5824
▁stretch	-5825
▁Everyone	-5826
▁outcomes	-5827
▁pregnant	-5828
▁suggests	-5829
▁arguments	-5830
▁confidence	-5831
4.	-5832
aks	-5833
box	-5834
vas	-5835
▁Hy	-5836
▁Ma	-5837
look	-5838
lymp	-5839
▁Get	-5840
▁fan	-5841
▁raw	-5842
belie	-5843
▁cosm	-5844
▁icon	-5845
▁pace	-5846
▁root	-5847
angers	-5848
▁Micro	-5849
▁accum	-5850
▁chrom	-5851
▁colum	-5852
▁explo	-5853
▁grows	-5854
▁guide	-5855
▁liver	-5856
▁pyram	-5857
▁songs	-5858
▁toxic	-5859
▁agreed	-5860
▁assume	-5861
▁chocol	-5862
▁clinic	-5863
▁joined	-5864
▁ladies	-5865
▁phrase	-5866
▁stands	-5867
▁traged	-5868
▁worker	-5869
▁advance	-5870
▁attacks	-5871
▁balloon	-5872
▁illegal	-5873
▁lecture	-5874
▁distinct	-5875
▁Christmas	-5876
▁authority	-5877
▁furniture	-5878
▁implications	-5879
▁automatically	-5880
▁conversations	-5881
eb	-5882
ads	-5883
ata	-5884
azz	-5885
emb	-5886
iop	-5887
▁Em	-5888
▁Ke	-5889
▁Rw	-5890
Talk	-5891
tery	-5892
well	-5893
▁10,	-5894
▁Cap	-5895
▁Fre	-5896
▁irr	-5897
▁tea	-5898
esity	-5899
ounce	-5900
▁1950	-5901
▁Gold	-5902
▁Mark	-5903
▁Next	-5904
▁corn	-5905
▁dust	-5906
▁horm	-5907
▁Inter	-5908
▁Latin	-5909
▁Mount	-5910
▁dense	-5911
▁phase	-5912
▁stack	-5913
▁uncom	-5914
▁astero	-5915
▁embedd	-5916
▁eradic	-5917
▁lovely	-5918
▁reject	-5919
▁causing	-5920
▁solving	-5921
▁Africans	-5922
▁academic	-5923
▁obsessed	-5924
▁parallel	-5925
▁centuries	-5926
▁prototype	-5927
▁architects	-5928
▁entrepreneur	-5929
7.	-5930
rem	-5931
ups	-5932
aint	-5933
case	-5934
east	-5935
ogue	-5936
rant	-5937
ubes	-5938
▁Leg	-5939
earch	-5940
itory	-5941
nding	-5942
▁Stud	-5943
▁acts	-5944
▁gray	-5945
▁item	-5946
▁pool	-5947
▁wash	-5948
called	-5949
imeter	-5950
orking	-5951
▁Olymp	-5952
▁faced	-5953
▁prize	-5954
▁style	-5955
▁enable	-5956
▁evolve	-5957
▁extent	-5958
▁improv	-5959
▁output	-5960
ographer	-5961
ollywood	-5962
▁TEDTalk	-5963
▁nowhere	-5964
▁sensors	-5965
▁contrast	-5966
▁dolphins	-5967
▁magnetic	-5968
▁maintain	-5969
▁meetings	-5970
▁shooting	-5971
▁shoulder	-5972
▁recording	-5973
▁incentives	-5974
▁underwater	-5975
▁manufacture	-5976
▁psychological	-5977
wr	-5978
hol	-5979
isl	-5980
rey	-5981
sem	-5982
cons	-5983
exas	-5984
oned	-5985
pass	-5986
▁Boy	-5987
▁Eve	-5988
▁Hom	-5989
▁Sil	-5990
▁ate	-5991
▁toy	-5992
arant	-5993
eters	-5994
iform	-5995
▁Budd	-5996
▁Jack	-5997
▁dign	-5998
▁hook	-5999
▁lets	-6000
▁loop	-6001
▁aston	-6002
▁orbit	-6003
▁smoke	-6004
▁toler	-6005
▁wings	-6006
▁Island	-6007
▁Uganda	-6008
▁candid	-6009
▁fisher	-6010
▁limits	-6011
▁monkey	-6012
▁needle	-6013
▁rising	-6014
▁scream	-6015
▁Finally	-6016
▁aspects	-6017
▁authent	-6018
▁borders	-6019
▁conserv	-6020
▁divided	-6021
▁electro	-6022
▁feeding	-6023
▁housing	-6024
▁offered	-6025
▁orchest	-6026
▁Remember	-6027
▁Stanford	-6028
▁download	-6029
▁infinite	-6030
▁instinct	-6031
▁paintings	-6032
▁standards	-6033
▁translate	-6034
▁surrounded	-6035
▁sustainability	-6036
Os	-6037
ari	-6038
doll	-6039
illy	-6040
nded	-6041
rous	-6042
udes	-6043
wich	-6044
▁anx	-6045
▁bat	-6046
▁lin	-6047
▁tap	-6048
▁Wall	-6049
arency	-6050
icious	-6051
▁Texas	-6052
▁Voice	-6053
▁White	-6054
▁angle	-6055
▁dozen	-6056
▁presc	-6057
▁score	-6058
▁tired	-6059
▁tries	-6060
▁Sweden	-6061
▁latest	-6062
▁narrow	-6063
▁struck	-6064
▁anticip	-6065
▁chromos	-6066
▁density	-6067
▁disgust	-6068
▁equally	-6069
▁license	-6070
▁obesity	-6071
▁opposed	-6072
▁savings	-6073
▁appeared	-6074
▁embedded	-6075
▁mushroom	-6076
▁economies	-6077
▁recommend	-6078
▁spreading	-6079
▁exhibition	-6080
▁microscope	-6081
▁performing	-6082
▁unexpected	-6083
▁application	-6084
▁represented	-6085
ek	-6086
ua	-6087
ria	-6088
▁DH	-6089
etch	-6090
gent	-6091
iday	-6092
rade	-6093
▁9/1	-6094
▁Vir	-6095
▁dio	-6096
▁nit	-6097
esome	-6098
icted	-6099
▁cock	-6100
▁dish	-6101
▁nets	-6102
▁pour	-6103
▁ther	-6104
▁adopt	-6105
▁crack	-6106
▁fixed	-6107
▁weigh	-6108
▁yield	-6109
▁Number	-6110
▁filter	-6111
▁myster	-6112
▁proced	-6113
▁repair	-6114
▁tested	-6115
▁charity	-6116
▁diagram	-6117
▁embrace	-6118
▁pretend	-6119
▁section	-6120
▁synthes	-6121
▁brothers	-6122
▁estimate	-6123
▁properly	-6124
▁stations	-6125
▁symmetry	-6126
ologically	-6127
▁celebrate	-6128
▁exploring	-6129
▁lifestyle	-6130
▁precisely	-6131
▁Revolution	-6132
▁connecting	-6133
▁controvers	-6134
▁conventional	-6135
▁dramatically	-6136
ka	-6137
ls	-6138
anz	-6139
pox	-6140
top	-6141
▁Ox	-6142
gers	-6143
hips	-6144
onic	-6145
otes	-6146
quar	-6147
soft	-6148
▁Lar	-6149
▁fib	-6150
▁gon	-6151
▁hur	-6152
▁tag	-6153
acing	-6154
archy	-6155
iment	-6156
uster	-6157
▁cens	-6158
▁ours	-6159
▁plot	-6160
▁stro	-6161
▁tack	-6162
abetes	-6163
apping	-6164
▁chest	-6165
▁dirty	-6166
▁flash	-6167
▁recyc	-6168
▁tasks	-6169
▁units	-6170
▁whale	-6171
▁agenda	-6172
▁attend	-6173
▁gender	-6174
▁geomet	-6175
▁hunger	-6176
▁marine	-6177
▁spider	-6178
▁Eastern	-6179
▁appears	-6180
▁classic	-6181
▁finance	-6182
▁painful	-6183
▁poorest	-6184
▁samples	-6185
▁silence	-6186
▁wanting	-6187
▁achieved	-6188
▁allowing	-6189
▁floating	-6190
▁provided	-6191
▁provides	-6192
▁constrain	-6193
▁destroyed	-6194
▁disorders	-6195
▁reduction	-6196
▁telephone	-6197
▁commitment	-6198
▁controlling	-6199
▁grandfather	-6200
bi	-6201
tes	-6202
▁NG	-6203
aret	-6204
hatt	-6205
keep	-6206
▁Sov	-6207
▁gig	-6208
▁mat	-6209
▁sem	-6210
▁wel	-6211
aving	-6212
cence	-6213
state	-6214
▁Cons	-6215
▁Girl	-6216
▁cord	-6217
▁pile	-6218
hattan	-6219
▁Bible	-6220
▁angry	-6221
▁aside	-6222
▁datab	-6223
▁flood	-6224
▁surve	-6225
▁usual	-6226
forward	-6227
raction	-6228
▁Before	-6229
▁Ethiop	-6230
▁Robert	-6231
▁arrest	-6232
▁obstac	-6233
▁portra	-6234
▁profit	-6235
▁secure	-6236
▁dioxide	-6237
▁entered	-6238
▁pushing	-6239
▁spectac	-6240
▁aircraft	-6241
▁attached	-6242
▁disorder	-6243
▁drinking	-6244
▁symptoms	-6245
▁Manhattan	-6246
▁intuitive	-6247
▁advertising	-6248
han	-6249
war	-6250
▁22	-6251
▁23	-6252
▁La	-6253
▁Op	-6254
▁ug	-6255
uous	-6256
▁Hig	-6257
▁Rom	-6258
ingly	-6259
osure	-6260
quare	-6261
▁axis	-6262
▁coun	-6263
▁pref	-6264
phones	-6265
▁Human	-6266
▁brown	-6267
▁drawn	-6268
▁purch	-6269
▁reput	-6270
▁seeds	-6271
▁tight	-6272
rations	-6273
through	-6274
▁defend	-6275
▁facial	-6276
▁plenty	-6277
▁repeat	-6278
▁writer	-6279
▁Angeles	-6280
▁Islamic	-6281
▁Muslims	-6282
▁concert	-6283
▁happier	-6284
▁origami	-6285
▁Microsoft	-6286
▁breathing	-6287
▁depending	-6288
▁earthquake	-6289
▁recognition	-6290
mm	-6291
ban	-6292
org	-6293
▁BF	-6294
cean	-6295
irds	-6296
▁Bay	-6297
▁Del	-6298
▁Jes	-6299
▁Med	-6300
▁eld	-6301
andem	-6302
angle	-6303
orter	-6304
while	-6305
▁1990	-6306
▁Step	-6307
▁emph	-6308
▁wing	-6309
dollar	-6310
▁Congo	-6311
▁Higgs	-6312
▁House	-6313
▁alien	-6314
▁crops	-6315
▁fiber	-6316
▁fluid	-6317
▁ignor	-6318
▁imper	-6319
▁inequ	-6320
▁sales	-6321
▁spots	-6322
iveness	-6323
▁50,000	-6324
▁Amazon	-6325
▁assemb	-6326
▁button	-6327
▁capita	-6328
▁crying	-6329
▁legisl	-6330
▁placed	-6331
▁poison	-6332
▁refuge	-6333
▁toilet	-6334
▁airport	-6335
▁fiction	-6336
▁guarant	-6337
▁touched	-6338
▁lighting	-6339
▁organize	-6340
▁particle	-6341
▁romantic	-6342
▁backwards	-6343
▁chocolate	-6344
▁continues	-6345
▁curiosity	-6346
▁privilege	-6347
▁virtually	-6348
▁afterwards	-6349
▁contribute	-6350
▁department	-6351
▁recognized	-6352
▁volunteers	-6353
▁disappeared	-6354
▁interacting	-6355
▁interactive	-6356
▁conservation	-6357
Be	-6358
cut	-6359
oca	-6360
▁["	-6361
heim	-6362
ulse	-6363
▁Lab	-6364
▁Net	-6365
▁enh	-6366
▁lob	-6367
▁meg	-6368
▁ages	-6369
▁flip	-6370
ietnam	-6371
ptions	-6372
▁Ghana	-6373
▁delic	-6374
▁drove	-6375
▁jelly	-6376
▁likes	-6377
▁maxim	-6378
uration	-6379
▁20,000	-6380
▁frozen	-6381
▁neuron	-6382
▁signed	-6383
▁spoken	-6384
▁Nothing	-6385
▁amongst	-6386
▁habitat	-6387
▁passing	-6388
▁suicide	-6389
▁suspect	-6390
▁unbelie	-6391
▁diabetes	-6392
▁hardware	-6393
▁imagined	-6394
▁printing	-6395
▁recovery	-6396
▁speakers	-6397
▁consumers	-6398
▁sculpture	-6399
▁integrated	-6400
▁simplicity	-6401
▁agricultural	-6402
▁productivity	-6403
edy	-6404
ida	-6405
ora	-6406
rol	-6407
ello	-6408
ener	-6409
obal	-6410
oust	-6411
utch	-6412
zees	-6413
▁Dis	-6414
▁Les	-6415
▁Wal	-6416
▁ack	-6417
▁cup	-6418
▁der	-6419
▁hem	-6420
▁inh	-6421
▁wip	-6422
class	-6423
level	-6424
pring	-6425
under	-6426
▁Jeff	-6427
▁boom	-6428
▁fulf	-6429
▁hire	-6430
▁lift	-6431
▁limb	-6432
▁shar	-6433
iminal	-6434
olving	-6435
usions	-6436
▁anger	-6437
▁opens	-6438
▁proof	-6439
▁skull	-6440
itution	-6441
▁Virgin	-6442
▁absorb	-6443
▁autism	-6444
▁behave	-6445
▁border	-6446
▁heroes	-6447
▁stable	-6448
▁monitor	-6449
▁mystery	-6450
▁neither	-6451
▁pyramid	-6452
▁rebuild	-6453
▁receive	-6454
▁scratch	-6455
▁domestic	-6456
▁overcome	-6457
▁vertical	-6458
▁apartment	-6459
▁uncertain	-6460
▁governance	-6461
▁ridiculous	-6462
▁transplant	-6463
▁personality	-6464
9.	-6465
And	-6466
Let	-6467
▁Jo	-6468
walk	-6469
▁Mad	-6470
▁Six	-6471
▁Tal	-6472
▁Ten	-6473
power	-6474
▁High	-6475
▁June	-6476
▁clim	-6477
▁east	-6478
▁mall	-6479
▁rede	-6480
▁rush	-6481
▁sulf	-6482
▁River	-6483
▁conce	-6484
▁links	-6485
▁meter	-6486
▁plays	-6487
▁utter	-6488
▁Really	-6489
▁Rwanda	-6490
▁attrib	-6491
▁excell	-6492
▁paraly	-6493
▁thrown	-6494
▁Central	-6495
▁January	-6496
▁Vietnam	-6497
▁dignity	-6498
▁granted	-6499
▁letting	-6500
▁tragedy	-6501
▁whereas	-6502
▁facility	-6503
▁focusing	-6504
▁football	-6505
▁northern	-6506
▁produces	-6507
▁sandwich	-6508
▁traveled	-6509
▁treating	-6510
▁animation	-6511
▁corporate	-6512
▁dedicated	-6513
▁depressed	-6514
▁capitalism	-6515
▁collecting	-6516
▁engagement	-6517
▁optimistic	-6518
▁innovations	-6519
6.	-6520
gic	-6521
mal	-6522
▁27	-6523
lies	-6524
osen	-6525
▁Ice	-6526
▁Sea	-6527
▁beg	-6528
▁cab	-6529
▁unh	-6530
agger	-6531
esign	-6532
iders	-6533
inder	-6534
▁Arch	-6535
▁Long	-6536
▁Sing	-6537
▁Turn	-6538
▁biod	-6539
▁cash	-6540
▁hack	-6541
▁mice	-6542
▁salt	-6543
▁subs	-6544
▁Haiti	-6545
▁Super	-6546
▁abund	-6547
▁cryst	-6548
▁gonna	-6549
▁laser	-6550
▁seats	-6551
▁walks	-6552
anthrop	-6553
astroph	-6554
liament	-6555
▁heaven	-6556
▁intent	-6557
▁landed	-6558
▁layers	-6559
▁mainly	-6560
▁oldest	-6561
▁smooth	-6562
▁bicycle	-6563
▁consume	-6564
▁exposed	-6565
▁muscles	-6566
▁contains	-6567
▁darkness	-6568
▁illusion	-6569
▁morality	-6570
▁surfaces	-6571
▁calculate	-6572
▁dimension	-6573
▁emergency	-6574
▁intention	-6575
▁fascinated	-6576
▁demonstrate	-6577
▁populations	-6578
auc	-6579
▁32	-6580
▁Cr	-6581
▁gh	-6582
lete	-6583
▁Bro	-6584
▁Mac	-6585
▁hey	-6586
▁hol	-6587
There	-6588
think	-6589
▁Dere	-6590
▁acid	-6591
▁beet	-6592
▁dict	-6593
▁kiss	-6594
▁rely	-6595
▁seek	-6596
▁ugly	-6597
esthes	-6598
▁aband	-6599
▁chaos	-6600
▁evalu	-6601
▁fears	-6602
▁fruit	-6603
▁naked	-6604
▁persu	-6605
▁stere	-6606
▁upset	-6607
erences	-6608
▁Saturn	-6609
▁adjust	-6610
▁commod	-6611
▁conven	-6612
▁expans	-6613
▁funded	-6614
▁hearts	-6615
▁hungry	-6616
▁ignore	-6617
▁surely	-6618
▁cheaper	-6619
▁diction	-6620
▁distant	-6621
▁initial	-6622
▁inspire	-6623
▁mammals	-6624
▁methods	-6625
▁pulling	-6626
▁breaking	-6627
▁conclude	-6628
▁dynamics	-6629
▁involves	-6630
▁psychiat	-6631
▁smallpox	-6632
▁copyright	-6633
▁frequency	-6634
▁generated	-6635
▁accessible	-6636
▁boundaries	-6637
▁functional	-6638
▁historical	-6639
▁ingredients	-6640
▁probability	-6641
▁expectations	-6642
den	-6643
hen	-6644
oir	-6645
▁Bu	-6646
anny	-6647
atts	-6648
ocin	-6649
part	-6650
pond	-6651
▁Pre	-6652
▁Spe	-6653
▁aim	-6654
▁sed	-6655
▁tro	-6656
ckets	-6657
eller	-6658
rates	-6659
▁cave	-6660
▁glad	-6661
▁chief	-6662
▁fuels	-6663
▁reson	-6664
▁rocks	-6665
▁yours	-6666
▁youth	-6667
▁Oxford	-6668
▁borrow	-6669
▁legacy	-6670
▁locked	-6671
▁pandem	-6672
▁briefly	-6673
▁chapter	-6674
▁delight	-6675
▁diverse	-6676
▁removed	-6677
▁speaker	-6678
▁traject	-6679
▁controls	-6680
▁district	-6681
▁minister	-6682
▁colleague	-6683
▁elsewhere	-6684
▁separated	-6685
▁synthetic	-6686
▁apparently	-6687
▁catastroph	-6688
▁strategies	-6689
▁consequence	-6690
▁transparency	-6691
▁International	-6692
-1	-6693
So	-6694
uum	-6695
▁Hi	-6696
▁na	-6697
ding	-6698
emen	-6699
oded	-6700
oral	-6701
rons	-6702
zero	-6703
▁'60	-6704
▁Bur	-6705
▁Hey	-6706
▁Oct	-6707
amine	-6708
tical	-6709
▁1980	-6710
▁Pole	-6711
▁Rome	-6712
▁bars	-6713
▁neat	-6714
▁rail	-6715
▁rent	-6716
▁tied	-6717
mented	-6718
▁Black	-6719
▁Grand	-6720
▁Italy	-6721
▁Titan	-6722
▁disag	-6723
▁flour	-6724
▁judge	-6725
▁minor	-6726
▁nutri	-6727
▁ultra	-6728
▁vital	-6729
▁Jewish	-6730
▁Soviet	-6731
▁acknow	-6732
▁chosen	-6733
▁curren	-6734
▁devast	-6735
▁emerge	-6736
▁linear	-6737
▁satisf	-6738
▁stores	-6739
▁tricks	-6740
▁weapon	-6741
▁clients	-6742
▁concern	-6743
▁forests	-6744
▁hanging	-6745
▁herself	-6746
▁recover	-6747
▁sensory	-6748
▁symbols	-6749
▁Research	-6750
▁engaging	-6751
▁includes	-6752
▁policies	-6753
▁textbook	-6754
▁Christian	-6755
▁Hollywood	-6756
▁dependent	-6757
▁musicians	-6758
▁permanent	-6759
▁physicist	-6760
▁Department	-6761
▁motivation	-6762
▁reputation	-6763
▁chimpanzees	-6764
▁spectacular	-6765
▁interactions	-6766
].	-6767
nic	-6768
obs	-6769
sey	-6770
▁$1	-6771
▁2,	-6772
▁65	-6773
▁id	-6774
aran	-6775
ardo	-6776
ault	-6777
fall	-6778
icks	-6779
rich	-6780
▁195	-6781
▁Bob	-6782
▁aer	-6783
▁pra	-6784
going	-6785
ifest	-6786
itate	-6787
owing	-6788
ribly	-6789
▁adap	-6790
▁debt	-6791
▁dump	-6792
▁laid	-6793
▁mail	-6794
▁pige	-6795
▁susp	-6796
ivered	-6797
▁Antar	-6798
▁Nobel	-6799
▁Space	-6800
▁blank	-6801
▁digit	-6802
ishment	-6803
▁Indeed	-6804
▁Nature	-6805
▁Palest	-6806
▁adding	-6807
▁barrel	-6808
▁breaks	-6809
▁emphas	-6810
▁genius	-6811
▁neural	-6812
▁orange	-6813
▁scales	-6814
▁scenar	-6815
▁stages	-6816
▁defense	-6817
▁painted	-6818
▁raising	-6819
▁reconst	-6820
▁reduced	-6821
▁wheelch	-6822
▁Atlantic	-6823
▁Children	-6824
▁dominant	-6825
▁flexible	-6826
▁reaching	-6827
▁repeated	-6828
▁reported	-6829
▁committed	-6830
▁encounter	-6831
▁journalist	-6832
▁improvement	-6833
▁transparent	-6834
▁participants	-6835
▁architectural	-6836
EC	-6837
asy	-6838
aws	-6839
aze	-6840
iac	-6841
iel	-6842
ixt	-6843
van	-6844
▁26	-6845
▁RB	-6846
▁US	-6847
fold	-6848
osal	-6849
west	-6850
▁700	-6851
▁Det	-6852
▁Sam	-6853
▁ain	-6854
▁obl	-6855
aming	-6856
enger	-6857
izoph	-6858
tocin	-6859
ville	-6860
▁Gand	-6861
▁beer	-6862
▁bubb	-6863
▁caps	-6864
▁fool	-6865
▁hier	-6866
▁publ	-6867
▁champ	-6868
▁cliff	-6869
▁court	-6870
▁craft	-6871
▁drill	-6872
▁finds	-6873
▁paras	-6874
▁relax	-6875
▁sheep	-6876
▁sheet	-6877
▁views	-6878
iminals	-6879
▁actors	-6880
▁adoles	-6881
▁colony	-6882
▁escape	-6883
▁hardly	-6884
▁inches	-6885
▁killer	-6886
▁regret	-6887
▁rescue	-6888
▁talent	-6889
▁theore	-6890
▁trends	-6891
▁trucks	-6892
▁volcan	-6893
▁consult	-6894
▁emerged	-6895
▁session	-6896
▁artistic	-6897
▁captured	-6898
▁dinosaur	-6899
▁extended	-6900
▁mosquito	-6901
▁perceive	-6902
▁reminded	-6903
▁algorithm	-6904
▁customers	-6905
▁elections	-6906
▁immediate	-6907
▁searching	-6908
▁affordable	-6909
▁originally	-6910
▁treatments	-6911
▁electronics	-6912
▁predictions	-6913
▁contemporary	-6914
▁neuroscience	-6915
▁globalization	-6916
ET	-6917
▁95	-6918
▁10-	-6919
▁bio	-6920
▁ink	-6921
▁jun	-6922
▁lun	-6923
▁wra	-6924
ocent	-6925
▁Star	-6926
▁Time	-6927
▁butt	-6928
▁cute	-6929
▁earn	-6930
▁enth	-6931
bridge	-6932
erving	-6933
utical	-6934
▁Derek	-6935
▁apple	-6936
▁banks	-6937
▁exped	-6938
▁fract	-6939
▁nucle	-6940
▁pilot	-6941
▁realm	-6942
▁schol	-6943
▁tears	-6944
▁buried	-6945
▁fertil	-6946
▁missed	-6947
▁nurses	-6948
▁poster	-6949
▁General	-6950
▁beliefs	-6951
▁dolphin	-6952
▁picking	-6953
▁reports	-6954
▁globally	-6955
▁keyboard	-6956
▁leverage	-6957
▁returned	-6958
▁sleeping	-6959
▁vaccines	-6960
▁announced	-6961
▁highlight	-6962
▁inspiring	-6963
▁practices	-6964
▁teenagers	-6965
▁variation	-6966
▁correspond	-6967
▁rainforest	-6968
▁observation	-6969
▁photography	-6970
▁photographed	-6971
▁transmission	-6972
▁characteristics	-6973
uk	-6974
bra	-6975
oor	-6976
sch	-6977
arre	-6978
ason	-6979
atom	-6980
ober	-6981
rint	-6982
▁Mah	-6983
▁bon	-6984
▁hat	-6985
alian	-6986
ician	-6987
▁Cont	-6988
▁Flor	-6989
▁alph	-6990
▁bias	-6991
▁excl	-6992
▁peer	-6993
▁pupp	-6994
Americ	-6995
iology	-6996
▁Gates	-6997
▁Ocean	-6998
▁abuse	-6999
▁actor	-7000
▁fifth	-7001
▁gotta	-7002
▁holds	-7003
▁nurse	-7004
▁route	-7005
▁shake	-7006
▁stunt	-7007
century	-7008
▁anonym	-7009
▁arrive	-7010
▁barely	-7011
▁invite	-7012
▁phosph	-7013
▁pushed	-7014
▁robust	-7015
▁vacuum	-7016
▁Nations	-7017
▁October	-7018
▁awesome	-7019
▁disturb	-7020
▁federal	-7021
▁instant	-7022
▁lawyers	-7023
aceutical	-7024
▁elephant	-7025
▁shopping	-7026
▁delivered	-7027
▁explaining	-7028
▁industries	-7029
▁resolution	-7030
▁underlying	-7031
▁assumptions	-7032
▁astonishing	-7033
▁breakthrough	-7034
▁experimental	-7035
▁successfully	-7036
▁vulnerability	-7037
DA	-7038
MS	-7039
fe	-7040
bul	-7041
rid	-7042
udi	-7043
usi	-7044
▁Sy	-7045
atar	-7046
list	-7047
oran	-7048
ulum	-7049
▁'70	-7050
▁Bon	-7051
▁aes	-7052
▁dow	-7053
obile	-7054
▁1970	-7055
▁Bron	-7056
▁Move	-7057
▁Sund	-7058
▁cott	-7059
▁cous	-7060
▁dile	-7061
▁grat	-7062
▁leap	-7063
▁mate	-7064
▁pink	-7065
▁wise	-7066
itudes	-7067
izarre	-7068
lessly	-7069
soever	-7070
▁Brown	-7071
▁Johns	-7072
▁Prize	-7073
▁bucks	-7074
▁burst	-7075
▁march	-7076
▁wound	-7077
▁Design	-7078
▁farmer	-7079
▁margin	-7080
▁powers	-7081
▁retire	-7082
▁spinal	-7083
▁subtle	-7084
▁thresh	-7085
izophren	-7086
▁Whether	-7087
▁circles	-7088
▁hitting	-7089
▁liberal	-7090
▁parties	-7091
▁Northern	-7092
▁Somebody	-7093
▁cartoons	-7094
▁crossing	-7095
▁external	-7096
▁fabulous	-7097
▁graphics	-7098
▁incident	-7099
▁conflicts	-7100
▁forgotten	-7101
▁insurance	-7102
▁qualities	-7103
▁capability	-7104
▁whatsoever	-7105
▁cooperation	-7106
▁discoveries	-7107
▁underground	-7108
▁collaborative	-7109
Ch	-7110
ali	-7111
elf	-7112
▁3.	-7113
▁CD	-7114
agon	-7115
eart	-7116
icop	-7117
ione	-7118
kins	-7119
▁191	-7120
▁Moo	-7121
▁spa	-7122
iogen	-7123
leton	-7124
▁Back	-7125
▁Coun	-7126
▁Mand	-7127
▁sacr	-7128
▁whis	-7129
market	-7130
othing	-7131
▁Smith	-7132
▁chips	-7133
▁dilem	-7134
▁genoc	-7135
▁legit	-7136
▁males	-7137
▁mixed	-7138
▁punch	-7139
▁stops	-7140
▁threw	-7141
▁unpre	-7142
▁wired	-7143
igation	-7144
▁chairs	-7145
▁curric	-7146
▁observ	-7147
▁shadow	-7148
▁shaped	-7149
▁Florida	-7150
▁bizarre	-7151
▁comprom	-7152
▁efforts	-7153
▁ethical	-7154
▁methane	-7155
▁persist	-7156
▁pointed	-7157
▁visited	-7158
▁Ethiopia	-7159
▁baseball	-7160
▁fraction	-7161
▁openness	-7162
▁oxytocin	-7163
▁Cambridge	-7164
▁daughters	-7165
▁responses	-7166
▁transcend	-7167
▁expectancy	-7168
▁inevitable	-7169
▁proportion	-7170
▁resilience	-7171
▁suggesting	-7172
▁instructions	-7173
▁universities	-7174
MA	-7175
va	-7176
Can	-7177
kin	-7178
lyn	-7179
ndr	-7180
opy	-7181
▁KB	-7182
▁Up	-7183
▁Us	-7184
agen	-7185
half	-7186
orus	-7187
viol	-7188
▁20,	-7189
▁Hel	-7190
▁Ken	-7191
▁MRI	-7192
▁Mom	-7193
▁Put	-7194
▁twe	-7195
▁wid	-7196
antom	-7197
burgh	-7198
flies	-7199
gence	-7200
opard	-7201
▁Adam	-7202
▁Give	-7203
▁Play	-7204
▁Talk	-7205
▁meal	-7206
arents	-7207
▁Carol	-7208
▁Scott	-7209
▁Third	-7210
▁Willi	-7211
▁array	-7212
▁cable	-7213
▁foods	-7214
▁roots	-7215
ustrial	-7216
viously	-7217
▁Martin	-7218
▁cheese	-7219
▁compos	-7220
▁degrad	-7221
▁golden	-7222
▁recept	-7223
▁sacred	-7224
▁silent	-7225
▁tribes	-7226
children	-7227
▁failing	-7228
▁promote	-7229
▁shelter	-7230
▁statist	-7231
▁writers	-7232
▁educated	-7233
▁informed	-7234
▁manifest	-7235
▁theories	-7236
▁determined	-7237
▁disappoint	-7238
▁ecosystems	-7239
▁operations	-7240
▁struggling	-7241
▁schizophren	-7242
▁communications	-7243
▁pharmaceutical	-7244
▁x	-7245
Sah	-7246
ena	-7247
enh	-7248
lar	-7249
▁0.	-7250
conf	-7251
thal	-7252
uity	-7253
yrus	-7254
zens	-7255
▁800	-7256
▁Que	-7257
▁Was	-7258
▁bug	-7259
▁cas	-7260
▁ham	-7261
▁hip	-7262
▁mur	-7263
▁sle	-7264
athan	-7265
itous	-7266
oding	-7267
umble	-7268
▁Camp	-7269
▁Hill	-7270
▁dear	-7271
▁mode	-7272
▁orph	-7273
▁tuna	-7274
makers	-7275
mental	-7276
mingly	-7277
▁4,000	-7278
▁Bronx	-7279
▁Organ	-7280
▁algae	-7281
▁begun	-7282
▁edges	-7283
▁outer	-7284
▁tribe	-7285
angible	-7286
working	-7287
▁Should	-7288
▁Square	-7289
▁acoust	-7290
▁intrig	-7291
▁lawyer	-7292
▁settle	-7293
▁skelet	-7294
▁sticks	-7295
▁Council	-7296
▁garbage	-7297
▁criminal	-7298
▁dialogue	-7299
▁figuring	-7300
▁inherent	-7301
▁unlikely	-7302
▁gathering	-7303
▁predicted	-7304
▁strangers	-7305
▁suggested	-7306
▁hypothesis	-7307
▁mechanisms	-7308
▁protecting	-7309
▁trajectory	-7310
▁wheelchair	-7311
▁intervention	-7312
wl	-7313
Who	-7314
erd	-7315
agos	-7316
ague	-7317
apor	-7318
ebru	-7319
esis	-7320
fess	-7321
free	-7322
iban	-7323
▁'80	-7324
▁Ser	-7325
▁Sur	-7326
▁dop	-7327
▁lit	-7328
▁tip	-7329
▁unp	-7330
Where	-7331
anges	-7332
▁Ford	-7333
▁None	-7334
▁Same	-7335
▁crew	-7336
▁defe	-7337
▁dumb	-7338
▁eleg	-7339
▁gate	-7340
▁infl	-7341
▁leaf	-7342
▁neck	-7343
▁pigs	-7344
▁rope	-7345
▁sits	-7346
▁toys	-7347
iences	-7348
semble	-7349
▁Febru	-7350
▁bears	-7351
▁flows	-7352
▁schem	-7353
▁spell	-7354
▁spray	-7355
embered	-7356
unction	-7357
▁branch	-7358
▁decent	-7359
▁dozens	-7360
▁export	-7361
▁injury	-7362
▁regime	-7363
▁shrink	-7364
▁simult	-7365
▁sports	-7366
esthesia	-7367
▁analyze	-7368
▁anthrop	-7369
▁crucial	-7370
▁disrupt	-7371
▁essence	-7372
▁involve	-7373
▁revenue	-7374
▁February	-7375
▁accepted	-7376
▁innocent	-7377
▁optimism	-7378
▁glamorous	-7379
▁infection	-7380
▁nutrition	-7381
▁positions	-7382
▁identified	-7383
▁inequality	-7384
▁permission	-7385
▁traditions	-7386
▁philanthrop	-7387
▁interestingly	-7388
▁neighborhoods	-7389
BM	-7390
dr	-7391
bed	-7392
uba	-7393
▁ub	-7394
ache	-7395
fram	-7396
iate	-7397
iety	-7398
olic	-7399
onds	-7400
ords	-7401
▁Aug	-7402
▁Lou	-7403
▁Mag	-7404
▁Pan	-7405
▁Tor	-7406
▁gla	-7407
▁gro	-7408
capes	-7409
cohol	-7410
ested	-7411
gency	-7412
iated	-7413
owers	-7414
puter	-7415
riger	-7416
worth	-7417
▁Comp	-7418
▁Gore	-7419
▁Span	-7420
▁clar	-7421
▁dive	-7422
▁tear	-7423
▁tone	-7424
encing	-7425
heimer	-7426
urable	-7427
▁Jesus	-7428
▁agent	-7429
▁chron	-7430
▁downt	-7431
▁miser	-7432
▁nerve	-7433
▁owner	-7434
▁proto	-7435
▁skept	-7436
▁tempt	-7437
▁tooth	-7438
▁trash	-7439
athered	-7440
attered	-7441
related	-7442
▁30,000	-7443
▁Howard	-7444
▁Within	-7445
▁client	-7446
▁ending	-7447
▁pursue	-7448
▁rarely	-7449
▁scores	-7450
▁served	-7451
▁shrimp	-7452
▁Russian	-7453
▁helicop	-7454
▁phantom	-7455
▁privacy	-7456
▁prosper	-7457
▁Minister	-7458
▁agencies	-7459
▁category	-7460
▁homeless	-7461
▁pandemic	-7462
▁refriger	-7463
▁southern	-7464
▁accidents	-7465
▁classical	-7466
▁exception	-7467
▁expanding	-7468
▁expansion	-7469
▁fortunate	-7470
▁paralyzed	-7471
▁primarily	-7472
▁sentences	-7473
▁supported	-7474
▁uncomfort	-7475
▁autonomous	-7476
▁biologists	-7477
▁curriculum	-7478
▁photographer	-7479
▁unbelievable	-7480
aj	-7481
apy	-7482
see	-7483
sun	-7484
ura	-7485
When	-7486
fast	-7487
ropy	-7488
▁Bel	-7489
▁Cor	-7490
▁Hen	-7491
▁Isn	-7492
▁Mor	-7493
▁Out	-7494
▁Wow	-7495
▁wet	-7496
adays	-7497
anned	-7498
effic	-7499
ffect	-7500
maker	-7501
ogram	-7502
otion	-7503
▁Hall	-7504
▁Moon	-7505
▁blah	-7506
▁dism	-7507
▁gaps	-7508
▁plug	-7509
▁prev	-7510
▁rice	-7511
▁stom	-7512
▁audio	-7513
▁bored	-7514
▁kills	-7515
▁sharp	-7516
▁spont	-7517
▁wider	-7518
Saharan	-7519
section	-7520
▁Mother	-7521
▁Turkey	-7522
▁caring	-7523
▁domain	-7524
▁extrem	-7525
▁garage	-7526
▁mining	-7527
▁panels	-7528
▁richer	-7529
▁subway	-7530
▁tumors	-7531
▁adopted	-7532
▁alcohol	-7533
▁ceiling	-7534
▁enables	-7535
▁staying	-7536
▁torture	-7537
▁asteroid	-7538
▁climbing	-7539
▁currency	-7540
▁distingu	-7541
▁proposed	-7542
▁prostate	-7543
▁Obviously	-7544
▁airplanes	-7545
▁ignorance	-7546
▁intuition	-7547
▁investing	-7548
▁remembered	-7549
▁simulation	-7550
▁translated	-7551
▁computation	-7552
▁constructed	-7553
▁representation	-7554
ati	-7555
cap	-7556
eda	-7557
eyn	-7558
gal	-7559
nov	-7560
oln	-7561
rix	-7562
rot	-7563
eday	-7564
izer	-7565
omin	-7566
onge	-7567
wind	-7568
▁Alz	-7569
▁CEO	-7570
▁LED	-7571
▁lux	-7572
▁sew	-7573
chron	-7574
ostic	-7575
▁Tony	-7576
▁bask	-7577
▁dies	-7578
▁hill	-7579
▁irre	-7580
▁mild	-7581
▁outs	-7582
▁sole	-7583
engine	-7584
incoln	-7585
iotics	-7586
▁Dutch	-7587
▁Moore	-7588
▁Santa	-7589
▁Saudi	-7590
▁Trans	-7591
▁immun	-7592
▁joint	-7593
▁recru	-7594
▁sauce	-7595
▁silly	-7596
▁spark	-7597
▁tends	-7598
▁weeke	-7599
looking	-7600
ogether	-7601
▁Arctic	-7602
▁August	-7603
▁formal	-7604
▁fought	-7605
▁jumped	-7606
▁trains	-7607
▁victim	-7608
andering	-7609
▁Taliban	-7610
▁Through	-7611
▁affects	-7612
▁beneath	-7613
▁chances	-7614
▁contrad	-7615
▁demands	-7616
▁drivers	-7617
▁enterpr	-7618
▁enthusi	-7619
▁founded	-7620
▁imaging	-7621
▁impacts	-7622
▁millenn	-7623
▁miracle	-7624
▁prepare	-7625
▁sisters	-7626
▁winning	-7627
▁articles	-7628
▁delivery	-7629
▁dopamine	-7630
▁genetics	-7631
▁judgment	-7632
▁suffered	-7633
▁Alzheimer	-7634
▁instantly	-7635
▁primitive	-7636
▁telescope	-7637
▁threshold	-7638
▁impression	-7639
▁description	-7640
▁programming	-7641
▁restaurants	-7642
▁uncertainty	-7643
▁biodiversity	-7644
BC	-7645
He	-7646
Wow	-7647
che	-7648
ctu	-7649
hal	-7650
mod	-7651
▁PM	-7652
abil	-7653
ails	-7654
born	-7655
ghai	-7656
iens	-7657
lend	-7658
ship	-7659
▁120	-7660
▁Met	-7661
▁Mod	-7662
▁Sar	-7663
▁cig	-7664
▁ooh	-7665
▁tie	-7666
cript	-7667
opher	-7668
▁bats	-7669
▁cham	-7670
▁dung	-7671
▁inex	-7672
▁quit	-7673
▁subt	-7674
▁tatt	-7675
▁tsun	-7676
▁west	-7677
active	-7678
▁Greek	-7679
▁Peter	-7680
▁blame	-7681
▁elite	-7682
▁pione	-7683
▁plain	-7684
▁revol	-7685
▁sixth	-7686
▁traum	-7687
▁ubiqu	-7688
inarily	-7689
▁Church	-7690
▁Global	-7691
▁Things	-7692
▁Yorker	-7693
▁agency	-7694
▁halluc	-7695
▁headed	-7696
▁sensor	-7697
cedented	-7698
changing	-7699
interest	-7700
▁Neander	-7701
▁charges	-7702
▁deserve	-7703
▁elected	-7704
▁forming	-7705
▁fortune	-7706
▁imagery	-7707
▁portion	-7708
▁warning	-7709
▁entering	-7710
▁explains	-7711
▁homework	-7712
▁laughing	-7713
▁reliable	-7714
▁tendency	-7715
▁collapsed	-7716
▁conducted	-7717
▁confident	-7718
▁jellyfish	-7719
▁nutrients	-7720
▁physician	-7721
▁substance	-7722
▁comparison	-7723
▁demographic	-7724
▁exponential	-7725
▁genetically	-7726
▁translation	-7727
▁demonstration	-7728
▁institutional	-7729
▁uncomfortable	-7730
],	-7731
bar	-7732
isy	-7733
low	-7734
pat	-7735
uke	-7736
▁Es	-7737
enly	-7738
irlf	-7739
play	-7740
▁'90	-7741
▁Cra	-7742
▁Unt	-7743
▁cub	-7744
▁upd	-7745
aches	-7746
copes	-7747
lades	-7748
▁Homo	-7749
▁Make	-7750
▁Shan	-7751
▁Tanz	-7752
▁cake	-7753
▁cats	-7754
▁clay	-7755
▁iPod	-7756
▁rats	-7757
▁trop	-7758
ndrome	-7759
ughter	-7760
umines	-7761
▁Medic	-7762
▁Power	-7763
▁mayor	-7764
▁monit	-7765
▁spons	-7766
▁stair	-7767
▁column	-7768
▁merely	-7769
▁occurs	-7770
▁perpet	-7771
▁tracks	-7772
▁waters	-7773
quarters	-7774
▁Lincoln	-7775
▁Without	-7776
▁arrange	-7777
▁closing	-7778
▁convert	-7779
▁entropy	-7780
▁farming	-7781
▁fastest	-7782
▁flowing	-7783
▁footage	-7784
▁fragile	-7785
▁graphic	-7786
▁immense	-7787
▁located	-7788
▁printer	-7789
▁rolling	-7790
▁shocked	-7791
▁slavery	-7792
▁targets	-7793
▁wealthy	-7794
▁welcome	-7795
▁invested	-7796
▁magnific	-7797
▁Banglades	-7798
▁adventure	-7799
▁economist	-7800
▁expertise	-7801
▁gentleman	-7802
▁ownership	-7803
▁radically	-7804
▁replicate	-7805
otechnology	-7806
▁mysterious	-7807
▁surprisingly	-7808
▁unprecedented	-7809
▁interpretation	-7810
CA	-7811
aid	-7812
ini	-7813
▁28	-7814
bits	-7815
erer	-7816
imal	-7817
ulin	-7818
umin	-7819
▁Den	-7820
▁Joe	-7821
▁bin	-7822
▁jew	-7823
ashed	-7824
clock	-7825
ctica	-7826
field	-7827
iance	-7828
irect	-7829
orage	-7830
uctor	-7831
▁Blue	-7832
▁Dece	-7833
▁Tell	-7834
▁bend	-7835
▁bind	-7836
▁brut	-7837
▁cert	-7838
▁dawn	-7839
▁guns	-7840
▁lone	-7841
▁prol	-7842
▁shit	-7843
▁sink	-7844
▁suck	-7845
▁tune	-7846
aching	-7847
itated	-7848
▁2000,	-7849
▁Colle	-7850
▁Yemen	-7851
▁blogs	-7852
▁eaten	-7853
▁intim	-7854
▁loves	-7855
▁opera	-7856
▁owned	-7857
▁pause	-7858
▁redef	-7859
▁shore	-7860
▁shots	-7861
▁steal	-7862
▁suspe	-7863
▁winds	-7864
itating	-7865
▁Scient	-7866
▁aggreg	-7867
▁cycles	-7868
▁fibers	-7869
▁insist	-7870
▁manual	-7871
▁partly	-7872
▁senior	-7873
▁upside	-7874
▁Redwood	-7875
▁Whereas	-7876
▁beating	-7877
▁besides	-7878
▁bottles	-7879
▁bubbles	-7880
▁distort	-7881
▁glasses	-7882
▁helpful	-7883
▁offices	-7884
▁selfish	-7885
▁serving	-7886
▁spreads	-7887
▁December	-7888
▁Shanghai	-7889
▁channels	-7890
▁covering	-7891
▁database	-7892
▁detailed	-7893
▁downtown	-7894
▁drawings	-7895
▁gathered	-7896
▁measures	-7897
▁preserve	-7898
▁substant	-7899
▁synchron	-7900
▁terribly	-7901
▁throwing	-7902
▁abilities	-7903
▁audiences	-7904
▁breakfast	-7905
▁detection	-7906
▁improving	-7907
▁remaining	-7908
▁signature	-7909
▁Antarctica	-7910
▁assumption	-7911
▁terrorists	-7912
▁vegetables	-7913
▁storytelling	-7914
▁compassionate	-7915
▁significantly	-7916
bow	-7917
eps	-7918
uan	-7919
ugg	-7920
▁85	-7921
▁Ty	-7922
alty	-7923
ifer	-7924
kind	-7925
outs	-7926
quis	-7927
uman	-7928
▁20-	-7929
▁Bet	-7930
▁Far	-7931
▁Rio	-7932
▁Sir	-7933
▁Tes	-7934
▁Tim	-7935
▁ath	-7936
▁gee	-7937
▁sav	-7938
▁tut	-7939
aning	-7940
arest	-7941
opath	-7942
rence	-7943
▁Cour	-7944
▁Fore	-7945
▁Mary	-7946
▁gear	-7947
▁gods	-7948
▁lake	-7949
▁odds	-7950
▁pale	-7951
▁soup	-7952
▁woke	-7953
aneous	-7954
ateful	-7955
atever	-7956
edding	-7957
vation	-7958
▁Arist	-7959
▁advoc	-7960
▁gases	-7961
▁hired	-7962
▁queen	-7963
▁ships	-7964
▁troub	-7965
▁tubes	-7966
▁uncle	-7967
▁Sunday	-7968
▁annual	-7969
▁assess	-7970
▁burned	-7971
▁convey	-7972
▁ensure	-7973
▁preval	-7974
▁recess	-7975
▁rhythm	-7976
▁sketch	-7977
▁stimul	-7978
▁stroke	-7979
▁tackle	-7980
▁troops	-7981
▁unable	-7982
▁widely	-7983
otherapy	-7984
▁Develop	-7985
▁Spanish	-7986
▁compete	-7987
▁magical	-7988
▁paradox	-7989
▁pockets	-7990
▁puzzles	-7991
▁regener	-7992
▁restore	-7993
▁soldier	-7994
▁storage	-7995
▁uniform	-7996
▁washing	-7997
▁Secondly	-7998
▁answered	-7999
▁attitude	-8000
▁clothing	-8001
▁confused	-8002
▁connects	-8003
▁friendly	-8004
▁genocide	-8005
▁geometry	-8006
▁interior	-8007
▁mobility	-8008
▁reducing	-8009
▁shipping	-8010
▁versions	-8011
▁diagnosed	-8012
▁explosion	-8013
▁extension	-8014
▁gradually	-8015
▁healthier	-8016
▁passenger	-8017
▁phenomena	-8018
▁procedure	-8019
▁realizing	-8020
▁difficulty	-8021
▁ecological	-8022
▁influenced	-8023
▁phosphorus	-8024
▁profoundly	-8025
▁conservative	-8026
▁experiencing	-8027
▁mathematicians	-8028
dig	-8029
lim	-8030
oma	-8031
pie	-8032
▁Bo	-8033
▁CA	-8034
▁IM	-8035
▁LG	-8036
▁ah	-8037
izza	-8038
neys	-8039
▁Ham	-8040
▁Sud	-8041
▁cyl	-8042
▁ski	-8043
arrhe	-8044
gines	-8045
icket	-8046
ifice	-8047
otted	-8048
phere	-8049
press	-8050
usted	-8051
▁Beij	-8052
▁Camb	-8053
▁Josh	-8054
▁athe	-8055
▁brid	-8056
▁cath	-8057
▁hors	-8058
▁labs	-8059
▁wrap	-8060
astics	-8061
minute	-8062
rained	-8063
ureauc	-8064
▁Charl	-8065
▁Delhi	-8066
▁Eight	-8067
▁Henry	-8068
▁Spain	-8069
▁Under	-8070
▁amate	-8071
▁ambig	-8072
▁badly	-8073
▁energ	-8074
▁glaci	-8075
▁reefs	-8076
reating	-8077
▁Friday	-8078
▁burden	-8079
▁errors	-8080
▁fusion	-8081
▁makers	-8082
▁orient	-8083
▁pigeon	-8084
▁potato	-8085
▁subsid	-8086
▁ticket	-8087
▁Aristot	-8088
▁Islands	-8089
▁citizen	-8090
▁ecology	-8091
▁engines	-8092
▁insulin	-8093
▁percept	-8094
▁printed	-8095
▁propose	-8096
▁routine	-8097
▁tsunami	-8098
▁unhappy	-8099
▁accounts	-8100
▁generous	-8101
▁improved	-8102
▁isolated	-8103
▁listened	-8104
▁musician	-8105
▁remained	-8106
▁shifting	-8107
▁skeleton	-8108
▁smallest	-8109
▁syndrome	-8110
▁completed	-8111
▁initially	-8112
▁prisoners	-8113
▁protocell	-8114
▁temporary	-8115
▁approaches	-8116
▁attractive	-8117
▁continents	-8118
▁continuous	-8119
▁disability	-8120
▁discipline	-8121
▁elementary	-8122
▁facilities	-8123
▁frustrated	-8124
▁achievement	-8125
▁authorities	-8126
▁capabilities	-8127
▁occasionally	-8128
▁simultaneously	-8129
OK	-8130
.'"	-8131
aby	-8132
bye	-8133
ela	-8134
ias	-8135
▁36	-8136
▁55	-8137
▁SW	-8138
aves	-8139
away	-8140
ocal	-8141
udge	-8142
▁30-	-8143
▁Edu	-8144
▁Ext	-8145
▁Ray	-8146
▁Sus	-8147
▁fet	-8148
▁gre	-8149
▁lap	-8150
ading	-8151
anged	-8152
inter	-8153
ormal	-8154
phony	-8155
stone	-8156
venth	-8157
▁Abra	-8158
▁Feyn	-8159
▁Fort	-8160
▁Jose	-8161
▁Open	-8162
▁boss	-8163
▁damn	-8164
▁duck	-8165
▁file	-8166
▁fits	-8167
▁lamp	-8168
▁nerd	-8169
▁tong	-8170
friend	-8171
▁Koran	-8172
▁March	-8173
▁Stage	-8174
▁armed	-8175
▁camps	-8176
▁doors	-8177
▁dough	-8178
▁girlf	-8179
▁grasp	-8180
▁hydro	-8181
▁incor	-8182
▁membr	-8183
▁screw	-8184
▁squee	-8185
parents	-8186
▁Econom	-8187
▁Newton	-8188
▁System	-8189
▁cosmic	-8190
▁cotton	-8191
▁editor	-8192
▁endang	-8193
▁ethnic	-8194
▁inevit	-8195
▁nerves	-8196
▁propag	-8197
▁reveal	-8198
▁tempor	-8199
▁tragic	-8200
▁upload	-8201
▁vagina	-8202
▁wheels	-8203
American	-8204
▁College	-8205
▁Feynman	-8206
▁cancers	-8207
▁deliber	-8208
▁dilemma	-8209
▁ignored	-8210
▁secrets	-8211
▁smarter	-8212
▁someday	-8213
▁stepped	-8214
▁earliest	-8215
▁pointing	-8216
▁scenario	-8217
▁strongly	-8218
▁supplies	-8219
▁estimates	-8220
▁household	-8221
▁incentive	-8222
▁interrupt	-8223
▁orchestra	-8224
▁performed	-8225
▁stability	-8226
▁appearance	-8227
▁categories	-8228
▁extinction	-8229
▁ubiquitous	-8230
▁approaching	-8231
▁beautifully	-8232
▁grandchildren	-8233
▁professionals	-8234
▁administration	-8235
▁.	-8236
Are	-8237
ona	-8238
osn	-8239
rit	-8240
▁Ap	-8241
▁JH	-8242
▁rh	-8243
ares	-8244
eady	-8245
ihad	-8246
pril	-8247
▁350	-8248
▁Roy	-8249
▁Sou	-8250
▁Way	-8251
▁aug	-8252
▁boo	-8253
▁sir	-8254
inery	-8255
peare	-8256
▁2050	-8257
▁Coke	-8258
▁Gene	-8259
▁Hong	-8260
▁Mill	-8261
▁News	-8262
▁coca	-8263
▁dirt	-8264
▁fung	-8265
▁genu	-8266
▁logo	-8267
▁prec	-8268
▁sail	-8269
employ	-8270
fessor	-8271
▁2010,	-8272
▁April	-8273
▁Detro	-8274
▁Peace	-8275
▁anten	-8276
▁cabin	-8277
▁devil	-8278
▁immig	-8279
▁lever	-8280
▁lifes	-8281
▁marry	-8282
▁mimic	-8283
▁shirt	-8284
▁spill	-8285
▁tower	-8286
▁twist	-8287
▁builds	-8288
▁excess	-8289
▁insane	-8290
▁kidney	-8291
▁lowest	-8292
▁planes	-8293
▁static	-8294
▁strike	-8295
▁tunnel	-8296
controll	-8297
▁Anybody	-8298
▁Silicon	-8299
▁analogy	-8300
▁anxiety	-8301
▁arguing	-8302
▁closest	-8303
▁courses	-8304
▁despair	-8305
▁dressed	-8306
▁glamour	-8307
▁package	-8308
▁reminds	-8309
akespeare	-8310
▁distract	-8311
▁insights	-8312
▁neurolog	-8313
▁precious	-8314
▁restrict	-8315
▁socially	-8316
▁factories	-8317
▁preparing	-8318
▁Bangladesh	-8319
▁compelling	-8320
▁consistent	-8321
▁dictionary	-8322
▁newspapers	-8323
▁yourselves	-8324
▁antibiotics	-8325
▁discovering	-8326
▁established	-8327
▁predictable	-8328
▁reconstruct	-8329
▁historically	-8330
▁participation	-8331
▁straightforward	-8332
200	-8333
lly	-8334
vis	-8335
▁DV	-8336
▁ho	-8337
▁od	-8338
aded	-8339
aped	-8340
asty	-8341
city	-8342
cost	-8343
grow	-8344
iful	-8345
inth	-8346
onia	-8347
sell	-8348
yard	-8349
▁Aut	-8350
▁Jon	-8351
▁dys	-8352
▁gam	-8353
▁gif	-8354
▁nom	-8355
▁spr	-8356
▁vit	-8357
apped	-8358
eling	-8359
isten	-8360
licit	-8361
omics	-8362
oples	-8363
▁Both	-8364
▁Leon	-8365
▁Miss	-8366
▁Sudd	-8367
▁Walk	-8368
▁Zero	-8369
▁biol	-8370
▁horr	-8371
▁inch	-8372
▁meme	-8373
▁nuts	-8374
▁surg	-8375
▁triv	-8376
iberia	-8377
▁Coast	-8378
▁Hawai	-8379
▁Watch	-8380
▁annoy	-8381
▁award	-8382
▁balls	-8383
▁fancy	-8384
▁farms	-8385
▁funds	-8386
▁lanes	-8387
▁memes	-8388
▁numer	-8389
▁pizza	-8390
▁shout	-8391
▁stake	-8392
▁tiles	-8393
▁wheat	-8394
▁wires	-8395
▁worms	-8396
▁basket	-8397
▁freely	-8398
▁marvel	-8399
▁orphan	-8400
▁silver	-8401
▁Abraham	-8402
▁Italian	-8403
▁Johnson	-8404
▁absence	-8405
▁genuine	-8406
▁gesture	-8407
▁hardest	-8408
▁harness	-8409
▁islands	-8410
▁manager	-8411
▁neutral	-8412
▁request	-8413
▁branches	-8414
▁colonies	-8415
▁diameter	-8416
▁equality	-8417
▁failures	-8418
▁purposes	-8419
▁correctly	-8420
▁documents	-8421
▁empowered	-8422
▁excellent	-8423
▁expecting	-8424
▁guarantee	-8425
▁installed	-8426
▁intensive	-8427
▁magnitude	-8428
▁obstacles	-8429
▁perceived	-8430
▁assignment	-8431
▁endangered	-8432
▁generating	-8433
▁physicists	-8434
▁publishing	-8435
▁threatened	-8436
▁Shakespeare	-8437
▁limitations	-8438
▁magnificent	-8439
▁supermarket	-8440
▁civilizations	-8441
"]	-8442
cip	-8443
eds	-8444
nut	-8445
alog	-8446
arsh	-8447
erry	-8448
gram	-8449
illa	-8450
ilty	-8451
mill	-8452
rats	-8453
umes	-8454
▁Dou	-8455
▁Mat	-8456
▁pir	-8457
elson	-8458
inson	-8459
izers	-8460
lings	-8461
oning	-8462
stage	-8463
▁Bell	-8464
▁Conf	-8465
▁July	-8466
▁Nove	-8467
▁Rock	-8468
▁bulb	-8469
▁calm	-8470
▁clue	-8471
▁cong	-8472
▁dent	-8473
▁glue	-8474
▁jugg	-8475
▁summ	-8476
▁urge	-8477
romagn	-8478
▁6,000	-8479
▁Brook	-8480
▁Chile	-8481
▁Court	-8482
▁deals	-8483
▁delay	-8484
▁inher	-8485
▁jewel	-8486
▁lungs	-8487
▁probe	-8488
▁proph	-8489
▁shelf	-8490
▁thumb	-8491
▁valid	-8492
illance	-8493
▁Except	-8494
▁amazed	-8495
▁canopy	-8496
▁carpet	-8497
▁elabor	-8498
▁luxury	-8499
▁recall	-8500
▁recipe	-8501
▁voting	-8502
standing	-8503
▁adapted	-8504
▁barrier	-8505
▁bedroom	-8506
▁cluster	-8507
▁colored	-8508
▁diarrhe	-8509
▁fathers	-8510
▁formula	-8511
▁horizon	-8512
▁minimum	-8513
▁passive	-8514
▁peoples	-8515
▁profile	-8516
▁protest	-8517
▁readers	-8518
▁terrain	-8519
▁trigger	-8520
▁venture	-8521
▁whistle	-8522
▁Security	-8523
▁Southern	-8524
▁Suddenly	-8525
▁Whatever	-8526
▁applying	-8527
▁bathroom	-8528
▁calories	-8529
▁catching	-8530
▁exposure	-8531
▁grateful	-8532
▁included	-8533
▁sciences	-8534
▁blindness	-8535
▁distances	-8536
▁elephants	-8537
▁locations	-8538
▁mechanics	-8539
▁miserable	-8540
▁residents	-8541
▁succeeded	-8542
▁volunteer	-8543
▁biolumines	-8544
▁challenged	-8545
▁commission	-8546
▁continuing	-8547
▁expedition	-8548
▁manipulate	-8549
▁prevention	-8550
▁previously	-8551
▁reflection	-8552
▁researcher	-8553
▁supporting	-8554
▁encouraging	-8555
▁expressions	-8556
▁frightening	-8557
▁concentrated	-8558
▁installation	-8559
▁extraordinarily	-8560
Sh	-8561
jo	-8562
py	-8563
ETI	-8564
ima	-8565
izz	-8566
omb	-8567
▁AK	-8568
▁PC	-8569
▁SS	-8570
airo	-8571
char	-8572
cycl	-8573
edge	-8574
erey	-8575
made	-8576
ules	-8577
▁202	-8578
▁Acc	-8579
▁Nan	-8580
▁Off	-8581
▁Sal	-8582
▁Try	-8583
▁Wol	-8584
▁aqu	-8585
▁dil	-8586
▁hub	-8587
▁jet	-8588
▁ton	-8589
asses	-8590
ensus	-8591
ester	-8592
icial	-8593
ifact	-8594
▁Cath	-8595
▁Eric	-8596
▁Vict	-8597
▁cows	-8598
▁crop	-8599
▁dose	-8600
▁drum	-8601
▁grav	-8602
▁junk	-8603
▁lock	-8604
▁mold	-8605
▁quad	-8606
▁sake	-8607
▁sett	-8608
▁toes	-8609
icient	-8610
lihood	-8611
person	-8612
thirds	-8613
▁2008,	-8614
▁Buddh	-8615
▁Build	-8616
▁Force	-8617
▁Hello	-8618
▁Sorry	-8619
▁Swiss	-8620
▁Until	-8621
▁bless	-8622
▁brows	-8623
▁civic	-8624
▁elder	-8625
▁excit	-8626
▁panel	-8627
▁pills	-8628
▁ratio	-8629
▁scaff	-8630
▁sched	-8631
▁shine	-8632
▁steam	-8633
▁taxes	-8634
ressing	-8635
▁Almost	-8636
▁Columb	-8637
▁Govern	-8638
▁butter	-8639
▁curves	-8640
▁masses	-8641
▁nearby	-8642
▁posted	-8643
▁stones	-8644
▁stored	-8645
▁surviv	-8646
▁tomato	-8647
▁ultras	-8648
▁Iceland	-8649
▁Indians	-8650
▁cigaret	-8651
▁genomes	-8652
▁highway	-8653
▁hormone	-8654
▁kingdom	-8655
▁observe	-8656
▁penguin	-8657
▁proceed	-8658
▁pursuit	-8659
▁reactor	-8660
▁strands	-8661
▁Monterey	-8662
▁November	-8663
▁Tanzania	-8664
▁accompan	-8665
▁altitude	-8666
▁decrease	-8667
▁interven	-8668
▁reinvent	-8669
▁relation	-8670
▁replaced	-8671
▁reserves	-8672
▁robotics	-8673
▁scholars	-8674
▁transmit	-8675
▁affecting	-8676
▁believing	-8677
▁broadcast	-8678
▁hierarchy	-8679
▁objective	-8680
▁occurring	-8681
▁reactions	-8682
▁additional	-8683
▁determines	-8684
▁initiative	-8685
▁likelihood	-8686
▁medication	-8687
▁prediction	-8688
▁reasonable	-8689
▁terrifying	-8690
▁competitive	-8691
▁electromagn	-8692
▁fortunately	-8693
▁partnership	-8694
▁surrounding	-8695
▁technically	-8696
▁calculations	-8697
▁grandparents	-8698
▁personalized	-8699
▁transforming	-8700
▁interconnected	-8701
gr	-8702
mn	-8703
ava	-8704
dis	-8705
nat	-8706
tra	-8707
▁RS	-8708
▁du	-8709
Here	-8710
grad	-8711
oman	-8712
pled	-8713
take	-8714
uded	-8715
▁Age	-8716
▁Ast	-8717
▁Cur	-8718
▁Dad	-8719
▁Ire	-8720
▁Kev	-8721
▁Rad	-8722
▁Tam	-8723
▁Tas	-8724
▁USA	-8725
▁awk	-8726
▁oct	-8727
ademy	-8728
gradu	-8729
isons	-8730
orden	-8731
pless	-8732
produ	-8733
reens	-8734
ushed	-8735
▁NGOs	-8736
▁Pitt	-8737
▁Zeal	-8738
▁ampl	-8739
▁asks	-8740
▁chop	-8741
▁drew	-8742
▁forb	-8743
▁hybr	-8744
▁jazz	-8745
▁mesh	-8746
▁sale	-8747
▁turb	-8748
assemb	-8749
gments	-8750
ournal	-8751
ulsion	-8752
▁2009,	-8753
▁Brian	-8754
▁McDon	-8755
▁bills	-8756
▁boats	-8757
▁embry	-8758
▁fatal	-8759
▁grabb	-8760
▁guard	-8761
▁incom	-8762
▁jihad	-8763
▁lobby	-8764
▁meals	-8765
▁overl	-8766
▁patch	-8767
▁pride	-8768
ascular	-8769
usiness	-8770
▁Anyone	-8771
▁Compan	-8772
▁Nelson	-8773
▁assets	-8774
▁contam	-8775
▁estate	-8776
▁excuse	-8777
▁magnet	-8778
▁parach	-8779
▁proven	-8780
▁rivers	-8781
▁strict	-8782
▁summar	-8783
▁traits	-8784
▁typing	-8785
▁unfold	-8786
▁200,000	-8787
▁Indones	-8788
▁artwork	-8789
▁awkward	-8790
▁broader	-8791
▁bureauc	-8792
▁corrupt	-8793
▁cricket	-8794
▁enjoyed	-8795
▁harmful	-8796
▁implant	-8797
▁intrins	-8798
▁laptops	-8799
▁simpler	-8800
▁smiling	-8801
efficient	-8802
▁Palestin	-8803
▁artifact	-8804
▁counting	-8805
▁historic	-8806
▁navigate	-8807
▁nitrogen	-8808
▁offering	-8809
▁peaceful	-8810
▁redesign	-8811
▁spinning	-8812
▁unemploy	-8813
▁authentic	-8814
▁batteries	-8815
▁dominated	-8816
▁headlines	-8817
▁investors	-8818
▁sensation	-8819
▁suspended	-8820
▁aggressive	-8821
▁engineered	-8822
▁excitement	-8823
▁helicopter	-8824
▁impressive	-8825
▁inevitably	-8826
▁structural	-8827
▁foundations	-8828
▁marketplace	-8829
▁corporations	-8830
▁measurements	-8831
▁schizophrenia	-8832
IS	-8833
tw	-8834
ya	-8835
col	-8836
cro	-8837
law	-8838
net	-8839
rof	-8840
uty	-8841
ador	-8842
alem	-8843
ause	-8844
eren	-8845
irts	-8846
xual	-8847
▁10.	-8848
▁Its	-8849
▁Lin	-8850
▁Sky	-8851
▁Tel	-8852
▁Ven	-8853
▁ech	-8854
▁shy	-8855
▁via	-8856
acher	-8857
allow	-8858
copic	-8859
eries	-8860
grade	-8861
ighth	-8862
istor	-8863
lfare	-8864
rance	-8865
umbai	-8866
▁Hans	-8867
▁Kong	-8868
▁Math	-8869
▁Rand	-8870
▁SETI	-8871
▁Supp	-8872
▁Wind	-8873
▁bags	-8874
▁bang	-8875
▁deaf	-8876
▁knee	-8877
▁palm	-8878
▁shoe	-8879
cyclop	-8880
▁2004,	-8881
▁Being	-8882
▁Elect	-8883
▁align	-8884
▁comic	-8885
▁indig	-8886
▁inhab	-8887
▁inhib	-8888
▁loose	-8889
▁mines	-8890
▁minus	-8891
▁pairs	-8892
▁recre	-8893
▁safer	-8894
▁slums	-8895
▁trace	-8896
▁trail	-8897
▁veter	-8898
▁zones	-8899
▁Cambod	-8900
▁Mumbai	-8901
▁approx	-8902
▁dragon	-8903
▁fallen	-8904
▁immers	-8905
▁motors	-8906
▁murder	-8907
▁namely	-8908
▁native	-8909
▁offers	-8910
▁tongue	-8911
▁uncons	-8912
▁Beijing	-8913
▁Detroit	-8914
▁Zealand	-8915
▁cocaine	-8916
▁enemies	-8917
▁follows	-8918
▁hunting	-8919
▁locally	-8920
▁nearest	-8921
▁ongoing	-8922
▁profits	-8923
▁resolve	-8924
▁smoking	-8925
▁stomach	-8926
▁tension	-8927
▁tissues	-8928
▁Virginia	-8929
▁contrary	-8930
▁kindness	-8931
▁plastics	-8932
▁predator	-8933
▁stranger	-8934
▁surgeons	-8935
▁switched	-8936
▁wildlife	-8937
▁Alexander	-8938
▁Aristotle	-8939
▁candidate	-8940
▁competing	-8941
▁equations	-8942
▁graduated	-8943
▁intensity	-8944
▁recycling	-8945
▁reproduce	-8946
▁seemingly	-8947
▁classrooms	-8948
▁encouraged	-8949
▁illustrate	-8950
▁infections	-8951
▁mainstream	-8952
▁narratives	-8953
▁contributed	-8954
▁instruction	-8955
▁legislation	-8956
▁proposition	-8957
▁connectivity	-8958
▁independence	-8959
▁concentration	-8960
40	-8961
All	-8962
hop	-8963
mun	-8964
via	-8965
▁AI	-8966
▁Bi	-8967
enth	-8968
ifty	-8969
mony	-8970
plic	-8971
▁193	-8972
▁DVD	-8973
▁Dra	-8974
▁alb	-8975
▁ash	-8976
▁gri	-8977
▁sin	-8978
▁tin	-8979
ansas	-8980
apore	-8981
aware	-8982
bably	-8983
break	-8984
enses	-8985
icked	-8986
inger	-8987
itzer	-8988
mates	-8989
odied	-8990
rover	-8991
uther	-8992
▁Lake	-8993
▁Mike	-8994
▁Scot	-8995
▁appe	-8996
▁coat	-8997
▁epis	-8998
▁exha	-8999
▁fate	-9000
▁mand	-9001
▁melt	-9002
▁mood	-9003
▁subm	-9004
▁toss	-9005
iously	-9006
olitan	-9007
oosing	-9008
▁alarm	-9009
▁aspir	-9010
▁blink	-9011
▁bulbs	-9012
▁divor	-9013
▁donor	-9014
▁drown	-9015
▁fault	-9016
▁gross	-9017
▁items	-9018
▁maker	-9019
▁param	-9020
▁plank	-9021
▁rings	-9022
▁stays	-9023
▁viral	-9024
▁vivid	-9025
isphere	-9026
itative	-9027
powered	-9028
ruption	-9029
▁During	-9030
▁Twenty	-9031
▁asleep	-9032
▁campus	-9033
▁comics	-9034
▁covers	-9035
▁diving	-9036
▁epidem	-9037
▁rating	-9038
▁relief	-9039
▁render	-9040
▁retina	-9041
▁rotate	-9042
▁rubber	-9043
▁sheets	-9044
▁speaks	-9045
▁tables	-9046
▁wooden	-9047
ongevity	-9048
▁bridges	-9049
▁constit	-9050
▁cybercr	-9051
▁destiny	-9052
▁enabled	-9053
▁envelop	-9054
▁halfway	-9055
▁lottery	-9056
▁mapping	-9057
▁maximum	-9058
▁officer	-9059
▁patents	-9060
▁rewards	-9061
▁scaling	-9062
▁wedding	-9063
▁approved	-9064
▁arrested	-9065
▁believes	-9066
▁concerns	-9067
▁consumed	-9068
▁customer	-9069
▁disagree	-9070
▁horizont	-9071
▁overhead	-9072
▁sidewalk	-9073
▁skeletal	-9074
▁surgical	-9075
▁worrying	-9076
▁Singapore	-9077
▁estimated	-9078
▁favorites	-9079
▁machinery	-9080
▁planetary	-9081
▁automobile	-9082
▁regardless	-9083
▁variations	-9084
▁constraints	-9085
▁interviewed	-9086
▁surveillance	-9087
▁communicating	-9088
▁mathematician	-9089
▁visualization	-9090
HA	-9091
gu	-9092
sp	-9093
God	-9094
oto	-9095
pos	-9096
psy	-9097
vir	-9098
▁AM	-9099
▁MT	-9100
They	-9101
olen	-9102
plus	-9103
▁Pot	-9104
▁Sen	-9105
▁Som	-9106
▁obt	-9107
▁tur	-9108
▁ven	-9109
erent	-9110
itage	-9111
ivate	-9112
osity	-9113
proof	-9114
▁1900	-9115
▁9/11	-9116
▁Half	-9117
▁ange	-9118
▁cree	-9119
▁dece	-9120
▁enzy	-9121
▁heal	-9122
▁lawn	-9123
▁murd	-9124
▁radi	-9125
▁sons	-9126
arians	-9127
inging	-9128
▁Clint	-9129
▁Jones	-9130
▁Trade	-9131
▁clubs	-9132
▁coinc	-9133
▁cruel	-9134
▁erect	-9135
▁fires	-9136
▁penet	-9137
▁pound	-9138
▁rehab	-9139
▁remix	-9140
▁sizes	-9141
▁stamp	-9142
▁watts	-9143
essions	-9144
keepers	-9145
▁40,000	-9146
▁Arabic	-9147
▁Ladies	-9148
▁Steven	-9149
▁Victor	-9150
▁anatom	-9151
▁binary	-9152
▁bother	-9153
▁comedy	-9154
▁firing	-9155
▁infant	-9156
▁intact	-9157
▁matrix	-9158
▁valley	-9159
ventions	-9160
▁authors	-9161
▁doubled	-9162
▁earning	-9163
▁exploit	-9164
▁hopeful	-9165
▁hostile	-9166
▁logical	-9167
▁rethink	-9168
▁threats	-9169
▁welfare	-9170
▁Carolina	-9171
▁Catholic	-9172
▁attacked	-9173
▁breeding	-9174
▁choosing	-9175
▁compound	-9176
▁contempl	-9177
▁cylinder	-9178
▁deployed	-9179
▁dropping	-9180
▁enjoying	-9181
▁explicit	-9182
▁intended	-9183
▁nowadays	-9184
▁scanning	-9185
▁selected	-9186
▁survived	-9187
▁amazingly	-9188
▁attitudes	-9189
▁deception	-9190
▁describes	-9191
▁formation	-9192
▁microbial	-9193
▁nonprofit	-9194
▁surgeries	-9195
▁terrorist	-9196
▁Geographic	-9197
▁approached	-9198
▁calculated	-9199
▁compromise	-9200
▁girlfriend	-9201
▁landscapes	-9202
▁prosperity	-9203
▁acknowledge	-9204
▁realization	-9205
▁theoretical	-9206
▁unconscious	-9207
▁Organization	-9208
▁systematically	-9209
"?	-9210
Ah	-9211
OL	-9212
TC	-9213
da	-9214
ye	-9215
aus	-9216
des	-9217
ete	-9218
neg	-9219
oli	-9220
uts	-9221
▁tu	-9222
aeda	-9223
bees	-9224
cher	-9225
ette	-9226
ocks	-9227
pers	-9228
rics	-9229
rity	-9230
▁Ele	-9231
▁IBM	-9232
▁ads	-9233
▁ger	-9234
▁orb	-9235
adian	-9236
atson	-9237
elled	-9238
erior	-9239
human	-9240
oster	-9241
storm	-9242
viron	-9243
▁Bosn	-9244
▁Hope	-9245
▁Lego	-9246
▁Mach	-9247
▁Sure	-9248
▁bold	-9249
▁cuts	-9250
▁ende	-9251
▁loan	-9252
▁quar	-9253
▁rape	-9254
▁rect	-9255
▁rose	-9256
▁slic	-9257
▁span	-9258
▁spat	-9259
▁tech	-9260
▁ties	-9261
▁unst	-9262
▁vary	-9263
ancers	-9264
istory	-9265
ometer	-9266
orient	-9267
unning	-9268
usalem	-9269
usters	-9270
weight	-9271
▁2005,	-9272
▁2007,	-9273
▁Child	-9274
▁Laden	-9275
▁bench	-9276
▁cheat	-9277
▁conqu	-9278
▁gorge	-9279
▁grace	-9280
▁irony	-9281
▁juice	-9282
▁obese	-9283
▁parks	-9284
▁voted	-9285
itivity	-9286
▁Andrew	-9287
▁County	-9288
▁Watson	-9289
▁atomic	-9290
▁beaten	-9291
▁claims	-9292
▁crimes	-9293
▁denial	-9294
▁gained	-9295
▁grades	-9296
▁helium	-9297
▁lifted	-9298
▁lonely	-9299
▁manner	-9300
▁pedest	-9301
▁pestic	-9302
▁prosth	-9303
▁strain	-9304
▁worthy	-9305
function	-9306
▁Ireland	-9307
▁Mandela	-9308
▁Someone	-9309
▁acquire	-9310
▁carries	-9311
▁clinics	-9312
▁commons	-9313
▁corners	-9314
▁damaged	-9315
▁gallery	-9316
▁landing	-9317
▁mindset	-9318
▁powered	-9319
▁scanner	-9320
▁sectors	-9321
▁staring	-9322
▁Although	-9323
▁Interest	-9324
▁McDonald	-9325
▁Nigerian	-9326
▁alphabet	-9327
▁angiogen	-9328
▁backyard	-9329
▁comments	-9330
▁coverage	-9331
▁disabled	-9332
▁inventor	-9333
▁portrait	-9334
▁scaffold	-9335
▁stereoty	-9336
▁striking	-9337
▁teenager	-9338
▁underest	-9339
▁Greenland	-9340
▁Indonesia	-9341
▁Jerusalem	-9342
▁Professor	-9343
▁biologist	-9344
▁diagnosis	-9345
▁elaborate	-9346
▁renewable	-9347
▁sacrifice	-9348
▁territory	-9349
▁convenient	-9350
▁interviews	-9351
▁monitoring	-9352
▁privileged	-9353
▁telescopes	-9354
▁overwhelmed	-9355
▁politically	-9356
▁programmers	-9357
▁contribution	-9358
▁interventions	-9359
▁psychologists	-9360
tt	-9361
ado	-9362
arl	-9363
dam	-9364
har	-9365
obb	-9366
upp	-9367
▁33	-9368
▁DR	-9369
agan	-9370
door	-9371
etti	-9372
ibri	-9373
igma	-9374
irms	-9375
rong	-9376
seen	-9377
▁192	-9378
▁Emp	-9379
▁Moz	-9380
▁Pop	-9381
▁Tib	-9382
▁les	-9383
▁sel	-9384
erals	-9385
sized	-9386
ulses	-9387
world	-9388
▁Abed	-9389
▁Benj	-9390
▁Keep	-9391
▁Love	-9392
▁Norm	-9393
▁Turk	-9394
▁asth	-9395
▁bite	-9396
▁myce	-9397
▁pays	-9398
▁tact	-9399
racies	-9400
unting	-9401
▁Asian	-9402
▁Indus	-9403
▁Water	-9404
▁Young	-9405
▁blown	-9406
▁buses	-9407
▁depos	-9408
▁drops	-9409
▁entry	-9410
▁fence	-9411
▁freak	-9412
▁grave	-9413
▁knife	-9414
▁lingu	-9415
▁peers	-9416
▁scans	-9417
▁sends	-9418
▁spare	-9419
▁wrist	-9420
enhagen	-9421
theless	-9422
▁Arabia	-9423
▁Disney	-9424
▁Korean	-9425
▁Little	-9426
▁Public	-9427
▁cables	-9428
▁config	-9429
▁criter	-9430
▁divers	-9431
▁format	-9432
▁grocer	-9433
▁hiding	-9434
▁lethal	-9435
▁loving	-9436
▁revers	-9437
▁stolen	-9438
▁summit	-9439
▁themes	-9440
▁thread	-9441
▁wishes	-9442
etheless	-9443
▁Clinton	-9444
▁Israeli	-9445
▁chamber	-9446
▁congest	-9447
▁deepest	-9448
▁descend	-9449
▁educate	-9450
▁folding	-9451
▁harmony	-9452
▁heading	-9453
▁healing	-9454
▁labeled	-9455
▁playful	-9456
▁rituals	-9457
▁strings	-9458
▁superst	-9459
▁teenage	-9460
▁trivial	-9461
▁utterly	-9462
▁Brooklyn	-9463
▁adoption	-9464
▁hopeless	-9465
▁literacy	-9466
▁mutation	-9467
▁randomly	-9468
▁shocking	-9469
▁simplest	-9470
▁websites	-9471
▁abandoned	-9472
▁abundance	-9473
▁anonymous	-9474
▁comparing	-9475
▁electrons	-9476
▁eliminate	-9477
▁emergence	-9478
▁mosquitos	-9479
▁motivated	-9480
▁platforms	-9481
▁predators	-9482
▁resistant	-9483
▁statistic	-9484
▁tolerance	-9485
▁witnessed	-9486
▁workforce	-9487
▁Copenhagen	-9488
▁chromosome	-9489
▁destroying	-9490
▁frequently	-9491
▁projection	-9492
▁retirement	-9493
▁satellites	-9494
▁spacecraft	-9495
▁undergradu	-9496
▁chromosomes	-9497
▁consciously	-9498
▁distinguish	-9499
▁neuroscient	-9500
▁philosopher	-9501
▁specialized	-9502
▁understands	-9503
▁embarrassing	-9504
▁controversial	-9505
▁accountability	-9506
ds	-9507
tz	-9508
Man	-9509
ape	-9510
bie	-9511
fly	-9512
lor	-9513
▁..	-9514
▁42	-9515
▁Po	-9516
bean	-9517
inci	-9518
olar	-9519
page	-9520
▁15-	-9521
▁Mel	-9522
▁Nam	-9523
▁Ros	-9524
▁Sah	-9525
▁Val	-9526
▁jar	-9527
▁mud	-9528
▁sne	-9529
▁vel	-9530
digit	-9531
ellig	-9532
ifies	-9533
inent	-9534
oline	-9535
▁Hosp	-9536
▁Lear	-9537
▁Lord	-9538
▁Mass	-9539
▁Penn	-9540
▁batt	-9541
▁buff	-9542
▁bump	-9543
▁bush	-9544
▁keys	-9545
▁mask	-9546
▁mini	-9547
▁neoc	-9548
▁rabb	-9549
▁seal	-9550
▁stad	-9551
▁ward	-9552
Please	-9553
driven	-9554
erated	-9555
▁Queen	-9556
▁Seven	-9557
▁artic	-9558
▁candy	-9559
▁cares	-9560
▁crows	-9561
▁fever	-9562
▁illum	-9563
▁juven	-9564
▁pulse	-9565
▁raped	-9566
▁reper	-9567
▁shops	-9568
▁sweat	-9569
▁texts	-9570
bsolute	-9571
ologies	-9572
ometown	-9573
onsense	-9574
umented	-9575
vestock	-9576
▁60,000	-9577
▁Albert	-9578
▁Berlin	-9579
▁Social	-9580
▁Tasman	-9581
▁compre	-9582
▁copied	-9583
▁copies	-9584
▁guilty	-9585
▁horses	-9586
▁orders	-9587
▁proved	-9588
▁retail	-9589
▁selves	-9590
▁slower	-9591
▁topics	-9592
▁Atlanta	-9593
▁Library	-9594
▁Seattle	-9595
▁Stephen	-9596
▁banking	-9597
▁biomass	-9598
▁cardiac	-9599
▁compute	-9600
▁consent	-9601
▁cooling	-9602
▁counsel	-9603
▁crossed	-9604
▁digging	-9605
▁happily	-9606
▁optical	-9607
▁origins	-9608
▁screens	-9609
▁seeking	-9610
mentation	-9611
▁Leonardo	-9612
▁Probably	-9613
▁barriers	-9614
▁gorgeous	-9615
▁incorpor	-9616
▁parasite	-9617
▁pleasant	-9618
▁proposal	-9619
▁touching	-9620
▁visually	-9621
▁agreement	-9622
▁attracted	-9623
▁bacterial	-9624
▁delicious	-9625
▁livestock	-9626
▁longevity	-9627
▁sequences	-9628
▁strategic	-9629
▁therapies	-9630
▁universes	-9631
▁Industrial	-9632
▁assistance	-9633
▁ingredient	-9634
▁networking	-9635
▁organizing	-9636
▁phenomenal	-9637
▁psychopath	-9638
▁punishment	-9639
▁remarkably	-9640
▁sequencing	-9641
▁sufficient	-9642
▁cooperative	-9643
▁desperately	-9644
▁journalists	-9645
▁continuously	-9646
▁humanitarian	-9647
▁overwhelming	-9648
▁temperatures	-9649
,'	-9650
ja	-9651
ki	-9652
hot	-9653
oen	-9654
▁29	-9655
▁ID	-9656
▁Kh	-9657
▁Ky	-9658
▁MB	-9659
▁Ol	-9660
▁UC	-9661
burg	-9662
eyed	-9663
igan	-9664
mind	-9665
osov	-9666
oter	-9667
rane	-9668
rist	-9669
unes	-9670
ylon	-9671
▁'50	-9672
▁190	-9673
▁Dub	-9674
▁Had	-9675
▁Hol	-9676
▁Men	-9677
▁Mur	-9678
▁Syl	-9679
▁Van	-9680
▁blu	-9681
▁jam	-9682
▁nap	-9683
▁pad	-9684
inity	-9685
matic	-9686
▁Educ	-9687
▁Fund	-9688
▁Jane	-9689
▁Soci	-9690
▁blew	-9691
▁chew	-9692
▁coin	-9693
▁drif	-9694
▁eats	-9695
▁fest	-9696
▁fuck	-9697
▁gram	-9698
▁jack	-9699
▁lean	-9700
▁mixt	-9701
▁pole	-9702
▁tags	-9703
▁thus	-9704
alysis	-9705
iances	-9706
iverse	-9707
rogram	-9708
rontal	-9709
▁Cyrus	-9710
▁Leban	-9711
▁Louis	-9712
▁Media	-9713
▁belly	-9714
▁brave	-9715
▁camel	-9716
▁chess	-9717
▁feeds	-9718
▁gains	-9719
▁hopes	-9720
▁insec	-9721
▁perip	-9722
▁picks	-9723
▁straw	-9724
▁strip	-9725
faction	-9726
ocation	-9727
rection	-9728
▁Gandhi	-9729
▁Norden	-9730
▁bullet	-9731
▁canvas	-9732
▁corals	-9733
▁dating	-9734
▁dishes	-9735
▁fluctu	-9736
▁grains	-9737
▁horror	-9738
▁mentor	-9739
▁modest	-9740
▁nights	-9741
▁packed	-9742
▁prepar	-9743
▁safely	-9744
▁scenes	-9745
▁unlock	-9746
riptions	-9747
▁Everest	-9748
▁enhance	-9749
▁enlight	-9750
▁females	-9751
▁heating	-9752
▁mankind	-9753
▁periods	-9754
▁planted	-9755
▁refugee	-9756
▁teaches	-9757
▁useless	-9758
▁Olympics	-9759
▁TEDTalks	-9760
▁acquired	-9761
▁activate	-9762
▁advances	-9763
▁assembly	-9764
▁boundary	-9765
▁detector	-9766
▁diarrhea	-9767
▁evolving	-9768
▁expanded	-9769
▁honestly	-9770
▁internet	-9771
▁managers	-9772
▁observed	-9773
▁prisoner	-9774
▁talented	-9775
▁terrific	-9776
cyclopedia	-9777
▁activists	-9778
▁aesthetic	-9779
▁commodity	-9780
▁convicted	-9781
▁integrate	-9782
▁realistic	-9783
▁receiving	-9784
▁recession	-9785
▁staircase	-9786
▁terrified	-9787
▁Technology	-9788
▁disappears	-9789
▁parliament	-9790
▁professors	-9791
▁suggestion	-9792
▁ultrasound	-9793
▁concentrate	-9794
▁integration	-9795
▁investments	-9796
▁angiogenesis	-9797
▁collectively	-9798
▁contributing	-9799
▁demonstrated	-9800
▁significance	-9801
▁approximately	-9802
▁computational	-9803
▁transformative	-9804
eu	-9805
tr	-9806
Now	-9807
ker	-9808
yon	-9809
zes	-9810
▁Ba	-9811
▁je	-9812
,500	-9813
aste	-9814
ched	-9815
five	-9816
inos	-9817
iots	-9818
long	-9819
ucks	-9820
utan	-9821
▁Ann	-9822
▁Def	-9823
▁Ron	-9824
▁Tar	-9825
▁Ter	-9826
▁Tra	-9827
▁Tre	-9828
▁bip	-9829
▁hal	-9830
▁pit	-9831
actic	-9832
atics	-9833
enter	-9834
heads	-9835
impse	-9836
iolet	-9837
oenix	-9838
ogens	-9839
olera	-9840
ponds	-9841
rator	-9842
shore	-9843
▁..."	-9844
▁Army	-9845
▁Bern	-9846
▁Brad	-9847
▁Cape	-9848
▁Hind	-9849
▁Jews	-9850
▁Prot	-9851
▁Show	-9852
▁chef	-9853
▁dood	-9854
▁foie	-9855
▁frog	-9856
▁hamb	-9857
▁mast	-9858
▁odor	-9859
▁offs	-9860
▁panc	-9861
▁pipe	-9862
▁rank	-9863
▁util	-9864
▁wore	-9865
boards	-9866
culiar	-9867
ection	-9868
normal	-9869
orters	-9870
▁1,500	-9871
▁Craig	-9872
▁Kevin	-9873
▁Kosov	-9874
▁Larry	-9875
▁Tibet	-9876
▁Turns	-9877
▁acids	-9878
▁altru	-9879
▁brush	-9880
▁caves	-9881
▁couch	-9882
▁crude	-9883
▁fails	-9884
▁hated	-9885
▁ingen	-9886
▁naive	-9887
▁pulls	-9888
▁roofs	-9889
▁squid	-9890
▁wages	-9891
▁25,000	-9892
▁Hawaii	-9893
▁Joshua	-9894
▁Wright	-9895
▁agents	-9896
▁calend	-9897
▁cattle	-9898
▁flavor	-9899
▁habits	-9900
▁kicked	-9901
▁metals	-9902
▁nightm	-9903
▁passes	-9904
▁pencil	-9905
▁smells	-9906
▁stabil	-9907
computer	-9908
▁Charlie	-9909
▁Iranian	-9910
▁Journal	-9911
▁Switzer	-9912
▁antenna	-9913
▁condoms	-9914
▁dancers	-9915
▁filling	-9916
▁leather	-9917
▁nonviol	-9918
▁outrage	-9919
▁planned	-9920
▁reaches	-9921
▁retreat	-9922
▁secular	-9923
▁squares	-9924
▁streams	-9925
▁texting	-9926
▁texture	-9927
▁trading	-9928
▁visions	-9929
▁Benjamin	-9930
▁accuracy	-9931
▁announce	-9932
▁cheating	-9933
▁defining	-9934
▁division	-9935
▁injuries	-9936
▁memorial	-9937
▁multiply	-9938
▁peculiar	-9939
▁receptor	-9940
▁sometime	-9941
▁stopping	-9942
▁criminals	-9943
▁medicines	-9944
▁officials	-9945
▁producers	-9946
▁reflected	-9947
▁screaming	-9948
▁textbooks	-9949
▁vegetable	-9950
forestation	-9951
▁accomplish	-9952
▁adolescent	-9953
▁conceptual	-9954
▁delivering	-9955
▁infectious	-9956
▁microphone	-9957
▁physicians	-9958
▁practicing	-9959
▁priorities	-9960
▁prototypes	-9961
▁renewables	-9962
▁separation	-9963
▁symmetries	-9964
▁Switzerland	-9965
▁composition	-9966
▁corresponds	-9967
▁destination	-9968
▁disciplines	-9969
▁coordination	-9970
▁economically	-9971
▁observations	-9972
▁philanthropy	-9973
▁psychologist	-9974
?'	-9975
▁]	-9976
idi	-9977
ila	-9978
lla	-9979
nik	-9980
▁nu	-9981
▁oy	-9982
beat	-9983
fare	-9984
fire	-9985
four	-9986
lium	-9987
rier	-9988
thur	-9989
▁12-	-9990
▁Bol	-9991
▁Civ	-9992
▁FDA	-9993
▁Jud	-9994
▁Kat	-9995
▁Kir	-9996
▁Mas	-9997
▁Mer	-9998
▁Tah	-9999
▁nic	-10000
▁rib	-10001
▁rip	-10002
▁wow	-10003
Would	-10004
anium	-10005
asive	-10006
athon	-10007
berry	-10008
ching	-10009
ierra	-10010
iotic	-10011
olves	-10012
ouses	-10013
▁Carl	-10014
▁Mall	-10015
▁Mond	-10016
▁Phot	-10017
▁beam	-10018
▁beef	-10019
▁blur	-10020
▁crap	-10021
▁dele	-10022
▁disk	-10023
▁hipp	-10024
▁indu	-10025
▁merg	-10026
▁oven	-10027
▁sexy	-10028
▁symp	-10029
▁unre	-10030
▁verb	-10031
effect	-10032
enance	-10033
income	-10034
ndered	-10035
orough	-10036
stairs	-10037
vasive	-10038
▁2003,	-10039
▁Guard	-10040
▁Light	-10041
▁Still	-10042
▁ambul	-10043
▁arrow	-10044
▁codes	-10045
▁cream	-10046
▁defic	-10047
▁drunk	-10048
▁float	-10049
▁lists	-10050
▁loads	-10051
▁loses	-10052
▁mobil	-10053
▁towns	-10054
▁trips	-10055
▁yeast	-10056
pensive	-10057
percent	-10058
umbling	-10059
version	-10060
▁Joseph	-10061
▁Secret	-10062
▁Spring	-10063
▁Sylvia	-10064
▁accent	-10065
▁alumin	-10066
▁behalf	-10067
▁equity	-10068
▁exquis	-10069
▁harbor	-10070
▁hybrid	-10071
▁plates	-10072
▁riding	-10073
▁spiral	-10074
▁tagged	-10075
▁temple	-10076
▁timing	-10077
▁unfair	-10078
▁ventil	-10079
ortunate	-10080
▁Freedom	-10081
▁belongs	-10082
▁budgets	-10083
▁elegant	-10084
▁glimpse	-10085
▁kidding	-10086
▁shining	-10087
▁travels	-10088
▁whoever	-10089
▁wrapped	-10090
bsolutely	-10091
▁Cambodia	-10092
▁annivers	-10093
▁assemble	-10094
▁criteria	-10095
▁gestures	-10096
▁helpless	-10097
▁minority	-10098
▁mycelium	-10099
▁priority	-10100
▁thrilled	-10101
▁visiting	-10102
ographical	-10103
▁celebrity	-10104
▁expressed	-10105
▁parachute	-10106
▁replacing	-10107
▁responded	-10108
▁shoulders	-10109
▁visualize	-10110
▁workplace	-10111
▁Christians	-10112
▁critically	-10113
▁documented	-10114
▁hemisphere	-10115
▁horizontal	-10116
▁metabolism	-10117
▁presenting	-10118
▁translator	-10119
▁Republicans	-10120
▁devastating	-10121
▁frequencies	-10122
▁investigate	-10123
▁preparation	-10124
▁recognizing	-10125
▁transmitted	-10126
▁accomplished	-10127
▁prescription	-10128
▁authoritarian	-10129
▁hallucinations	-10130
▁representative	-10131
afe	-10132
cel	-10133
ema	-10134
kyo	-10135
▁72	-10136
▁CP	-10137
▁Da	-10138
▁Gr	-10139
▁Ra	-10140
AIDS	-10141
Come	-10142
agra	-10143
crim	-10144
imag	-10145
itar	-10146
mass	-10147
rypt	-10148
teen	-10149
unks	-10150
wart	-10151
▁130	-10152
▁Ear	-10153
▁Jup	-10154
▁Lev	-10155
▁Lew	-10156
▁Luc	-10157
▁Mos	-10158
▁Nic	-10159
▁ego	-10160
▁unw	-10161
▁wre	-10162
ached	-10163
aired	-10164
brush	-10165
cover	-10166
ellow	-10167
eping	-10168
iracy	-10169
ittee	-10170
▁1930	-10171
▁Kids	-10172
▁Rick	-10173
▁biof	-10174
▁bust	-10175
▁cups	-10176
▁dare	-10177
▁deck	-10178
▁depr	-10179
▁glor	-10180
▁mant	-10181
▁ster	-10182
▁turt	-10183
awater	-10184
violet	-10185
▁Alask	-10186
▁acres	-10187
▁acute	-10188
▁ambit	-10189
▁blast	-10190
▁bleed	-10191
▁facil	-10192
▁grant	-10193
▁infra	-10194
▁lions	-10195
▁mater	-10196
▁messy	-10197
▁octop	-10198
▁paste	-10199
▁reass	-10200
▁revel	-10201
▁unint	-10202
quality	-10203
raising	-10204
▁Office	-10205
▁Rather	-10206
▁aliens	-10207
▁apolog	-10208
▁athlet	-10209
▁behold	-10210
▁casual	-10211
▁cataly	-10212
▁dispar	-10213
▁iconic	-10214
▁mammal	-10215
▁purple	-10216
▁refuse	-10217
▁scaled	-10218
▁shifts	-10219
▁tattoo	-10220
▁triang	-10221
▁winner	-10222
▁History	-10223
▁Jupiter	-10224
▁Mexican	-10225
▁Montana	-10226
▁Natural	-10227
▁Similar	-10228
▁Society	-10229
▁airline	-10230
▁appoint	-10231
▁cholera	-10232
▁chronic	-10233
▁creator	-10234
▁fantasy	-10235
▁generic	-10236
▁grocery	-10237
▁heavily	-10238
▁injured	-10239
▁laughed	-10240
▁luckily	-10241
▁nurture	-10242
▁passage	-10243
▁pleased	-10244
▁princip	-10245
▁sulfide	-10246
▁telecom	-10247
▁toilets	-10248
▁Hospital	-10249
▁Ministry	-10250
▁Whenever	-10251
▁circuits	-10252
▁complain	-10253
▁gasoline	-10254
▁hometown	-10255
▁momentum	-10256
▁opinions	-10257
▁pathways	-10258
▁promised	-10259
▁protocol	-10260
▁recycled	-10261
▁revealed	-10262
▁revenues	-10263
▁targeted	-10264
▁variable	-10265
▁youngest	-10266
▁attacking	-10267
▁converted	-10268
▁diplomacy	-10269
▁disasters	-10270
▁mutations	-10271
▁negotiate	-10272
▁portraits	-10273
▁regularly	-10274
▁screening	-10275
▁accelerate	-10276
▁disturbing	-10277
▁enormously	-10278
▁enterprise	-10279
▁frightened	-10280
▁generosity	-10281
▁suspicious	-10282
▁implemented	-10283
▁progression	-10284
▁sensitivity	-10285
▁ultraviolet	-10286
▁accelerating	-10287
▁appreciation	-10288
▁authenticity	-10289
▁improvements	-10290
▁perspectives	-10291
▁entrepreneurial	-10292
hr	-10293
mo	-10294
no	-10295
▁&	-10296
For	-10297
odd	-10298
vil	-10299
yal	-10300
zee	-10301
▁31	-10302
▁Bh	-10303
▁Os	-10304
▁eB	-10305
alia	-10306
amas	-10307
asha	-10308
ccer	-10309
chem	-10310
hear	-10311
ican	-10312
ieve	-10313
inch	-10314
olas	-10315
orse	-10316
oton	-10317
pack	-10318
wing	-10319
▁DAR	-10320
▁Jac	-10321
▁Naz	-10322
▁Pen	-10323
▁Ram	-10324
▁Str	-10325
▁Tun	-10326
▁Ver	-10327
▁Vol	-10328
▁awe	-10329
▁cul	-10330
Point	-10331
arded	-10332
ccoli	-10333
enous	-10334
graph	-10335
holds	-10336
oters	-10337
ourse	-10338
pound	-10339
raine	-10340
ribed	-10341
thals	-10342
▁Post	-10343
▁adds	-10344
▁apps	-10345
▁hint	-10346
▁kidn	-10347
▁rays	-10348
▁solo	-10349
▁unle	-10350
▁vice	-10351
action	-10352
estone	-10353
ghetti	-10354
shaped	-10355
uction	-10356
ulator	-10357
▁Beach	-10358
▁Broad	-10359
▁Civil	-10360
▁Heart	-10361
▁Tokyo	-10362
▁advis	-10363
▁arbit	-10364
▁brick	-10365
▁cared	-10366
▁consp	-10367
▁dread	-10368
▁index	-10369
▁maneu	-10370
▁marks	-10371
▁norms	-10372
▁seals	-10373
▁slice	-10374
▁steep	-10375
▁tanks	-10376
▁warri	-10377
▁woods	-10378
imeters	-10379
osexual	-10380
perform	-10381
▁Argent	-10382
▁Daniel	-10383
▁Nether	-10384
▁Norway	-10385
▁Portug	-10386
▁Pretty	-10387
▁angles	-10388
▁apples	-10389
▁beetle	-10390
▁combat	-10391
▁contag	-10392
▁donors	-10393
▁eighth	-10394
▁execut	-10395
▁graphs	-10396
▁hambur	-10397
▁multin	-10398
▁preced	-10399
▁soccer	-10400
▁sooner	-10401
▁virgin	-10402
culation	-10403
▁150,000	-10404
▁Academy	-10405
▁Environ	-10406
▁Olympic	-10407
▁assumed	-10408
▁beetles	-10409
▁buttons	-10410
▁climbed	-10411
▁counted	-10412
▁crashes	-10413
▁default	-10414
▁desktop	-10415
▁drought	-10416
▁fulfill	-10417
▁honored	-10418
▁matched	-10419
▁melting	-10420
▁pouring	-10421
▁premise	-10422
▁reforms	-10423
▁rescued	-10424
▁segment	-10425
▁shorter	-10426
▁silicon	-10427
▁trapped	-10428
▁trusted	-10429
ropolitan	-10430
▁Canadian	-10431
▁Columbia	-10432
▁Egyptian	-10433
▁aluminum	-10434
▁ancestor	-10435
▁basement	-10436
▁ceremony	-10437
▁chapters	-10438
▁circular	-10439
▁explored	-10440
▁forecast	-10441
▁freezing	-10442
▁heritage	-10443
▁hormones	-10444
▁improvis	-10445
▁indicate	-10446
▁mentally	-10447
▁operates	-10448
▁pipeline	-10449
▁simulate	-10450
▁sticking	-10451
▁tangible	-10452
▁triangle	-10453
▁ambitious	-10454
▁answering	-10455
▁bacterium	-10456
▁collision	-10457
▁compounds	-10458
▁generates	-10459
▁judgments	-10460
▁metabolic	-10461
▁migration	-10462
▁mushrooms	-10463
▁overnight	-10464
▁reporting	-10465
▁Parliament	-10466
▁anticipate	-10467
▁candidates	-10468
▁employment	-10469
▁households	-10470
▁inherently	-10471
▁interfaces	-10472
▁irrational	-10473
▁millimeter	-10474
▁politician	-10475
▁profitable	-10476
▁Development	-10477
▁Netherlands	-10478
▁anniversary	-10479
▁correlation	-10480
▁embarrassed	-10481
▁transported	-10482
▁unfortunate	-10483
▁Neanderthals	-10484
▁investigation	-10485
▁multinational	-10486
As	-10487
bag	-10488
dra	-10489
mes	-10490
omy	-10491
oof	-10492
vol	-10493
wid	-10494
▁37	-10495
▁Di	-10496
▁Ec	-10497
▁Id	-10498
▁SP	-10499
▁Wo	-10500
▁gy	-10501
anas	-10502
aver	-10503
bing	-10504
idal	-10505
isan	-10506
lied	-10507
mate	-10508
mile	-10509
oked	-10510
omed	-10511
pres	-10512
▁Fed	-10513
▁Has	-10514
▁Mot	-10515
▁Ted	-10516
▁gad	-10517
▁voy	-10518
Thank	-10519
abeth	-10520
arial	-10521
elect	-10522
ennis	-10523
eting	-10524
keley	-10525
piece	-10526
plete	-10527
speed	-10528
urday	-10529
▁Ardu	-10530
▁Band	-10531
▁Cold	-10532
▁Dick	-10533
▁Gard	-10534
▁Matt	-10535
▁Milo	-10536
▁Ross	-10537
▁Stop	-10538
▁Tues	-10539
▁belt	-10540
▁chat	-10541
▁cope	-10542
▁dens	-10543
▁enab	-10544
▁lion	-10545
▁piss	-10546
▁porn	-10547
▁prey	-10548
▁scal	-10549
▁slip	-10550
▁soap	-10551
▁stew	-10552
ailand	-10553
coming	-10554
eprint	-10555
iments	-10556
ograms	-10557
umbled	-10558
▁Harry	-10559
▁Namib	-10560
▁Pitts	-10561
▁Start	-10562
▁chase	-10563
▁decor	-10564
▁greet	-10565
▁laund	-10566
▁manus	-10567
▁panic	-10568
▁rises	-10569
▁risky	-10570
▁slope	-10571
▁wiped	-10572
▁yards	-10573
atories	-10574
iterate	-10575
million	-10576
natural	-10577
▁Buddha	-10578
▁Sierra	-10579
▁absurd	-10580
▁corrid	-10581
▁cousin	-10582
▁cracks	-10583
▁crowds	-10584
▁deadly	-10585
▁enrich	-10586
▁equals	-10587
▁ethics	-10588
▁evapor	-10589
▁famine	-10590
▁filmed	-10591
▁frames	-10592
▁fruits	-10593
▁guards	-10594
▁mature	-10595
▁mixing	-10596
▁regist	-10597
▁rolled	-10598
▁scheme	-10599
▁shower	-10600
▁strand	-10601
▁submit	-10602
▁syring	-10603
▁upward	-10604
▁waited	-10605
▁warmer	-10606
▁wasted	-10607
ependent	-10608
ifferent	-10609
velength	-10610
▁Kingdom	-10611
▁Tuesday	-10612
▁William	-10613
▁blowing	-10614
▁browser	-10615
▁charged	-10616
▁chasing	-10617
▁farther	-10618
▁gallons	-10619
▁grabbed	-10620
▁greatly	-10621
▁impress	-10622
▁mirrors	-10623
▁praying	-10624
▁pricing	-10625
▁shifted	-10626
▁spatial	-10627
▁stadium	-10628
▁thereby	-10629
▁weekend	-10630
▁Berkeley	-10631
▁Business	-10632
▁Thailand	-10633
▁Together	-10634
▁autonomy	-10635
▁calculus	-10636
▁checking	-10637
▁findings	-10638
▁friction	-10639
▁frontier	-10640
▁lifespan	-10641
▁membrane	-10642
▁motivate	-10643
▁rejected	-10644
▁stealing	-10645
▁vacation	-10646
ustainable	-10647
▁addiction	-10648
▁associate	-10649
▁biosphere	-10650
▁cardboard	-10651
▁consensus	-10652
▁desperate	-10653
▁dictators	-10654
▁geography	-10655
▁integrity	-10656
▁involving	-10657
▁magazines	-10658
▁processor	-10659
▁spaghetti	-10660
▁PowerPoint	-10661
▁celebrated	-10662
▁congestion	-10663
▁describing	-10664
▁electrodes	-10665
▁exceptions	-10666
▁indigenous	-10667
▁intentions	-10668
▁legitimate	-10669
▁manuscript	-10670
▁prosthetic	-10671
▁sculptures	-10672
▁systematic	-10673
▁Information	-10674
▁democracies	-10675
▁distinction	-10676
▁emotionally	-10677
▁inexpensive	-10678
▁maintenance	-10679
▁microscopic	-10680
▁practically	-10681
▁replacement	-10682
▁revolutions	-10683
▁symmetrical	-10684
▁alternatives	-10685
▁introduction	-10686
▁partnerships	-10687
▁exponentially	-10688
▁electromagnetic	-10689
-2	-10690
ga	-10691
lv	-10692
isc	-10693
iva	-10694
jan	-10695
zzy	-10696
▁'8	-10697
▁4.	-10698
▁46	-10699
▁BJ	-10700
▁BM	-10701
▁IP	-10702
▁Ok	-10703
▁WK	-10704
▁vo	-10705
atus	-10706
hors	-10707
imed	-10708
nedy	-10709
offs	-10710
yles	-10711
▁30,	-10712
▁Bre	-10713
▁Mid	-10714
▁Old	-10715
▁eru	-10716
▁lex	-10717
▁rap	-10718
▁yog	-10719
ancer	-10720
arten	-10721
▁Gall	-10722
▁Jord	-10723
▁Tele	-10724
▁aunt	-10725
▁bowl	-10726
▁bugs	-10727
▁cube	-10728
▁epip	-10729
▁goat	-10730
▁leak	-10731
▁nano	-10732
▁padd	-10733
▁pean	-10734
▁puff	-10735
▁toll	-10736
▁torn	-10737
▁voca	-10738
▁wins	-10739
▁worm	-10740
apagos	-10741
asters	-10742
escope	-10743
▁2006,	-10744
▁Creat	-10745
▁Milky	-10746
▁Tunis	-10747
▁asset	-10748
▁awake	-10749
▁bribe	-10750
▁cloth	-10751
▁divid	-10752
▁favel	-10753
▁lifel	-10754
▁nasty	-10755
▁noisy	-10756
▁pipes	-10757
▁rains	-10758
▁relat	-10759
▁roles	-10760
ructive	-10761
▁12,000	-10762
▁Alaska	-10763
▁Recent	-10764
▁beside	-10765
▁boards	-10766
▁brands	-10767
▁cathed	-10768
▁chains	-10769
▁copper	-10770
▁counts	-10771
▁digest	-10772
▁empath	-10773
▁exotic	-10774
▁folded	-10775
▁insert	-10776
▁intend	-10777
▁marker	-10778
▁marrow	-10779
▁nicely	-10780
▁precip	-10781
▁serves	-10782
▁stairs	-10783
▁traces	-10784
▁unseen	-10785
▁virtue	-10786
▁viscer	-10787
▁Country	-10788
▁Kennedy	-10789
▁Phoenix	-10790
▁applies	-10791
▁checked	-10792
▁compreh	-10793
▁copying	-10794
▁easiest	-10795
▁elderly	-10796
▁exagger	-10797
▁flights	-10798
▁forgive	-10799
▁hackers	-10800
▁iceberg	-10801
▁markers	-10802
▁needles	-10803
▁ordered	-10804
▁penalty	-10805
▁priorit	-10806
▁rehabil	-10807
▁reserve	-10808
▁richest	-10809
▁settled	-10810
▁seventh	-10811
▁shaking	-10812
▁shelves	-10813
▁submers	-10814
▁surveys	-10815
▁upright	-10816
▁western	-10817
▁Michigan	-10818
▁Saturday	-10819
▁acoustic	-10820
▁actively	-10821
▁analyzed	-10822
▁broccoli	-10823
▁cellular	-10824
▁chickens	-10825
▁cleaning	-10826
▁cocktail	-10827
▁deciding	-10828
▁diamonds	-10829
▁displays	-10830
▁exploded	-10831
▁famously	-10832
▁infrared	-10833
▁intimacy	-10834
▁juvenile	-10835
▁offshore	-10836
▁prospect	-10837
▁publicly	-10838
▁sexually	-10839
▁According	-10840
▁Democrats	-10841
▁Galapagos	-10842
▁Jefferson	-10843
▁Parkinson	-10844
▁alongside	-10845
▁ambulance	-10846
▁blueprint	-10847
▁bombsight	-10848
▁demograph	-10849
▁emphasize	-10850
▁indicates	-10851
▁promoting	-10852
▁reasoning	-10853
▁accumulate	-10854
▁chimpanzee	-10855
▁connectome	-10856
▁dependence	-10857
▁diagnostic	-10858
▁enthusiasm	-10859
▁inventions	-10860
▁prevalence	-10861
▁sanitation	-10862
▁wavelength	-10863
▁collaborate	-10864
▁documentary	-10865
▁functioning	-10866
▁nonetheless	-10867
▁projections	-10868
▁statistical	-10869
▁substantial	-10870
▁chemotherapy	-10871
▁headquarters	-10872
▁presidential	-10873
▁representing	-10874
▁philosophical	-10875
▁revolutionary	-10876
▁scientifically	-10877
Go	-10878
IA	-10879
ba	-10880
bu	-10881
▁:	-10882
300	-10883
aza	-10884
cin	-10885
lli	-10886
urf	-10887
wan	-10888
▁48	-10889
▁Ir	-10890
▁PI	-10891
▁Sk	-10892
▁ic	-10893
aire	-10894
aken	-10895
aque	-10896
enez	-10897
lers	-10898
lets	-10899
ogan	-10900
oves	-10901
rine	-10902
rose	-10903
size	-10904
soon	-10905
urop	-10906
zler	-10907
▁1.2	-10908
▁12,	-10909
▁50-	-10910
▁Bud	-10911
▁Inc	-10912
▁Jay	-10913
▁Sub	-10914
▁Sup	-10915
▁arc	-10916
▁fog	-10917
▁gal	-10918
▁gel	-10919
▁jan	-10920
▁kit	-10921
▁lam	-10922
▁mas	-10923
acent	-10924
akota	-10925
ivals	-10926
month	-10927
rovir	-10928
wling	-10929
▁Book	-10930
▁Edin	-10931
▁Hung	-10932
▁Mean	-10933
▁Nike	-10934
▁Year	-10935
▁carp	-10936
▁crab	-10937
▁debr	-10938
▁eBay	-10939
▁fier	-10940
▁holy	-10941
▁obso	-10942
▁reck	-10943
▁sang	-10944
▁semi	-10945
▁tale	-10946
▁thro	-10947
ements	-10948
formed	-10949
ibbean	-10950
ibrium	-10951
imalay	-10952
lethal	-10953
minded	-10954
ounder	-10955
ricane	-10956
school	-10957
▁8,000	-10958
▁Apoll	-10959
▁Lewis	-10960
▁Party	-10961
▁Royal	-10962
▁Stone	-10963
▁Sudan	-10964
▁alert	-10965
▁alter	-10966
▁arise	-10967
▁boost	-10968
▁choir	-10969
▁chore	-10970
▁femin	-10971
▁firms	-10972
▁flesh	-10973
▁freed	-10974
▁frogs	-10975
▁ghost	-10976
▁hoped	-10977
▁midst	-10978
▁nodes	-10979
▁obser	-10980
▁poems	-10981
▁pumps	-10982
▁rigid	-10983
▁sands	-10984
▁shred	-10985
▁snake	-10986
▁sucks	-10987
iscover	-10988
izabeth	-10989
ocratic	-10990
ulative	-10991
▁Arthur	-10992
▁Bosnia	-10993
▁Cancer	-10994
▁Empire	-10995
▁Kosovo	-10996
▁Monday	-10997
▁Notice	-10998
▁Philip	-10999
▁addict	-11000
▁appeal	-11001
▁argued	-11002
▁assure	-11003
▁asthma	-11004
▁emails	-11005
▁foster	-11006
▁interd	-11007
▁losses	-11008
▁marked	-11009
▁pollut	-11010
▁presum	-11011
▁racing	-11012
▁resemb	-11013
▁scroll	-11014
▁server	-11015
▁snakes	-11016
▁speeds	-11017
▁steady	-11018
▁trauma	-11019
▁underm	-11020
▁viewed	-11021
▁wished	-11022
ergarten	-11023
ilibrium	-11024
▁Alright	-11025
▁Arduino	-11026
▁Himalay	-11027
▁Teszler	-11028
▁altered	-11029
▁amateur	-11030
▁columns	-11031
▁cousins	-11032
▁dispers	-11033
▁episode	-11034
▁eternal	-11035
▁gardens	-11036
▁hacking	-11037
▁impulse	-11038
▁inhabit	-11039
▁linking	-11040
▁mixture	-11041
▁octopus	-11042
▁pathway	-11043
▁posters	-11044
▁returns	-11045
▁sensing	-11046
▁shortly	-11047
▁squared	-11048
▁strikes	-11049
▁thermal	-11050
▁touches	-11051
▁vitamin	-11052
▁worship	-11053
▁baseline	-11054
▁envelope	-11055
▁humility	-11056
▁innovate	-11057
▁interpre	-11058
▁magician	-11059
▁nonsense	-11060
▁outbreak	-11061
▁passions	-11062
▁presents	-11063
▁refugees	-11064
▁regional	-11065
▁seawater	-11066
▁temporal	-11067
controlled	-11068
▁Caribbean	-11069
▁Edinburgh	-11070
▁Telescope	-11071
▁Therefore	-11072
▁artifacts	-11073
▁astronaut	-11074
▁astronomy	-11075
▁checklist	-11076
▁extensive	-11077
▁illusions	-11078
▁imagining	-11079
▁millennia	-11080
▁observing	-11081
▁parenting	-11082
▁projected	-11083
▁secondary	-11084
▁skeptical	-11085
▁variables	-11086
▁Pittsburgh	-11087
▁Republican	-11088
▁anesthesia	-11089
▁confronted	-11090
▁convincing	-11091
▁discussing	-11092
▁empowering	-11093
▁intriguing	-11094
▁predicting	-11095
▁calculating	-11096
▁calculation	-11097
▁considering	-11098
▁discussions	-11099
▁flexibility	-11100
▁frustration	-11101
▁perceptions	-11102
▁regulations	-11103
▁catastrophic	-11104
▁disappearing	-11105
▁satisfaction	-11106
▁Interestingly	-11107
▁participating	-11108
ES	-11109
Ex	-11110
LA	-11111
100	-11112
Did	-11113
Mom	-11114
ecd	-11115
lad	-11116
mia	-11117
ois	-11118
pay	-11119
sea	-11120
▁43	-11121
▁44	-11122
▁Od	-11123
▁ol	-11124
Good	-11125
amie	-11126
anol	-11127
bral	-11128
core	-11129
eman	-11130
heel	-11131
held	-11132
inea	-11133
oven	-11134
pace	-11135
pons	-11136
sylv	-11137
word	-11138
▁1.5	-11139
▁140	-11140
▁15,	-11141
▁24-	-11142
▁450	-11143
▁Ask	-11144
▁Bor	-11145
▁Bot	-11146
▁Nav	-11147
▁Say	-11148
▁Tit	-11149
▁owe	-11150
avors	-11151
essim	-11152
grand	-11153
oured	-11154
roots	-11155
thood	-11156
width	-11157
▁2005	-11158
▁Beat	-11159
▁Bert	-11160
▁Know	-11161
▁Lead	-11162
▁Sand	-11163
▁Serv	-11164
▁Wood	-11165
▁Zimb	-11166
▁beds	-11167
▁caus	-11168
▁duty	-11169
▁edit	-11170
▁germ	-11171
▁grim	-11172
▁guid	-11173
▁lump	-11174
▁shed	-11175
▁yard	-11176
ertips	-11177
odynam	-11178
second	-11179
ustice	-11180
▁Color	-11181
▁Sarah	-11182
▁Venez	-11183
▁anecd	-11184
▁clips	-11185
▁draws	-11186
▁flock	-11187
▁folds	-11188
▁fuzzy	-11189
▁hairs	-11190
▁hills	-11191
▁jumps	-11192
▁knees	-11193
▁morph	-11194
▁stare	-11195
▁suits	-11196
▁surre	-11197
▁towel	-11198
thetics	-11199
▁15,000	-11200
▁Cities	-11201
▁abroad	-11202
▁benign	-11203
▁bloody	-11204
▁brutal	-11205
▁chimps	-11206
▁circul	-11207
▁dancer	-11208
▁defect	-11209
▁depart	-11210
▁empire	-11211
▁gravit	-11212
▁hugely	-11213
▁immort	-11214
▁intric	-11215
▁mutual	-11216
▁occupy	-11217
▁potent	-11218
▁prayer	-11219
▁sulfur	-11220
▁truths	-11221
▁viable	-11222
oriented	-11223
restrial	-11224
sylvania	-11225
▁Babbage	-11226
▁Medical	-11227
▁Natasha	-11228
▁Stewart	-11229
▁Suppose	-11230
▁Supreme	-11231
▁blessed	-11232
▁clarity	-11233
▁discrim	-11234
▁dismiss	-11235
▁eastern	-11236
▁handful	-11237
▁jewelry	-11238
▁leopard	-11239
▁logging	-11240
▁longest	-11241
▁matches	-11242
▁museums	-11243
▁primate	-11244
▁refused	-11245
▁spiders	-11246
▁talents	-11247
▁transit	-11248
conscious	-11249
effective	-11250
sociation	-11251
▁Venezuel	-11252
▁abundant	-11253
▁activist	-11254
▁clusters	-11255
▁detected	-11256
▁embodied	-11257
▁endeavor	-11258
▁guidance	-11259
▁happiest	-11260
▁lectures	-11261
▁managing	-11262
▁maneuver	-11263
▁minerals	-11264
▁obsolete	-11265
▁obstacle	-11266
▁planting	-11267
▁purchase	-11268
▁resident	-11269
▁symbolic	-11270
▁tropical	-11271
▁uniquely	-11272
ifications	-11273
▁Meanwhile	-11274
▁Similarly	-11275
▁achieving	-11276
▁breakdown	-11277
▁champions	-11278
▁contained	-11279
▁finishing	-11280
▁fishermen	-11281
▁kilometer	-11282
▁libraries	-11283
▁lightning	-11284
▁obsession	-11285
▁offspring	-11286
▁paralysis	-11287
▁precision	-11288
▁resilient	-11289
▁sequenced	-11290
▁summarize	-11291
▁surviving	-11292
▁Absolutely	-11293
▁addressing	-11294
▁apartments	-11295
▁meditation	-11296
▁playground	-11297
▁propaganda	-11298
▁recognizes	-11299
▁repeatedly	-11300
▁responding	-11301
▁supportive	-11302
▁Palestinian	-11303
▁astronomers	-11304
▁celebration	-11305
▁controversy	-11306
▁dragonflies	-11307
▁equilibrium	-11308
▁eradication	-11309
▁rainforests	-11310
▁remembering	-11311
▁researching	-11312
▁Pennsylvania	-11313
▁biologically	-11314
▁disappointed	-11315
▁philosophers	-11316
▁deforestation	-11317
▁statistically	-11318
▁characteristic	-11319
Ar	-11320
One	-11321
ani	-11322
bee	-11323
flu	-11324
ili	-11325
lan	-11326
▁2:	-11327
▁52	-11328
▁AD	-11329
▁Av	-11330
▁Cy	-11331
▁SB	-11332
▁TB	-11333
▁Vi	-11334
▁Wi	-11335
▁YR	-11336
Cola	-11337
anna	-11338
axis	-11339
bird	-11340
bled	-11341
cium	-11342
ctar	-11343
flow	-11344
inas	-11345
itic	-11346
otal	-11347
ptic	-11348
roup	-11349
uled	-11350
▁16,	-11351
▁900	-11352
▁Add	-11353
▁Amy	-11354
▁Arm	-11355
▁Dig	-11356
▁Kle	-11357
▁Lee	-11358
▁Nep	-11359
▁Nin	-11360
▁Ooh	-11361
▁Ult	-11362
▁Zip	-11363
▁jaw	-11364
▁loo	-11365
▁lou	-11366
▁plu	-11367
achel	-11368
aurus	-11369
chool	-11370
ctive	-11371
ubble	-11372
▁2008	-11373
▁Coca	-11374
▁Jill	-11375
▁Lady	-11376
▁Nick	-11377
▁Plan	-11378
▁TEDx	-11379
▁apes	-11380
▁extr	-11381
▁heck	-11382
▁inqu	-11383
▁numb	-11384
▁obsc	-11385
▁pose	-11386
▁ware	-11387
ankind	-11388
bulary	-11389
ieties	-11390
levant	-11391
ocracy	-11392
orship	-11393
putnik	-11394
rative	-11395
social	-11396
▁2001,	-11397
▁Danny	-11398
▁Fried	-11399
▁Georg	-11400
▁Qatar	-11401
▁alike	-11402
▁appar	-11403
▁arous	-11404
▁clues	-11405
▁crank	-11406
▁deple	-11407
▁doses	-11408
▁entit	-11409
▁fired	-11410
▁fungi	-11411
▁pants	-11412
▁physi	-11413
▁recur	-11414
▁sells	-11415
Because	-11416
acities	-11417
closure	-11418
holders	-11419
issance	-11420
ouncing	-11421
ounding	-11422
ourcing	-11423
▁Around	-11424
▁Golden	-11425
▁Having	-11426
▁Nathan	-11427
▁Native	-11428
▁Sahara	-11429
▁bypass	-11430
▁checks	-11431
▁cosmos	-11432
▁debris	-11433
▁floors	-11434
▁handed	-11435
▁heroic	-11436
▁lately	-11437
▁mapped	-11438
▁mating	-11439
▁mouths	-11440
▁nectar	-11441
▁pessim	-11442
▁reader	-11443
▁salary	-11444
▁sovere	-11445
▁stigma	-11446
▁submar	-11447
▁weighs	-11448
ensitive	-11449
vascular	-11450
▁300,000	-11451
▁Defense	-11452
▁Finland	-11453
▁Lebanon	-11454
▁basking	-11455
▁chaotic	-11456
▁coastal	-11457
▁decides	-11458
▁devoted	-11459
▁ethanol	-11460
▁filters	-11461
▁frontal	-11462
▁goodbye	-11463
▁joining	-11464
▁justify	-11465
▁neglect	-11466
▁notions	-11467
▁nucleus	-11468
▁refined	-11469
▁regrets	-11470
▁shipped	-11471
ventually	-11472
▁Brothers	-11473
▁Consider	-11474
▁Williams	-11475
▁ambition	-11476
▁composed	-11477
▁democrat	-11478
▁deserves	-11479
▁entities	-11480
▁entrance	-11481
▁informal	-11482
▁marathon	-11483
▁modeling	-11484
▁mustache	-11485
▁numerous	-11486
▁plankton	-11487
▁primates	-11488
▁reflects	-11489
▁thinkers	-11490
▁weakness	-11491
▁activated	-11492
▁analyzing	-11493
▁circuitry	-11494
▁consuming	-11495
▁container	-11496
▁countless	-11497
▁galleries	-11498
▁illnesses	-11499
▁improvise	-11500
▁injustice	-11501
▁nightmare	-11502
▁pregnancy	-11503
▁relatives	-11504
engineering	-11505
▁acceptance	-11506
▁adaptation	-11507
▁disconnect	-11508
▁imperative	-11509
▁parameters	-11510
▁programmed	-11511
▁reasonably	-11512
▁regulation	-11513
▁statements	-11514
▁vocabulary	-11515
▁adolescence	-11516
▁circulation	-11517
▁dysfunction	-11518
▁problematic	-11519
▁spontaneous	-11520
▁storyteller	-11521
▁conditioning	-11522
▁constitution	-11523
▁encyclopedia	-11524
▁explanations	-11525
▁kindergarten	-11526
▁manipulation	-11527
▁nevertheless	-11528
▁manufacturers	-11529
ARS	-11530
ECD	-11531
She	-11532
asa	-11533
cor	-11534
fig	-11535
gon	-11536
▁86	-11537
▁PR	-11538
▁Sl	-11539
abwe	-11540
acle	-11541
eton	-11542
food	-11543
shah	-11544
stan	-11545
step	-11546
▁11,	-11547
▁12.	-11548
▁125	-11549
▁160	-11550
▁180	-11551
▁187	-11552
▁203	-11553
▁Hot	-11554
▁Pet	-11555
▁Pur	-11556
▁bay	-11557
▁cum	-11558
▁fis	-11559
▁heh	-11560
▁wax	-11561
Every	-11562
allas	-11563
alore	-11564
erate	-11565
erers	-11566
frame	-11567
ilson	-11568
metic	-11569
ocity	-11570
story	-11571
third	-11572
venue	-11573
▁2007	-11574
▁Alph	-11575
▁Cost	-11576
▁Data	-11577
▁Dave	-11578
▁Down	-11579
▁Expl	-11580
▁Fire	-11581
▁Food	-11582
▁Fred	-11583
▁Jobs	-11584
▁Less	-11585
▁Luck	-11586
▁OECD	-11587
▁Pers	-11588
▁Such	-11589
▁Wait	-11590
▁bore	-11591
▁deci	-11592
▁deny	-11593
▁lips	-11594
▁lith	-11595
▁narc	-11596
▁scra	-11597
▁skip	-11598
▁slum	-11599
▁unac	-11600
▁unin	-11601
handed	-11602
iatric	-11603
inding	-11604
opardy	-11605
ounded	-11606
ulates	-11607
ulture	-11608
▁2000.	-11609
▁2008.	-11610
▁Alice	-11611
▁Death	-11612
▁Large	-11613
▁Princ	-11614
▁Radio	-11615
▁Tower	-11616
▁Ushah	-11617
▁album	-11618
▁arena	-11619
▁chalk	-11620
▁decom	-11621
▁exerc	-11622
▁mutil	-11623
▁occas	-11624
▁petro	-11625
▁piles	-11626
▁resur	-11627
▁ridge	-11628
▁riots	-11629
▁ruins	-11630
▁sheer	-11631
▁spike	-11632
▁templ	-11633
▁tenth	-11634
▁tuned	-11635
▁vocal	-11636
▁wells	-11637
alities	-11638
ultural	-11639
▁Canyon	-11640
▁Commun	-11641
▁Humans	-11642
▁Jersey	-11643
▁Johnny	-11644
▁Lester	-11645
▁Warren	-11646
▁Wonder	-11647
▁advers	-11648
▁allies	-11649
▁candle	-11650
▁cockro	-11651
▁coined	-11652
▁condom	-11653
▁earned	-11654
▁exceed	-11655
▁facult	-11656
▁helmet	-11657
▁hunter	-11658
▁hypoth	-11659
▁laying	-11660
▁learns	-11661
▁metric	-11662
▁powder	-11663
▁storms	-11664
▁tricky	-11665
▁voters	-11666
aggering	-11667
ountered	-11668
▁250,000	-11669
▁Babylon	-11670
▁Connect	-11671
▁Looking	-11672
▁Namibia	-11673
▁affairs	-11674
▁calcium	-11675
▁chemist	-11676
▁contest	-11677
▁cracked	-11678
▁crushed	-11679
▁emerges	-11680
▁endless	-11681
▁expense	-11682
▁funeral	-11683
▁legitim	-11684
▁lighter	-11685
▁literal	-11686
▁monsoon	-11687
▁monster	-11688
▁morally	-11689
▁reperto	-11690
▁rhythms	-11691
▁sadness	-11692
▁scanned	-11693
▁slowing	-11694
▁summary	-11695
▁viewing	-11696
▁whisper	-11697
ationally	-11698
▁Zimbabwe	-11699
▁adaptive	-11700
▁cerebral	-11701
▁climbers	-11702
▁declared	-11703
▁elevator	-11704
▁enabling	-11705
▁envision	-11706
▁feminist	-11707
▁flourish	-11708
▁goodness	-11709
▁intimate	-11710
▁peripher	-11711
▁railroad	-11712
▁redefine	-11713
▁releases	-11714
▁secondly	-11715
▁Architect	-11716
▁Bangalore	-11717
▁Princeton	-11718
▁Secretary	-11719
▁Tasmanian	-11720
▁aggregate	-11721
▁conductor	-11722
▁delighted	-11723
▁embracing	-11724
▁fragments	-11725
▁intervene	-11726
▁pressures	-11727
▁processed	-11728
▁stimulate	-11729
▁supercond	-11730
▁survivors	-11731
▁sustained	-11732
▁voluntary	-11733
▁Eventually	-11734
▁antibodies	-11735
▁beneficial	-11736
▁contradict	-11737
▁courageous	-11738
▁grassroots	-11739
▁influences	-11740
▁opposition	-11741
▁pedestrian	-11742
▁physiology	-11743
▁prefrontal	-11744
▁preventing	-11745
▁regenerate	-11746
▁specialist	-11747
▁Fortunately	-11748
▁accompanied	-11749
▁countryside	-11750
▁encountered	-11751
▁orientation	-11752
▁prototyping	-11753
▁specialists	-11754
▁wonderfully	-11755
▁consistently	-11756
▁illustration	-11757
▁laboratories	-11758
▁reproduction	-11759
▁contradiction	-11760
▁experimenting	-11761
▁gravitational	-11762
▁personalities	-11763
▁undergraduate	-11764
An	-11765
To	-11766
vy	-11767
600	-11768
800	-11769
PTC	-11770
awa	-11771
cko	-11772
cod	-11773
dle	-11774
eem	-11775
fts	-11776
pit	-11777
sex	-11778
umm	-11779
vet	-11780
▁34	-11781
▁AT	-11782
▁CN	-11783
▁MO	-11784
▁Py	-11785
▁RO	-11786
▁UN	-11787
acre	-11788
adel	-11789
anch	-11790
arin	-11791
asso	-11792
bery	-11793
educ	-11794
gend	-11795
onto	-11796
oric	-11797
ousy	-11798
phia	-11799
rove	-11800
text	-11801
uels	-11802
uper	-11803
verb	-11804
▁1.3	-11805
▁185	-11806
▁Abu	-11807
▁Ang	-11808
▁Cat	-11809
▁Est	-11810
▁Fil	-11811
▁Han	-11812
▁Len	-11813
▁Mem	-11814
▁Pra	-11815
▁RNA	-11816
▁SMS	-11817
▁Vis	-11818
▁Win	-11819
▁los	-11820
▁sib	-11821
▁soy	-11822
▁zoo	-11823
amous	-11824
asure	-11825
borne	-11826
bucks	-11827
cular	-11828
epher	-11829
ibles	-11830
imony	-11831
lined	-11832
negie	-11833
tends	-11834
vance	-11835
wheel	-11836
▁Lama	-11837
▁Main	-11838
▁MoMA	-11839
▁Oper	-11840
▁Pass	-11841
▁Pent	-11842
▁Real	-11843
▁Wars	-11844
▁alar	-11845
▁bond	-11846
▁budd	-11847
▁buzz	-11848
▁conj	-11849
▁cort	-11850
▁cues	-11851
▁curt	-11852
▁demo	-11853
▁fame	-11854
▁folk	-11855
▁menu	-11856
▁nail	-11857
▁node	-11858
▁nurt	-11859
▁seam	-11860
▁tide	-11861
bercul	-11862
energy	-11863
enment	-11864
inable	-11865
istine	-11866
lights	-11867
rators	-11868
▁2010.	-11869
▁Beeth	-11870
▁Clear	-11871
▁DARPA	-11872
▁Kelly	-11873
▁Rover	-11874
▁alleg	-11875
▁boots	-11876
▁drain	-11877
▁drone	-11878
▁elbow	-11879
▁escal	-11880
▁fairy	-11881
▁fetus	-11882
▁gifts	-11883
▁inert	-11884
▁irres	-11885
▁limbs	-11886
▁loans	-11887
▁meets	-11888
▁merit	-11889
▁newly	-11890
▁paths	-11891
▁radar	-11892
▁scope	-11893
▁snaps	-11894
▁tread	-11895
▁trium	-11896
▁valve	-11897
balance	-11898
iratory	-11899
itorium	-11900
ivation	-11901
roverts	-11902
▁Desert	-11903
▁Eighty	-11904
▁Kansas	-11905
▁Luther	-11906
▁Mathem	-11907
▁Mozart	-11908
▁Others	-11909
▁Wilson	-11910
▁balcon	-11911
▁banned	-11912
▁bucket	-11913
▁carrot	-11914
▁census	-11915
▁consol	-11916
▁courts	-11917
▁differ	-11918
▁drones	-11919
▁enters	-11920
▁fixing	-11921
▁gallon	-11922
▁guitar	-11923
▁hollow	-11924
▁humble	-11925
▁intest	-11926
▁ladder	-11927
▁misery	-11928
▁orgasm	-11929
▁psycho	-11930
▁radius	-11931
▁resort	-11932
▁slowed	-11933
▁undert	-11934
▁washed	-11935
adelphia	-11936
assembly	-11937
lessness	-11938
▁Certain	-11939
▁Denmark	-11940
▁Justice	-11941
▁Philipp	-11942
▁Toronto	-11943
▁accused	-11944
▁anxious	-11945
▁ashamed	-11946
▁barrels	-11947
▁captain	-11948
▁catalog	-11949
▁confirm	-11950
▁enforce	-11951
▁exhibit	-11952
▁fossils	-11953
▁honesty	-11954
▁liberty	-11955
▁minimal	-11956
▁novelty	-11957
▁quietly	-11958
▁reduces	-11959
▁reviews	-11960
▁sailing	-11961
▁skilled	-11962
▁squeeze	-11963
▁tickets	-11964
▁winners	-11965
istically	-11966
▁Buddhist	-11967
▁Carnegie	-11968
▁Scotland	-11969
▁Ushahidi	-11970
▁abnormal	-11971
▁advertis	-11972
▁annoying	-11973
▁attempts	-11974
▁blogging	-11975
▁calendar	-11976
▁colorful	-11977
▁constitu	-11978
▁crystall	-11979
▁donation	-11980
▁doubling	-11981
▁evaluate	-11982
▁headline	-11983
▁promises	-11984
▁reactors	-11985
▁remotely	-11986
▁sections	-11987
▁stressed	-11988
▁suburban	-11989
▁suitcase	-11990
▁supports	-11991
▁thorough	-11992
berculosis	-11993
▁Beethoven	-11994
▁Brazilian	-11995
▁Education	-11996
▁Elizabeth	-11997
▁Starbucks	-11998
▁acknowled	-11999
▁addressed	-12000
▁afterward	-12001
▁apologize	-12002
▁asteroids	-12003
▁bandwidth	-12004
▁cellphone	-12005
▁cigarette	-12006
▁demanding	-12007
▁discussed	-12008
▁eradicate	-12009
▁gratitude	-12010
▁humankind	-12011
▁impressed	-12012
▁isolation	-12013
▁mythology	-12014
▁principal	-12015
▁promising	-12016
▁resonance	-12017
▁respected	-12018
▁schooling	-12019
▁similarly	-12020
▁strengths	-12021
▁struggled	-12022
▁wandering	-12023
▁attraction	-12024
▁comparable	-12025
▁conscience	-12026
▁depressing	-12027
▁fertilizer	-12028
▁invitation	-12029
▁journalism	-12030
▁pesticides	-12031
▁quantities	-12032
▁reflective	-12033
▁relativity	-12034
▁repertoire	-12035
▁staggering	-12036
▁standpoint	-12037
▁Association	-12038
▁association	-12039
▁catastrophe	-12040
▁documenting	-12041
▁expectation	-12042
▁frustrating	-12043
▁operational	-12044
▁psychiatric	-12045
▁stimulation	-12046
▁Philadelphia	-12047
▁individually	-12048
▁configuration	-12049
▁spontaneously	-12050
▁cybercriminals	-12051
▁rehabilitation	-12052
▁environmentally	-12053
.]	-12054
Le	-12055
Me	-12056
dy	-12057
rh	-12058
ISD	-12059
boy	-12060
cav	-12061
cup	-12062
fur	-12063
raz	-12064
run	-12065
zer	-12066
▁38	-12067
▁64	-12068
▁98	-12069
▁FG	-12070
▁IT	-12071
▁MR	-12072
▁SO	-12073
▁VC	-12074
▁ov	-12075
Mart	-12076
addy	-12077
adow	-12078
alai	-12079
alin	-12080
bone	-12081
copy	-12082
eros	-12083
etts	-12084
gage	-12085
imic	-12086
omic	-12087
onal	-12088
oved	-12089
scar	-12090
ucky	-12091
umen	-12092
umor	-12093
▁50,	-12094
▁Beh	-12095
▁Bul	-12096
▁Fal	-12097
▁Gar	-12098
▁Got	-12099
▁Map	-12100
▁McC	-12101
▁Oft	-12102
▁Sty	-12103
▁ape	-12104
▁caf	-12105
▁geo	-12106
▁hij	-12107
▁hug	-12108
▁hut	-12109
▁lem	-12110
▁reh	-12111
PTCHA	-12112
achus	-12113
amboo	-12114
apses	-12115
asant	-12116
bling	-12117
chill	-12118
ected	-12119
etary	-12120
front	-12121
ibera	-12122
integ	-12123
liers	-12124
wired	-12125
ymmet	-12126
▁$100	-12127
▁100,	-12128
▁Dian	-12129
▁Lots	-12130
▁Peps	-12131
▁RISD	-12132
▁Rule	-12133
▁buck	-12134
▁bulk	-12135
▁cann	-12136
▁curs	-12137
▁dome	-12138
▁ease	-12139
▁fans	-12140
▁gaze	-12141
▁glow	-12142
▁hump	-12143
▁lane	-12144
▁larv	-12145
▁lobe	-12146
▁lure	-12147
▁rode	-12148
▁stir	-12149
▁swap	-12150
▁tect	-12151
Listen	-12152
advant	-12153
atical	-12154
ending	-12155
ignant	-12156
irling	-12157
ortion	-12158
resses	-12159
teries	-12160
viewer	-12161
▁Alpha	-12162
▁Dalai	-12163
▁Fifty	-12164
▁Freud	-12165
▁Jerry	-12166
▁Leone	-12167
▁Linux	-12168
▁Music	-12169
▁Qaeda	-12170
▁Simon	-12171
▁Small	-12172
▁Truth	-12173
▁adequ	-12174
▁arose	-12175
▁backs	-12176
▁bonds	-12177
▁bonus	-12178
▁coach	-12179
▁crust	-12180
▁dates	-12181
▁eager	-12182
▁glory	-12183
▁harsh	-12184
▁hatch	-12185
▁hears	-12186
▁incub	-12187
▁oblig	-12188
▁recla	-12189
▁repet	-12190
▁rides	-12191
▁slave	-12192
▁slept	-12193
▁sperm	-12194
▁spite	-12195
▁subsc	-12196
▁twins	-12197
▁usage	-12198
▁wreck	-12199
ometers	-12200
sterdam	-12201
ulators	-12202
▁Apollo	-12203
▁Copern	-12204
▁Dallas	-12205
▁Darfur	-12206
▁Marcus	-12207
▁Yellow	-12208
▁acquis	-12209
▁avatar	-12210
▁bamboo	-12211
▁biases	-12212
▁bounce	-12213
▁camels	-12214
▁crafts	-12215
▁divine	-12216
▁erotic	-12217
▁fights	-12218
▁firmly	-12219
▁freeze	-12220
▁hatred	-12221
▁hooked	-12222
▁louder	-12223
▁nuclei	-12224
▁pulses	-12225
▁raises	-12226
▁scarce	-12227
▁solemn	-12228
▁spends	-12229
▁titles	-12230
▁towers	-12231
▁treaty	-12232
▁underw	-12233
▁update	-12234
conflict	-12235
▁Clearly	-12236
▁Company	-12237
▁Francis	-12238
▁Wolfram	-12239
▁anatomy	-12240
▁anytime	-12241
▁bankers	-12242
▁blocked	-12243
▁bluefin	-12244
▁council	-12245
▁crystal	-12246
▁donated	-12247
▁dreamed	-12248
▁equator	-12249
▁erectus	-12250
▁examine	-12251
▁fluores	-12252
▁glacier	-12253
▁humming	-12254
▁laundry	-12255
▁needing	-12256
▁onstage	-12257
▁placebo	-12258
▁reveals	-12259
▁singers	-12260
▁strains	-12261
▁swallow	-12262
▁textile	-12263
▁tightly	-12264
▁tracked	-12265
▁triumph	-12266
achusetts	-12267
izational	-12268
nutrition	-12269
wandering	-12270
▁Mountain	-12271
▁Recently	-12272
▁Russians	-12273
▁accommod	-12274
▁approval	-12275
▁assuming	-12276
▁balanced	-12277
▁civilian	-12278
▁confined	-12279
▁contents	-12280
▁daylight	-12281
▁degraded	-12282
▁delicate	-12283
▁dreaming	-12284
▁duration	-12285
▁fairness	-12286
▁founding	-12287
▁gigantic	-12288
▁ideology	-12289
▁indirect	-12290
▁interrog	-12291
▁midnight	-12292
▁misunder	-12293
▁operated	-12294
▁patience	-12295
▁portable	-12296
▁potatoes	-12297
▁pressing	-12298
▁pursuing	-12299
▁symphony	-12300
▁velocity	-12301
▁visitors	-12302
▁Venezuela	-12303
▁affection	-12304
▁decentral	-12305
▁disadvant	-12306
▁hamburger	-12307
▁inclusive	-12308
▁injection	-12309
▁instances	-12310
▁institute	-12311
▁mysteries	-12312
▁neocortex	-12313
▁nurturing	-12314
▁realities	-12315
▁recovered	-12316
▁successes	-12317
▁vibrating	-12318
▁Compassion	-12319
▁Conference	-12320
▁accurately	-12321
▁attributes	-12322
▁basketball	-12323
▁coordinate	-12324
▁disgusting	-12325
▁disruptive	-12326
▁friendship	-12327
▁geographic	-12328
▁globalized	-12329
▁innovators	-12330
▁intangible	-12331
▁irrelevant	-12332
▁pollutants	-12333
▁procedures	-12334
▁programmer	-12335
▁smartphone	-12336
▁Interviewer	-12337
▁continually	-12338
▁empowerment	-12339
▁fundraising	-12340
▁introducing	-12341
▁demographics	-12342
▁developments	-12343
▁disabilities	-12344
▁disconnected	-12345
▁interconnect	-12346
▁tremendously	-12347
▁tuberculosis	-12348
▁Massachusetts	-12349
▁collaborators	-12350
▁developmental	-12351
▁photographers	-12352
▁nanotechnology	-12353
.7	-12354
EG	-12355
yd	-12356
400	-12357
aud	-12358
dad	-12359
hed	-12360
jud	-12361
ods	-12362
oft	-12363
oul	-12364
two	-12365
utt	-12366
▁3,	-12367
▁AO	-12368
▁AS	-12369
▁BL	-12370
▁DP	-12371
▁Ju	-12372
▁SJ	-12373
aven	-12374
cuse	-12375
dest	-12376
eron	-12377
ilia	-12378
ingo	-12379
inid	-12380
isha	-12381
neum	-12382
ocke	-12383
ruce	-12384
them	-12385
ummy	-12386
urbs	-12387
▁40-	-12388
▁Cro	-12389
▁Hop	-12390
▁Pic	-12391
▁Rel	-12392
▁Seb	-12393
▁Sum	-12394
▁Syd	-12395
▁Tem	-12396
▁bru	-12397
▁cod	-12398
▁dub	-12399
▁dug	-12400
▁gym	-12401
▁hob	-12402
▁piv	-12403
▁sco	-12404
▁tid	-12405
Great	-12406
backs	-12407
cerpt	-12408
idesp	-12409
idity	-12410
igned	-12411
lical	-12412
munic	-12413
osion	-12414
ucked	-12415
▁200-	-12416
▁2006	-12417
▁AIMS	-12418
▁Alan	-12419
▁Beck	-12420
▁Cass	-12421
▁Chap	-12422
▁Didn	-12423
▁Fall	-12424
▁Mind	-12425
▁Poll	-12426
▁SARS	-12427
▁Sher	-12428
▁Tenn	-12429
▁Whoa	-12430
▁Work	-12431
▁argu	-12432
▁auto	-12433
▁axes	-12434
▁bail	-12435
▁cafe	-12436
▁cage	-12437
▁doct	-12438
▁dorm	-12439
▁esca	-12440
▁hurd	-12441
▁indo	-12442
▁moth	-12443
▁owns	-12444
▁peel	-12445
▁prag	-12446
▁pron	-12447
▁sket	-12448
▁sums	-12449
▁tips	-12450
▁trap	-12451
airobi	-12452
alized	-12453
anting	-12454
azeera	-12455
govern	-12456
imicry	-12457
reatic	-12458
redict	-12459
rowing	-12460
screen	-12461
tering	-12462
weeney	-12463
▁Bonob	-12464
▁Field	-12465
▁Going	-12466
▁Lagos	-12467
▁Moses	-12468
▁Roman	-12469
▁Syria	-12470
▁Techn	-12471
▁absor	-12472
▁amino	-12473
▁bikes	-12474
▁blows	-12475
▁epile	-12476
▁ethic	-12477
▁faint	-12478
▁halls	-12479
▁icons	-12480
▁incon	-12481
▁lasts	-12482
▁lined	-12483
▁moist	-12484
▁neutr	-12485
▁noble	-12486
▁poses	-12487
▁postc	-12488
▁reads	-12489
▁scare	-12490
▁spine	-12491
▁steer	-12492
▁swing	-12493
▁Bhutan	-12494
▁Cooper	-12495
▁Garden	-12496
▁Greeks	-12497
▁Incred	-12498
▁Kibera	-12499
▁Person	-12500
▁Wouldn	-12501
▁agrees	-12502
▁arrows	-12503
▁bookst	-12504
▁defeat	-12505
▁digits	-12506
▁elders	-12507
▁elites	-12508
▁expose	-12509
▁forbid	-12510
▁hotter	-12511
▁jungle	-12512
▁labels	-12513
▁larvae	-12514
▁lasted	-12515
▁listed	-12516
▁obsess	-12517
▁parked	-12518
▁shield	-12519
▁sticky	-12520
▁tastes	-12521
▁toxins	-12522
▁tribal	-12523
▁triple	-12524
▁turbul	-12525
▁viewer	-12526
▁voyage	-12527
▁writes	-12528
appiness	-12529
appropri	-12530
positive	-12531
▁400,000	-12532
▁Liberia	-12533
▁Luckily	-12534
▁Nairobi	-12535
▁Sputnik	-12536
▁Swedish	-12537
▁Windows	-12538
▁abandon	-12539
▁aquatic	-12540
▁careers	-12541
▁compact	-12542
▁deficit	-12543
▁desires	-12544
▁divorce	-12545
▁dragged	-12546
▁forcing	-12547
▁heights	-12548
▁jumping	-12549
▁knocked	-12550
▁manages	-12551
▁prisons	-12552
▁reinfor	-12553
▁retired	-12554
▁rockets	-12555
▁seasons	-12556
▁symptom	-12557
▁utility	-12558
▁volcano	-12559
idespread	-12560
▁Building	-12561
▁Portugal	-12562
▁TEDsters	-12563
▁balloons	-12564
▁biofuels	-12565
▁consists	-12566
▁glaciers	-12567
▁habitats	-12568
▁impaired	-12569
▁meantime	-12570
▁migraine	-12571
▁notebook	-12572
▁noticing	-12573
▁officers	-12574
▁operator	-12575
▁optimize	-12576
▁rainfall	-12577
▁reporter	-12578
▁rotating	-12579
▁singular	-12580
▁sketches	-12581
▁stepping	-12582
▁superior	-12583
▁unstable	-12584
▁visceral	-12585
▁volcanic	-12586
▁Amsterdam	-12587
▁Darwinian	-12588
▁Egyptians	-12589
▁Hopefully	-12590
▁ambiguity	-12591
▁assembled	-12592
▁assistant	-12593
▁campaigns	-12594
▁cathedral	-12595
▁certainty	-12596
▁declining	-12597
▁distorted	-12598
▁exquisite	-12599
▁implanted	-12600
▁limestone	-12601
▁massively	-12602
▁packaging	-12603
▁pervasive	-12604
▁preserved	-12605
▁satisfied	-12606
▁stressful	-12607
▁unpredict	-12608
▁varieties	-12609
▁Democratic	-12610
▁accounting	-12611
▁advantages	-12612
▁appliances	-12613
▁assessment	-12614
▁beginnings	-12615
▁censorship	-12616
▁compressed	-12617
▁culturally	-12618
▁disruption	-12619
▁infinitely	-12620
▁starvation	-12621
▁temptation	-12622
▁accountable	-12623
▁aspirations	-12624
▁conclusions	-12625
▁corporation	-12626
▁destructive	-12627
▁existential	-12628
▁implication	-12629
▁inefficient	-12630
▁mammography	-12631
▁negotiating	-12632
▁preventable	-12633
▁intersection	-12634
▁malnutrition	-12635
▁manufacturer	-12636
▁metropolitan	-12637
▁surroundings	-12638
▁determination	-12639
▁improvisation	-12640
▁presentations	-12641
▁bioluminescence	-12642
▁experimentation	-12643
99	-12644
HO	-12645
IN	-12646
Je	-12647
On	-12648
SE	-12649
ju	-12650
uj	-12651
Not	-12652
aba	-12653
azy	-12654
gue	-12655
isa	-12656
lem	-12657
yan	-12658
you	-12659
▁AR	-12660
▁BC	-12661
▁IR	-12662
▁Mi	-12663
▁PH	-12664
▁Si	-12665
Your	-12666
abad	-12667
acks	-12668
amen	-12669
assy	-12670
ells	-12671
fund	-12672
hole	-12673
hops	-12674
ials	-12675
ickr	-12676
iflu	-12677
intu	-12678
mart	-12679
rust	-12680
spec	-12681
ylan	-12682
zone	-12683
▁Emb	-12684
▁Ess	-12685
▁NGO	-12686
▁Rog	-12687
▁Scr	-12688
▁Too	-12689
▁Toy	-12690
▁cin	-12691
▁fee	-12692
▁fer	-12693
▁haz	-12694
▁nud	-12695
▁ove	-12696
▁rud	-12697
adequ	-12698
cuses	-12699
ensed	-12700
essee	-12701
gebra	-12702
ibati	-12703
ieval	-12704
izona	-12705
opoly	-12706
oshop	-12707
phing	-12708
stick	-12709
▁1800	-12710
▁2001	-12711
▁Dead	-12712
▁Dean	-12713
▁Doug	-12714
▁Full	-12715
▁Head	-12716
▁Marg	-12717
▁Palm	-12718
▁Pink	-12719
▁Rose	-12720
▁Sony	-12721
▁True	-12722
▁Vill	-12723
▁Whit	-12724
▁Yale	-12725
▁adul	-12726
▁aged	-12727
▁coch	-12728
▁cram	-12729
▁exit	-12730
▁feas	-12731
▁flop	-12732
▁herd	-12733
▁keen	-12734
▁moms	-12735
▁pond	-12736
▁pops	-12737
▁tilt	-12738
carbon	-12739
etical	-12740
icular	-12741
igrade	-12742
obiles	-12743
opatch	-12744
ospher	-12745
▁7,000	-12746
▁9/11,	-12747
▁Agnes	-12748
▁Allen	-12749
▁Const	-12750
▁Dylan	-12751
▁Intel	-12752
▁Kyoto	-12753
▁Later	-12754
▁Maria	-12755
▁Matth	-12756
▁Often	-12757
▁Pepsi	-12758
▁Point	-12759
▁Solar	-12760
▁Stand	-12761
▁Susan	-12762
▁Using	-12763
▁arrog	-12764
▁bumps	-12765
▁careg	-12766
▁chunk	-12767
▁dealt	-12768
▁dimin	-12769
▁drama	-12770
▁drift	-12771
▁dunes	-12772
▁dwell	-12773
▁empir	-12774
▁flown	-12775
▁germs	-12776
▁goats	-12777
▁grief	-12778
▁hobby	-12779
▁incar	-12780
▁jokes	-12781
▁kilos	-12782
▁lakes	-12783
▁locom	-12784
▁merch	-12785
▁myths	-12786
▁peaks	-12787
▁pneum	-12788
▁poets	-12789
▁recip	-12790
▁taboo	-12791
▁tiger	-12792
▁tweet	-12793
▁unequ	-12794
▁verge	-12795
▁wrest	-12796
▁wrink	-12797
fashion	-12798
massive	-12799
ocative	-12800
rospect	-12801
▁Barack	-12802
▁Energy	-12803
▁Greece	-12804
▁Invest	-12805
▁Jordan	-12806
▁Marine	-12807
▁Sydney	-12808
▁Zipcar	-12809
▁admire	-12810
▁angels	-12811
▁cardio	-12812
▁cement	-12813
▁coding	-12814
▁cookie	-12815
▁drinks	-12816
▁judges	-12817
▁loaded	-12818
▁mayors	-12819
▁melody	-12820
▁pirate	-12821
▁punish	-12822
▁purely	-12823
▁reflex	-12824
▁rooted	-12825
▁slogan	-12826
▁smiles	-12827
▁spouse	-12828
▁statue	-12829
▁stunts	-12830
▁tennis	-12831
▁theirs	-12832
▁thrust	-12833
▁timber	-12834
▁underp	-12835
▁verbal	-12836
▁wander	-12837
▁wiring	-12838
aterials	-12839
breaking	-12840
ithmetic	-12841
osterone	-12842
specific	-12843
▁Arizona	-12844
▁Climate	-12845
▁Georgia	-12846
▁Jazeera	-12847
▁Siberia	-12848
▁Tamiflu	-12849
▁archive	-12850
▁bananas	-12851
▁broadly	-12852
▁deserts	-12853
▁diamond	-12854
▁excerpt	-12855
▁focuses	-12856
▁hallway	-12857
▁hunters	-12858
▁inadequ	-12859
▁indoors	-12860
▁mustard	-12861
▁outdoor	-12862
▁painter	-12863
▁posture	-12864
▁recruit	-12865
▁regimes	-12866
▁rehears	-12867
▁romance	-12868
▁shadows	-12869
▁spheres	-12870
▁subsequ	-12871
▁suburbs	-12872
▁syringe	-12873
▁victory	-12874
▁warfare	-12875
▁wasting	-12876
ependence	-12877
organized	-12878
▁Guardian	-12879
▁Kiribati	-12880
▁Medicine	-12881
▁Moreover	-12882
▁Students	-12883
▁advocate	-12884
▁applause	-12885
▁backpack	-12886
▁commonly	-12887
▁communal	-12888
▁diagnose	-12889
▁embraced	-12890
▁insecure	-12891
▁juggling	-12892
▁persuade	-12893
▁referred	-12894
▁register	-12895
▁regulate	-12896
▁settings	-12897
▁synapses	-12898
▁weekends	-12899
organizing	-12900
▁Argentina	-12901
▁Mountains	-12902
▁Nanopatch	-12903
▁Tennessee	-12904
▁academics	-12905
▁apparatus	-12906
▁arbitrary	-12907
▁cooperate	-12908
▁displaced	-12909
▁educating	-12910
▁epidemics	-12911
▁explorers	-12912
▁filmmaker	-12913
▁fisheries	-12914
▁honeybees	-12915
▁inflation	-12916
▁inherited	-12917
▁instincts	-12918
▁intrinsic	-12919
▁marvelous	-12920
▁orphanage	-12921
▁pathogens	-12922
▁preschool	-12923
▁releasing	-12924
▁relevance	-12925
▁selective	-12926
▁simulated	-12927
▁submitted	-12928
▁surprises	-12929
▁worldview	-12930
▁Especially	-12931
▁aspiration	-12932
▁auditorium	-12933
▁brainstorm	-12934
▁correlated	-12935
▁developers	-12936
▁expressing	-12937
▁footprints	-12938
▁nonviolent	-12939
▁pancreatic	-12940
▁unintended	-12941
▁widespread	-12942
▁appreciated	-12943
▁backgrounds	-12944
▁celebrating	-12945
▁commodities	-12946
▁complaining	-12947
▁maintaining	-12948
▁medications	-12949
▁negotiation	-12950
▁publication	-12951
▁questioning	-12952
▁reinventing	-12953
▁astronomical	-12954
▁deliberately	-12955
▁negotiations	-12956
▁testosterone	-12957
▁appropriately	-12958
▁independently	-12959
▁investigating	-12960
▁cardiovascular	-12961
AC	-12962
Hi	-12963
OX	-12964
Pe	-12965
wa	-12966
zo	-12967
Pro	-12968
bot	-12969
cam	-12970
erk	-12971
ffe	-12972
mat	-12973
obe	-12974
ogs	-12975
rer	-12976
sis	-12977
▁74	-12978
▁AV	-12979
▁Fe	-12980
▁MP	-12981
▁SR	-12982
▁Sn	-12983
▁UV	-12984
▁ft	-12985
▁ly	-12986
▁uh	-12987
Just	-12988
aman	-12989
arer	-12990
avil	-12991
eram	-12992
hill	-12993
iege	-12994
ileo	-12995
itra	-12996
kers	-12997
last	-12998
lier	-12999
obic	-13000
orph	-13001
rina	-13002
with	-13003
▁14-	-13004
▁Ark	-13005
▁Aur	-13006
▁Bat	-13007
▁CIA	-13008
▁CNN	-13009
▁Die	-13010
▁FOX	-13011
▁Fer	-13012
▁Hit	-13013
▁Isa	-13014
▁Kar	-13015
▁Max	-13016
▁Pri	-13017
▁Rec	-13018
▁Sad	-13019
▁Tai	-13020
▁Top	-13021
▁aph	-13022
▁blo	-13023
▁bos	-13024
▁cav	-13025
▁cue	-13026
▁dar	-13027
▁gru	-13028
▁ion	-13029
▁kin	-13030
▁mol	-13031
▁por	-13032
▁rac	-13033
▁umb	-13034
,000.	-13035
These	-13036
annah	-13037
cycle	-13038
erend	-13039
gered	-13040
geria	-13041
leans	-13042
lived	-13043
otics	-13044
rants	-13045
ribes	-13046
▁2010	-13047
▁Best	-13048
▁Brun	-13049
▁Cuba	-13050
▁Desp	-13051
▁Fast	-13052
▁Home	-13053
▁Joel	-13054
▁Left	-13055
▁Lind	-13056
▁Mald	-13057
▁Mama	-13058
▁Peru	-13059
▁Pier	-13060
▁Side	-13061
▁Soon	-13062
▁Stat	-13063
▁Text	-13064
▁Type	-13065
▁Wild	-13066
▁aort	-13067
▁boil	-13068
▁bunk	-13069
▁cane	-13070
▁dodo	-13071
▁envy	-13072
▁jury	-13073
▁mash	-13074
▁mund	-13075
▁perf	-13076
▁pity	-13077
▁plut	-13078
▁sync	-13079
▁taxi	-13080
▁tink	-13081
achers	-13082
ailing	-13083
asking	-13084
engers	-13085
ermaid	-13086
erness	-13087
giving	-13088
health	-13089
istant	-13090
istors	-13091
ocaust	-13092
ogenic	-13093
oulder	-13094
puters	-13095
strong	-13096
verted	-13097
▁1994,	-13098
▁2011,	-13099
▁Bruce	-13100
▁Julia	-13101
▁Labor	-13102
▁Mayor	-13103
▁Nepal	-13104
▁Prime	-13105
▁Venus	-13106
▁Wired	-13107
▁amput	-13108
▁banjo	-13109
▁blade	-13110
▁compr	-13111
▁gecko	-13112
▁grabs	-13113
▁grape	-13114
▁guilt	-13115
▁handy	-13116
▁hunch	-13117
▁hurts	-13118
▁parap	-13119
▁penis	-13120
▁posed	-13121
▁relie	-13122
▁remem	-13123
▁ruled	-13124
▁steak	-13125
▁tales	-13126
▁trait	-13127
▁tutor	-13128
▁vapor	-13129
▁votes	-13130
▁wives	-13131
develop	-13132
inative	-13133
quarium	-13134
writing	-13135
▁Either	-13136
▁Engine	-13137
▁Flickr	-13138
▁Guinea	-13139
▁Norman	-13140
▁Reagan	-13141
▁Rights	-13142
▁Simple	-13143
▁Thirty	-13144
▁aerial	-13145
▁bitter	-13146
▁cooler	-13147
▁crocod	-13148
▁decomp	-13149
▁dumped	-13150
▁embark	-13151
▁enzyme	-13152
▁hotels	-13153
▁improb	-13154
▁indoor	-13155
▁invade	-13156
▁ironic	-13157
▁lenses	-13158
▁noises	-13159
▁pilots	-13160
▁poorly	-13161
▁puppet	-13162
▁reserv	-13163
▁salmon	-13164
▁shells	-13165
▁spills	-13166
▁stated	-13167
▁stockp	-13168
▁strang	-13169
▁throws	-13170
▁unimag	-13171
▁united	-13172
▁urgent	-13173
▁violin	-13174
▁wallet	-13175
Jeopardy	-13176
attering	-13177
ceptable	-13178
ceptible	-13179
ospheric	-13180
▁Command	-13181
▁Galileo	-13182
▁Hundred	-13183
▁Lesters	-13184
▁Orleans	-13185
▁Somalia	-13186
▁Theater	-13187
▁Usually	-13188
▁algebra	-13189
▁beaches	-13190
▁beloved	-13191
▁boiling	-13192
▁cabinet	-13193
▁charter	-13194
▁cleaned	-13195
▁compens	-13196
▁crashed	-13197
▁derived	-13198
▁disagre	-13199
▁editors	-13200
▁excuses	-13201
▁fractal	-13202
▁gaining	-13203
▁holiday	-13204
▁lithium	-13205
▁masters	-13206
▁mineral	-13207
▁partial	-13208
▁recycle	-13209
▁relates	-13210
▁satisfy	-13211
▁shepher	-13212
▁sterile	-13213
▁surplus	-13214
▁thunder	-13215
▁trailer	-13216
▁volumes	-13217
▁withdra	-13218
▁worries	-13219
fashioned	-13220
▁Lawrence	-13221
▁Learning	-13222
▁Margaret	-13223
▁Movement	-13224
▁Scottish	-13225
▁admitted	-13226
▁assigned	-13227
▁autistic	-13228
▁bleeding	-13229
▁clapping	-13230
▁coherent	-13231
▁composer	-13232
▁contexts	-13233
▁employed	-13234
▁equipped	-13235
▁horrific	-13236
▁insisted	-13237
▁inviting	-13238
▁laughter	-13239
▁literary	-13240
▁matching	-13241
▁missions	-13242
▁observer	-13243
▁paradise	-13244
▁photosyn	-13245
▁pristine	-13246
▁producer	-13247
▁reminder	-13248
▁requests	-13249
▁sessions	-13250
▁shortcut	-13251
▁stewards	-13252
▁strictly	-13253
▁superher	-13254
▁sympathy	-13255
▁underway	-13256
industrial	-13257
▁Palestine	-13258
▁appealing	-13259
▁attribute	-13260
▁augmented	-13261
▁automatic	-13262
▁certified	-13263
▁charities	-13264
▁committee	-13265
▁criticism	-13266
▁cultivate	-13267
▁directors	-13268
▁execution	-13269
▁exhausted	-13270
▁fertility	-13271
▁histories	-13272
▁imaginary	-13273
▁interfere	-13274
▁inventing	-13275
▁kilograms	-13276
▁launching	-13277
▁metaphors	-13278
▁ministers	-13279
▁premature	-13280
▁routinely	-13281
▁sexuality	-13282
▁shrinking	-13283
▁stabilize	-13284
▁synthesis	-13285
▁triangles	-13286
▁Scientists	-13287
▁acceptable	-13288
▁antibiotic	-13289
▁attachment	-13290
▁capacities	-13291
▁cartoonist	-13292
▁commentary	-13293
▁criticized	-13294
▁distribute	-13295
▁explicitly	-13296
▁fingertips	-13297
▁foreground	-13298
▁fulfilling	-13299
▁homosexual	-13300
▁indication	-13301
▁irrigation	-13302
▁limitation	-13303
▁randomness	-13304
▁registered	-13305
▁responsive	-13306
▁subjective	-13307
▁telephones	-13308
▁battlefield	-13309
▁coincidence	-13310
▁competitors	-13311
▁conferences	-13312
▁counterpart	-13313
▁integrating	-13314
▁involvement	-13315
▁meaningless	-13316
▁respiratory	-13317
▁seriousness	-13318
▁suggestions	-13319
▁threatening	-13320
▁willingness	-13321
▁accidentally	-13322
▁combinations	-13323
▁incidentally	-13324
▁quantitative	-13325
▁similarities	-13326
▁biotechnology	-13327
▁breakthroughs	-13328
▁corresponding	-13329
▁unpredictable	-13330
▁desertification	-13331
Af	-13332
Bl	-13333
Cl	-13334
EA	-13335
vo	-13336
Get	-13337
eys	-13338
hib	-13339
lif	-13340
obi	-13341
oko	-13342
ols	-13343
pen	-13344
pol	-13345
umn	-13346
uns	-13347
▁47	-13348
▁BP	-13349
▁BR	-13350
▁DD	-13351
▁Er	-13352
▁Hu	-13353
▁Ku	-13354
▁MM	-13355
▁ST	-13356
Star	-13357
anor	-13358
arks	-13359
aved	-13360
bons	-13361
cart	-13362
enza	-13363
ideo	-13364
ikes	-13365
iner	-13366
itis	-13367
know	-13368
mble	-13369
oler	-13370
rays	-13371
roid	-13372
rosh	-13373
stop	-13374
type	-13375
uana	-13376
wall	-13377
warf	-13378
xtap	-13379
▁110	-13380
▁14,	-13381
▁18-	-13382
▁189	-13383
▁Bah	-13384
▁End	-13385
▁Fem	-13386
▁Hem	-13387
▁Hud	-13388
▁Lyn	-13389
▁Muh	-13390
▁Ott	-13391
▁Pap	-13392
▁Ric	-13393
▁Sho	-13394
▁Sri	-13395
▁Tro	-13396
▁WHO	-13397
▁Wil	-13398
▁agn	-13399
▁ais	-13400
▁bid	-13401
▁hoo	-13402
▁lag	-13403
▁lev	-13404
▁obe	-13405
▁pix	-13406
▁quo	-13407
▁rab	-13408
▁ren	-13409
▁sap	-13410
▁sug	-13411
▁vig	-13412
▁wig	-13413
annel	-13414
awatt	-13415
azine	-13416
bands	-13417
berty	-13418
eches	-13419
fight	-13420
green	-13421
igers	-13422
otent	-13423
regon	-13424
shirt	-13425
sight	-13426
▁Ball	-13427
▁Cart	-13428
▁Case	-13429
▁Coch	-13430
▁Hard	-13431
▁Nich	-13432
▁Odys	-13433
▁Phys	-13434
▁Self	-13435
▁Slow	-13436
▁Virt	-13437
▁Yves	-13438
▁amph	-13439
▁bent	-13440
▁bron	-13441
▁buys	-13442
▁cher	-13443
▁dash	-13444
▁fuse	-13445
▁gosh	-13446
▁heel	-13447
▁lied	-13448
▁orth	-13449
▁rage	-13450
▁ramp	-13451
▁rear	-13452
▁rept	-13453
▁riot	-13454
▁skys	-13455
▁slam	-13456
▁swam	-13457
▁twin	-13458
▁watt	-13459
▁wipe	-13460
arious	-13461
astian	-13462
change	-13463
charge	-13464
consum	-13465
design	-13466
estion	-13467
icides	-13468
inates	-13469
master	-13470
ologic	-13471
people	-13472
places	-13473
razine	-13474
uclear	-13475
verbal	-13476
▁1990,	-13477
▁1995,	-13478
▁2004.	-13479
▁Arabs	-13480
▁Barry	-13481
▁Cross	-13482
▁Doesn	-13483
▁Finan	-13484
▁Forty	-13485
▁Short	-13486
▁Skype	-13487
▁Whole	-13488
▁centr	-13489
▁chord	-13490
▁cubic	-13491
▁essay	-13492
▁flags	-13493
▁flick	-13494
▁geese	-13495
▁gyrus	-13496
▁heter	-13497
▁jeans	-13498
▁livel	-13499
▁macro	-13500
▁ninth	-13501
▁oppon	-13502
▁oxide	-13503
▁paran	-13504
▁poles	-13505
▁rooft	-13506
▁sadly	-13507
▁skies	-13508
▁sober	-13509
▁spawn	-13510
▁spong	-13511
▁tails	-13512
▁tunas	-13513
▁unity	-13514
▁vents	-13515
agement	-13516
assador	-13517
banisha	-13518
discipl	-13519
growing	-13520
markets	-13521
onymous	-13522
osaurus	-13523
▁Achill	-13524
▁Easter	-13525
▁Excell	-13526
▁Falcon	-13527
▁Hitler	-13528
▁Lakota	-13529
▁League	-13530
▁Oregon	-13531
▁Poland	-13532
▁Potter	-13533
▁Taiwan	-13534
▁antide	-13535
▁archae	-13536
▁brakes	-13537
▁carcin	-13538
▁cliffs	-13539
▁compat	-13540
▁county	-13541
▁depths	-13542
▁dining	-13543
▁expend	-13544
▁finite	-13545
▁hammer	-13546
▁inputs	-13547
▁issued	-13548
▁juxtap	-13549
▁metast	-13550
▁microw	-13551
▁mosque	-13552
▁novels	-13553
▁oyster	-13554
▁polite	-13555
▁poorer	-13556
▁poured	-13557
▁priest	-13558
▁singer	-13559
▁slaves	-13560
▁stereo	-13561
▁taller	-13562
▁thirds	-13563
▁thrive	-13564
▁twenty	-13565
▁waking	-13566
othermal	-13567
▁Already	-13568
▁CAPTCHA	-13569
▁Caltech	-13570
▁Cassini	-13571
▁Digital	-13572
▁Hawking	-13573
▁Network	-13574
▁Village	-13575
▁Witness	-13576
▁categor	-13577
▁defines	-13578
▁editing	-13579
▁epiphan	-13580
▁erosion	-13581
▁evident	-13582
▁exhilar	-13583
▁explode	-13584
▁faculty	-13585
▁formats	-13586
▁founder	-13587
▁kidneys	-13588
▁migrate	-13589
▁mundane	-13590
▁nursing	-13591
▁optimal	-13592
▁plotted	-13593
▁ranging	-13594
▁relaxed	-13595
▁rightly	-13596
▁seroton	-13597
▁shallow	-13598
▁shaping	-13599
▁sounded	-13600
▁vicious	-13601
▁wonders	-13602
▁wounded	-13603
condition	-13604
▁Intellig	-13605
▁Movember	-13606
▁adjacent	-13607
▁altruism	-13608
▁atheists	-13609
▁atrazine	-13610
▁auditory	-13611
▁certific	-13612
▁crawling	-13613
▁develops	-13614
▁drilling	-13615
▁drowning	-13616
▁emergent	-13617
▁glorious	-13618
▁liberals	-13619
▁notation	-13620
▁petition	-13621
▁pinpoint	-13622
▁policing	-13623
▁receiver	-13624
▁resolved	-13625
▁sacrific	-13626
▁shouting	-13627
▁siblings	-13628
▁smartest	-13629
▁tortured	-13630
▁troubled	-13631
▁uploaded	-13632
generation	-13633
▁Photoshop	-13634
▁accepting	-13635
▁appearing	-13636
▁contracts	-13637
▁developer	-13638
▁donations	-13639
▁educators	-13640
▁followers	-13641
▁historian	-13642
▁imperfect	-13643
▁intersect	-13644
▁intrigued	-13645
▁inventors	-13646
▁penetrate	-13647
▁qualified	-13648
▁reconnect	-13649
▁reporters	-13650
▁reprogram	-13651
▁stretched	-13652
▁whistling	-13653
appropriate	-13654
▁Australian	-13655
▁Depression	-13656
▁Panbanisha	-13657
▁Vietnamese	-13658
▁aesthetics	-13659
▁altogether	-13660
▁centimeter	-13661
▁conducting	-13662
▁continuity	-13663
▁rediscover	-13664
▁transistor	-13665
▁trustworth	-13666
▁unemployed	-13667
▁worthwhile	-13668
▁Neanderthal	-13669
▁adolescents	-13670
▁antidepress	-13671
▁constrained	-13672
▁convenience	-13673
▁convergence	-13674
▁distinctive	-13675
▁manipulated	-13676
▁scaffolding	-13677
▁synesthesia	-13678
▁transistors	-13679
▁variability	-13680
▁availability	-13681
▁contaminated	-13682
▁dictionaries	-13683
▁fluctuations	-13684
▁hypothetical	-13685
▁interviewing	-13686
▁refrigerator	-13687
▁requirements	-13688
▁unemployment	-13689
▁decentralized	-13690
▁installations	-13691
▁intrinsically	-13692
▁manifestation	-13693
▁underestimate	-13694
▁bioluminescent	-13695
▁industrialized	-13696
▁mathematically	-13697
▁neuroscientists	-13698
12	-13699
IC	-13700
fu	-13701
aha	-13702
bec	-13703
hou	-13704
iki	-13705
olf	-13706
otr	-13707
rip	-13708
rir	-13709
sur	-13710
tic	-13711
vin	-13712
▁57	-13713
▁CL	-13714
▁IQ	-13715
▁NO	-13716
▁RG	-13717
▁Rh	-13718
▁XL	-13719
acci	-13720
esty	-13721
gery	-13722
greg	-13723
iper	-13724
lean	-13725
mail	-13726
phal	-13727
plex	-13728
▁13,	-13729
▁188	-13730
▁360	-13731
▁Alb	-13732
▁Ash	-13733
▁Cir	-13734
▁Fab	-13735
▁Fib	-13736
▁IDE	-13737
▁Imp	-13738
▁Kep	-13739
▁LOL	-13740
▁Nev	-13741
▁Reg	-13742
▁Rus	-13743
▁Sel	-13744
▁dim	-13745
▁hay	-13746
▁mit	-13747
▁ray	-13748
▁rod	-13749
acked	-13750
adder	-13751
agina	-13752
built	-13753
ffiti	-13754
fting	-13755
gling	-13756
icken	-13757
ihood	-13758
ladus	-13759
ocate	-13760
oking	-13761
ordon	-13762
otech	-13763
otive	-13764
uropa	-13765
▁Ages	-13766
▁Bond	-13767
▁Bulg	-13768
▁CEOs	-13769
▁Cars	-13770
▁Emma	-13771
▁Ence	-13772
▁Geor	-13773
▁Hold	-13774
▁Ivan	-13775
▁Jean	-13776
▁Kick	-13777
▁Kind	-13778
▁LEDs	-13779
▁Lank	-13780
▁Nice	-13781
▁Orch	-13782
▁Read	-13783
▁Sadd	-13784
▁Shir	-13785
▁Snow	-13786
▁Stay	-13787
▁anom	-13788
▁apoc	-13789
▁brow	-13790
▁cass	-13791
▁dude	-13792
▁flap	-13793
▁grip	-13794
▁iPad	-13795
▁lava	-13796
▁lazy	-13797
▁lent	-13798
▁medi	-13799
▁pets	-13800
▁plum	-13801
▁proc	-13802
▁reli	-13803
▁rhet	-13804
▁rust	-13805
▁snap	-13806
▁sued	-13807
▁tire	-13808
▁unne	-13809
▁unve	-13810
▁wage	-13811
▁whip	-13812
agraph	-13813
ateral	-13814
atient	-13815
diving	-13816
growth	-13817
ifteen	-13818
ijuana	-13819
imated	-13820
irable	-13821
irming	-13822
liance	-13823
linear	-13824
ocated	-13825
ostics	-13826
ranean	-13827
riages	-13828
terior	-13829
veling	-13830
▁2002,	-13831
▁2050,	-13832
▁Among	-13833
▁Cairo	-13834
▁Costa	-13835
▁Diego	-13836
▁Glass	-13837
▁Jacqu	-13838
▁Keith	-13839
▁Langu	-13840
▁Laure	-13841
▁Libya	-13842
▁Polit	-13843
▁Psych	-13844
▁Saint	-13845
▁Stock	-13846
▁Tesla	-13847
▁Titus	-13848
▁Vinci	-13849
▁alpha	-13850
▁baker	-13851
▁beast	-13852
▁booth	-13853
▁ceram	-13854
▁cheer	-13855
▁clash	-13856
▁croch	-13857
▁dwarf	-13858
▁fatty	-13859
▁humil	-13860
▁kings	-13861
▁leaks	-13862
▁lemon	-13863
▁modes	-13864
▁ozone	-13865
▁pools	-13866
▁races	-13867
▁remed	-13868
▁resid	-13869
▁rever	-13870
▁rolls	-13871
▁scrap	-13872
▁slipp	-13873
▁souls	-13874
▁stain	-13875
▁stole	-13876
▁strat	-13877
▁swear	-13878
▁therm	-13879
▁troll	-13880
chester	-13881
inators	-13882
product	-13883
▁Agency	-13884
▁Avenue	-13885
▁Behind	-13886
▁Better	-13887
▁Effect	-13888
▁Europa	-13889
▁Forest	-13890
▁Gordon	-13891
▁Ground	-13892
▁Hadron	-13893
▁Hudson	-13894
▁Kepler	-13895
▁Listen	-13896
▁Nicole	-13897
▁Tahrir	-13898
▁banana	-13899
▁banker	-13900
▁cinema	-13901
▁entity	-13902
▁fierce	-13903
▁fiscal	-13904
▁gifted	-13905
▁levers	-13906
▁popped	-13907
▁prejud	-13908
▁prosec	-13909
▁refers	-13910
▁reluct	-13911
▁routes	-13912
▁sought	-13913
▁spades	-13914
▁sucked	-13915
▁taxpay	-13916
▁thesis	-13917
▁unexpl	-13918
▁weekly	-13919
activity	-13920
chemical	-13921
novation	-13922
▁Despite	-13923
▁Jackson	-13924
▁Katrina	-13925
▁Scratch	-13926
▁Stories	-13927
▁Sweeney	-13928
▁Titanic	-13929
▁apprent	-13930
▁asymmet	-13931
▁breasts	-13932
▁couples	-13933
▁curator	-13934
▁exhaust	-13935
▁fission	-13936
▁flipped	-13937
▁inherit	-13938
▁intimid	-13939
▁janitor	-13940
▁legally	-13941
▁magnets	-13942
▁mastery	-13943
▁mentors	-13944
▁miracul	-13945
▁modular	-13946
▁newborn	-13947
▁overlap	-13948
▁payload	-13949
▁primord	-13950
▁recipes	-13951
▁recipro	-13952
▁reclaim	-13953
▁replied	-13954
▁signing	-13955
▁sponsor	-13956
▁tattoos	-13957
▁thirdly	-13958
▁tipping	-13959
▁tourist	-13960
▁tropics	-13961
▁uranium	-13962
generated	-13963
sensitive	-13964
▁Anything	-13965
▁Collider	-13966
▁Computer	-13967
▁Magazine	-13968
▁Maldives	-13969
▁absorbed	-13970
▁airports	-13971
▁amateurs	-13972
▁ancestry	-13973
▁arteries	-13974
▁catalyst	-13975
▁champion	-13976
▁creators	-13977
▁credible	-13978
▁deterior	-13979
▁dictator	-13980
▁distress	-13981
▁fighters	-13982
▁freedoms	-13983
▁frequent	-13984
▁grounded	-13985
▁highways	-13986
▁inferior	-13987
▁meanings	-13988
▁medieval	-13989
▁modified	-13990
▁obtained	-13991
▁orbiting	-13992
▁periodic	-13993
▁quarters	-13994
▁realizes	-13995
▁recreate	-13996
▁schedule	-13997
▁sensible	-13998
▁steering	-13999
▁stimulus	-14000
▁stripped	-14001
▁stumbled	-14002
▁unnecess	-14003
▁Certainly	-14004
▁Enceladus	-14005
▁Excellent	-14006
▁Financial	-14007
▁Himalayas	-14008
▁Otherwise	-14009
▁Sebastian	-14010
▁aerodynam	-14011
▁automated	-14012
▁billboard	-14013
▁confusing	-14014
▁continuum	-14015
▁corridors	-14016
▁databases	-14017
▁defending	-14018
▁dominance	-14019
▁embryonic	-14020
▁exclusive	-14021
▁generator	-14022
▁ingenuity	-14023
▁practiced	-14024
▁rendering	-14025
▁returning	-14026
▁serotonin	-14027
▁strangely	-14028
▁Incredible	-14029
▁Lesterland	-14030
▁Ultimately	-14031
▁accidental	-14032
▁arithmetic	-14033
▁beekeepers	-14034
▁calculator	-14035
▁complained	-14036
▁distracted	-14037
▁downstairs	-14038
▁eradicated	-14039
▁filmmakers	-14040
▁guaranteed	-14041
▁humanities	-14042
▁illiterate	-14043
▁inadequate	-14044
▁incomplete	-14045
▁liberation	-14046
▁livelihood	-14047
▁multiverse	-14048
▁occupation	-14049
▁performers	-14050
▁persistent	-14051
▁prioritize	-14052
▁protective	-14053
▁protocells	-14054
▁satisfying	-14055
▁simplistic	-14056
▁synthesize	-14057
▁translates	-14058
▁Essentially	-14059
▁accelerated	-14060
▁acquisition	-14061
▁anticipated	-14062
▁arrangement	-14063
▁efficiently	-14064
▁eliminating	-14065
▁exceptional	-14066
▁intentional	-14067
▁measurement	-14068
▁methodology	-14069
▁permanently	-14070
▁submersible	-14071
▁transferred	-14072
▁acceleration	-14073
▁collaborator	-14074
▁descriptions	-14075
▁differential	-14076
▁interference	-14077
▁standardized	-14078
▁unacceptable	-14079
▁conservatives	-14080
▁consideration	-14081
▁contributions	-14082
▁establishment	-14083
▁traditionally	-14084
ER	-14085
Mr	-14086
Of	-14087
Re	-14088
abs	-14089
adp	-14090
aga	-14091
agu	-14092
alg	-14093
deg	-14094
ige	-14095
iry	-14096
las	-14097
nob	-14098
oub	-14099
oug	-14100
rus	-14101
sen	-14102
uci	-14103
▁58	-14104
▁73	-14105
▁97	-14106
▁AG	-14107
▁CT	-14108
▁IV	-14109
▁Ig	-14110
▁Mt	-14111
Give	-14112
Stop	-14113
acon	-14114
apot	-14115
arms	-14116
arts	-14117
bell	-14118
bian	-14119
brew	-14120
cile	-14121
cils	-14122
eddy	-14123
etra	-14124
feed	-14125
fits	-14126
hall	-14127
home	-14128
ieth	-14129
imit	-14130
mond	-14131
moud	-14132
olia	-14133
olis	-14134
ovir	-14135
race	-14136
rame	-14137
shot	-14138
that	-14139
tion	-14140
week	-14141
ymph	-14142
your	-14143
▁18,	-14144
▁2.0	-14145
▁BMW	-14146
▁Buy	-14147
▁Cru	-14148
▁Dec	-14149
▁Dur	-14150
▁Ecu	-14151
▁Ell	-14152
▁Fox	-14153
▁Ide	-14154
▁Oak	-14155
▁bol	-14156
▁mum	-14157
▁tub	-14158
abama	-14159
abyte	-14160
alone	-14161
ambia	-14162
ammad	-14163
bolic	-14164
great	-14165
heart	-14166
icism	-14167
irrel	-14168
marks	-14169
meter	-14170
occup	-14171
ochem	-14172
olith	-14173
onies	-14174
party	-14175
pical	-14176
pling	-14177
rison	-14178
style	-14179
uding	-14180
umann	-14181
unter	-14182
▁2009	-14183
▁Arts	-14184
▁Bono	-14185
▁Cher	-14186
▁Club	-14187
▁Fair	-14188
▁Grey	-14189
▁Khan	-14190
▁Lang	-14191
▁Marx	-14192
▁Much	-14193
▁Near	-14194
▁Need	-14195
▁Romo	-14196
▁Town	-14197
▁Wide	-14198
▁anch	-14199
▁anes	-14200
▁atro	-14201
▁bass	-14202
▁dune	-14203
▁echo	-14204
▁eyeb	-14205
▁fade	-14206
▁fees	-14207
▁fled	-14208
▁hull	-14209
▁mama	-14210
▁mega	-14211
▁mism	-14212
▁nick	-14213
▁oral	-14214
▁rows	-14215
▁rupe	-14216
▁seiz	-14217
▁stap	-14218
▁tadp	-14219
▁tops	-14220
▁utop	-14221
▁womb	-14222
abytes	-14223
awatts	-14224
belief	-14225
esters	-14226
houses	-14227
izable	-14228
manuel	-14229
onacci	-14230
oscope	-14231
ouched	-14232
ougher	-14233
ourced	-14234
rified	-14235
rocess	-14236
ulsive	-14237
urfing	-14238
▁1,100	-14239
▁1960,	-14240
▁Diana	-14241
▁Early	-14242
▁Emily	-14243
▁Exact	-14244
▁Hindu	-14245
▁Hyper	-14246
▁Irish	-14247
▁Jason	-14248
▁Liber	-14249
▁Night	-14250
▁Quite	-14251
▁Video	-14252
▁bands	-14253
▁blend	-14254
▁boson	-14255
▁calib	-14256
▁cease	-14257
▁claws	-14258
▁clich	-14259
▁crawl	-14260
▁gangs	-14261
▁haunt	-14262
▁hives	-14263
▁indul	-14264
▁innoc	-14265
▁marsh	-14266
▁nanot	-14267
▁oiled	-14268
▁olive	-14269
▁overt	-14270
▁patri	-14271
▁pavil	-14272
▁polls	-14273
▁rearr	-14274
▁royal	-14275
▁skate	-14276
▁sniff	-14277
▁soils	-14278
▁stiff	-14279
▁sunny	-14280
▁theft	-14281
▁token	-14282
▁trunk	-14283
▁typed	-14284
▁unple	-14285
▁vague	-14286
centric	-14287
conomic	-14288
erendip	-14289
fulness	-14290
imental	-14291
keeping	-14292
roviral	-14293
sharing	-14294
tically	-14295
▁Harlem	-14296
▁Inside	-14297
▁Julian	-14298
▁Ninety	-14299
▁Online	-14300
▁Senate	-14301
▁Spider	-14302
▁Unlike	-14303
▁basics	-14304
▁biased	-14305
▁bumble	-14306
▁cellul	-14307
▁cereal	-14308
▁charts	-14309
▁cloned	-14310
▁collar	-14311
▁cooked	-14312
▁curved	-14313
▁depict	-14314
▁dissem	-14315
▁drople	-14316
▁floods	-14317
▁gently	-14318
▁ideals	-14319
▁incons	-14320
▁insult	-14321
▁jacket	-14322
▁legend	-14323
▁lining	-14324
▁mantis	-14325
▁melted	-14326
▁mimics	-14327
▁multim	-14328
▁overse	-14329
▁payoff	-14330
▁primal	-14331
▁prints	-14332
▁prizes	-14333
▁prolif	-14334
▁pushes	-14335
▁quotes	-14336
▁rebell	-14337
▁rented	-14338
▁retain	-14339
▁ripped	-14340
▁sealed	-14341
▁slices	-14342
▁starch	-14343
▁suburb	-14344
▁transf	-14345
▁vastly	-14346
friendly	-14347
national	-14348
▁Alabama	-14349
▁Between	-14350
▁Cameron	-14351
▁Ecuador	-14352
▁Getting	-14353
▁Mediter	-14354
▁Russell	-14355
▁Turkish	-14356
▁auction	-14357
▁bombing	-14358
▁crosses	-14359
▁crowded	-14360
▁emailed	-14361
▁empires	-14362
▁enzymes	-14363
▁extends	-14364
▁favelas	-14365
▁inspect	-14366
▁invaded	-14367
▁mandate	-14368
▁margins	-14369
▁millise	-14370
▁packing	-14371
▁phrases	-14372
▁placing	-14373
▁polymer	-14374
▁scripts	-14375
▁seminal	-14376
▁strokes	-14377
▁tagging	-14378
▁unified	-14379
▁upgrade	-14380
▁vibrant	-14381
▁warrior	-14382
ciliation	-14383
intuitive	-14384
ographing	-14385
▁Colorado	-14386
▁Friedman	-14387
▁Muhammad	-14388
▁Pentagon	-14389
▁athletes	-14390
▁blessing	-14391
▁blocking	-14392
▁commands	-14393
▁conceive	-14394
▁crystals	-14395
▁currents	-14396
▁declined	-14397
▁depended	-14398
▁diagrams	-14399
▁dividing	-14400
▁dominate	-14401
▁doodling	-14402
▁emphasis	-14403
▁festival	-14404
▁forehead	-14405
▁graffiti	-14406
▁immortal	-14407
▁implicit	-14408
▁improves	-14409
▁infinity	-14410
▁maternal	-14411
▁murdered	-14412
▁occupied	-14413
▁passport	-14414
▁prevents	-14415
▁reacting	-14416
▁rendered	-14417
▁secretly	-14418
▁starving	-14419
▁sweeping	-14420
▁transact	-14421
performing	-14422
resolution	-14423
▁Armstrong	-14424
▁Companies	-14425
▁Europeans	-14426
▁Fibonacci	-14427
▁ambiguous	-14428
▁attempted	-14429
▁belonging	-14430
▁cognition	-14431
▁combining	-14432
▁companion	-14433
▁competent	-14434
▁contribut	-14435
▁detectors	-14436
▁digitally	-14437
▁displayed	-14438
▁geometric	-14439
▁graduates	-14440
▁headaches	-14441
▁imbalance	-14442
▁imitation	-14443
▁immensely	-14444
▁mammogram	-14445
▁marijuana	-14446
▁meanwhile	-14447
▁pediatric	-14448
▁populated	-14449
▁rectangle	-14450
▁strongest	-14451
▁subsidies	-14452
▁treadmill	-14453
▁triggered	-14454
▁unfolding	-14455
▁adventures	-14456
▁analytical	-14457
▁articulate	-14458
▁astronauts	-14459
▁attendance	-14460
▁cigarettes	-14461
▁conception	-14462
▁conspiracy	-14463
▁contagious	-14464
▁eliminated	-14465
▁excellence	-14466
▁explosions	-14467
▁harvesting	-14468
▁hypotheses	-14469
▁identities	-14470
▁linguistic	-14471
▁measurable	-14472
▁millennium	-14473
▁outrageous	-14474
▁primordial	-14475
▁questioned	-14476
▁references	-14477
▁respectful	-14478
▁settlement	-14479
▁superpower	-14480
▁unpleasant	-14481
▁automobiles	-14482
▁enlightened	-14483
▁financially	-14484
▁fingerprint	-14485
▁flourishing	-14486
▁illustrates	-14487
▁incorporate	-14488
▁incremental	-14489
▁initiatives	-14490
▁intuitively	-14491
▁radioactive	-14492
▁requirement	-14493
▁scholarship	-14494
▁translating	-14495
▁achievements	-14496
▁arrangements	-14497
▁commissioned	-14498
▁grandmothers	-14499
▁neurological	-14500
▁performances	-14501
▁Mediterranean	-14502
▁comprehensive	-14503
▁dysfunctional	-14504
▁effectiveness	-14505
▁proliferation	-14506
▁unsustainable	-14507
Fi	-14508
LS	-14509
NC	-14510
fi	-14511
sm	-14512
abe	-14513
aic	-14514
aka	-14515
alo	-14516
any	-14517
but	-14518
cur	-14519
ded	-14520
def	-14521
eid	-14522
eor	-14523
exp	-14524
hyd	-14525
kel	-14526
lit	-14527
ogy	-14528
oqu	-14529
pot	-14530
sim	-14531
urp	-14532
▁"]	-14533
▁1:	-14534
▁5.	-14535
▁Aw	-14536
▁Ce	-14537
▁DI	-14538
▁DM	-14539
▁ED	-14540
▁Ev	-14541
▁IC	-14542
▁TM	-14543
▁Ur	-14544
▁hi	-14545
▁ya	-14546
Sook	-14547
Wait	-14548
alan	-14549
asis	-14550
atan	-14551
boat	-14552
comp	-14553
egas	-14554
high	-14555
hran	-14556
iary	-14557
icut	-14558
imps	-14559
kill	-14560
lene	-14561
opes	-14562
rand	-14563
requ	-14564
rill	-14565
ripp	-14566
risk	-14567
rock	-14568
rost	-14569
star	-14570
uate	-14571
velt	-14572
▁'30	-14573
▁11.	-14574
▁17,	-14575
▁186	-14576
▁20.	-14577
▁99.	-14578
▁Alf	-14579
▁Bow	-14580
▁Cou	-14581
▁Hon	-14582
▁Hur	-14583
▁Ill	-14584
▁Moh	-14585
▁Nik	-14586
▁RSW	-14587
▁Rou	-14588
▁Sol	-14589
▁Sue	-14590
▁Tob	-14591
▁Von	-14592
▁Wel	-14593
▁["'	-14594
▁bot	-14595
▁dod	-14596
▁gor	-14597
▁gur	-14598
▁huh	-14599
▁onc	-14600
▁pee	-14601
▁unb	-14602
▁ups	-14603
akery	-14604
brain	-14605
child	-14606
eland	-14607
found	-14608
inked	-14609
irmed	-14610
isure	-14611
onics	-14612
owned	-14613
pable	-14614
rooms	-14615
stood	-14616
watch	-14617
write	-14618
▁1940	-14619
▁2003	-14620
▁Baby	-14621
▁Barb	-14622
▁Buff	-14623
▁Duke	-14624
▁Eden	-14625
▁Evan	-14626
▁FOXO	-14627
▁Farm	-14628
▁Fold	-14629
▁Help	-14630
▁Holy	-14631
▁Hyun	-14632
▁IDEO	-14633
▁Land	-14634
▁Lapt	-14635
▁Live	-14636
▁Nash	-14637
▁Nine	-14638
▁UCLA	-14639
▁Word	-14640
▁blob	-14641
▁clap	-14642
▁coma	-14643
▁dove	-14644
▁ecst	-14645
[...]
